[PAD] 0
[unused1] 0
[unused2] 0
[unused3] 0
[unused4] 0
[unused5] 0
[unused6] 0
[unused7] 0
[unused8] 0
[unused9] 0
[unused10] 0
[unused11] 0
[unused12] 0
[unused13] 0
[unused14] 0
[unused15] 0
[unused16] 0
[unused17] 0
[unused18] 0
[unused19] 0
[unused20] 0
[unused21] 0
[unused22] 0
[unused23] 0
[unused24] 0
[unused25] 0
[unused26] 0
[unused27] 0
[unused28] 0
[unused29] 0
[unused30] 0
[unused31] 0
[unused32] 0
[unused33] 0
[unused34] 0
[unused35] 0
[unused36] 0
[unused37] 0
[unused38] 0
[unused39] 0
[unused40] 0
[unused41] 0
[unused42] 0
[unused43] 0
[unused44] 0
[unused45] 0
[unused46] 0
[unused47] 0
[unused48] 0
[unused49] 0
[unused50] 0
[unused51] 0
[unused52] 0
[unused53] 0
[unused54] 0
[unused55] 0
[unused56] 0
[unused57] 0
[unused58] 0
[unused59] 0
[unused60] 0
[unused61] 0
[unused62] 0
[unused63] 0
[unused64] 0
[unused65] 0
[unused66] 0
[unused67] 0
[unused68] 0
[unused69] 0
[unused70] 0
[unused71] 0
[unused72] 0
[unused73] 0
[unused74] 0
[unused75] 0
[unused76] 0
[unused77] 0
[unused78] 0
[unused79] 0
[unused80] 0
[unused81] 0
[unused82] 0
[unused83] 0
[unused84] 0
[unused85] 0
[unused86] 0
[unused87] 0
[unused88] 0
[unused89] 0
[unused90] 0
[unused91] 0
[unused92] 0
[unused93] 0
[unused94] 0
[unused95] 0
[unused96] 0
[unused97] 0
[unused98] 0
[unused99] 0
[UNK] 0
[CLS] 0
[SEP] 0
[MASK] 0
[EOS] 0
! 0
" 0
# 0
$ 0
% 0
& 0
' 0
( 0
) 0
* 0
+ 0
, 0
- 0
. 0
/ 0
0 0
1 0
2 0
3 0
4 0
5 0
6 0
7 0
8 0
9 0
: 0
; 0
< 0
= 0
> 0
? 0
@ 0
A 0
B 0
C 0
D 0
E 0
F 0
G 0
H 0
I 0
J 0
K 0
L 0
M 0
N 0
O 0
P 0
Q 0
R 0
S 0
T 0
U 0
V 0
W 0
X 0
Y 0
Z 0
[ 0
\ 0
] 0
^ 0
_ 0
` 0
a 0
b 0
c 0
d 0
e 0
f 0
g 0
h 0
i 0
j 0
k 0
l 0
m 0
n 0
o 0
p 0
q 0
r 0
s 0
t 0
u 0
v 0
w 0
x 0
y 0
z 0
{ 0
| 0
} 0
~ 0
¡ 0
¢ 0
£ 0
¤ 0
¥ 0
¦ 0
§ 0
¨ 0
© 0
ª 0
« 0
¬ 0
® 0
¯ 0
° 0
± 0
² 0
³ 0
´ 0
µ 0
¶ 0
· 0
¸ 0
¹ 0
º 0
» 0
¼ 0
½ 0
¾ 0
¿ 0
Æ 0
Ð 0
× 0
Ø 0
Þ 0
ß 0
æ 0
ð 0
÷ 0
ø 0
þ 0
Đ 0
đ 0
Ħ 0
ħ 0
ı 0
Ĳ 0
ĳ 0
ĸ 0
Ŀ 0
ŀ 0
Ł 0
ł 0
ŉ 0
Ŋ 0
ŋ 0
Œ 0
œ 0
Ŧ 0
ŧ 0
ſ 0
ƀ 0
Ɓ 0
Ƃ 0
ƃ 0
Ƅ 0
ƅ 0
Ɔ 0
Ƈ 0
ƈ 0
Ɖ 0
Ɗ 0
Ƌ 0
ƌ 0
ƍ 0
Ǝ 0
Ə 0
Ɛ 0
Ƒ 0
ƒ 0
Ɠ 0
Ɣ 0
ƕ 0
Ɩ 0
Ɨ 0
Ƙ 0
ƙ 0
ƚ 0
ƛ 0
Ɯ 0
Ɲ 0
ƞ 0
Ɵ 0
Ƣ 0
ƣ 0
Ƥ 0
ƥ 0
Ʀ 0
Ƨ 0
ƨ 0
Ʃ 0
ƪ 0
ƫ 0
Ƭ 0
ƭ 0
Ʈ 0
Ʊ 0
Ʋ 0
Ƴ 0
ƴ 0
Ƶ 0
ƶ 0
Ʒ 0
Ƹ 0
ƹ 0
ƺ 0
ƻ 0
Ƽ 0
ƽ 0
ƾ 0
ƿ 0
ǀ 0
ǁ 0
ǂ 0
ǃ 0
ǝ 0
Ǥ 0
ǥ 0
Ƕ 0
Ƿ 0
Ȝ 0
ȝ 0
Ƞ 0
ȡ 0
Ȣ 0
ȣ 0
Ȥ 0
ȥ 0
ȴ 0
ȵ 0
ȶ 0
ȷ 0
ȸ 0
ȹ 0
Ⱥ 0
Ȼ 0
ȼ 0
Ƚ 0
Ⱦ 0
ȿ 0
ɀ 0
Ɂ 0
ɂ 0
Ƀ 0
Ʉ 0
Ʌ 0
Ɇ 0
ɇ 0
Ɉ 0
ɉ 0
Ɋ 0
ɋ 0
Ɍ 0
ɍ 0
Ɏ 0
ɏ 0
ɐ 0
ɑ 0
ɒ 0
ɓ 0
ɔ 0
ɕ 0
ɖ 0
ɗ 0
ɘ 0
ə 0
ɚ 0
ɛ 0
ɜ 0
ɝ 0
ɞ 0
ɟ 0
ɠ 0
ɡ 0
ɢ 0
ɣ 0
ɤ 0
ɥ 0
ɦ 0
ɧ 0
ɨ 0
ɩ 0
ɪ 0
ɫ 0
ɬ 0
ɭ 0
ɮ 0
ɯ 0
ɰ 0
ɱ 0
ɲ 0
ɳ 0
ɴ 0
ɵ 0
ɶ 0
ɷ 0
ɸ 0
ɹ 0
ɺ 0
ɻ 0
ɼ 0
ɽ 0
ɾ 0
ɿ 0
ʀ 0
ʁ 0
ʂ 0
ʃ 0
ʄ 0
ʅ 0
ʆ 0
ʇ 0
ʈ 0
ʉ 0
ʊ 0
ʋ 0
ʌ 0
ʍ 0
ʎ 0
ʏ 0
ʐ 0
ʑ 0
ʒ 0
ʓ 0
ʔ 0
ʕ 0
ʖ 0
ʗ 0
ʘ 0
ʙ 0
ʚ 0
ʛ 0
ʜ 0
ʝ 0
ʞ 0
ʟ 0
ʠ 0
ʡ 0
ʢ 0
ʣ 0
ʤ 0
ʥ 0
ʦ 0
ʧ 0
ʨ 0
ʩ 0
ʪ 0
ʫ 0
ʮ 0
ʯ 0
ʰ 0
ʱ 0
ʲ 0
ʳ 0
ʶ 0
ʷ 0
ʹ 0
ʺ 0
ʻ 0
ʼ 0
ʽ 0
ʾ 0
ʿ 0
ˀ 0
ˁ 0
˂ 0
˃ 0
ˆ 0
ˇ 0
ˈ 0
ˉ 0
ˊ 0
ˋ 0
ˌ 0
ˍ 0
ˎ 0
ː 0
ˑ 0
˔ 0
˕ 0
˖ 0
˘ 0
˙ 0
˚ 0
˜ 0
˝ 0
˞ 0
ˠ 0
ˡ 0
ˢ 0
ˣ 0
ˤ 0
˥ 0
˦ 0
˧ 0
˨ 0
˩ 0
˪ 0
˫ 0
˭ 0
˵ 0
˶ 0
Ͱ 0
ͱ 0
Ͳ 0
ͳ 0
͵ 0
Ͷ 0
ͷ 0
ͼ 0
; 0
Ϳ 0
΄ 0
· 0
Α 0
Β 0
Γ 0
Δ 0
Ε 0
Ζ 0
Η 0
Θ 0
Ι 0
Κ 0
Λ 0
Μ 0
Ν 0
Ξ 0
Ο 0
Π 0
Ρ 0
Σ 0
Τ 0
Υ 0
Φ 0
Χ 0
Ψ 0
Ω 0
α 0
β 0
γ 0
δ 0
ε 0
ζ 0
η 0
θ 0
ι 0
κ 0
λ 0
μ 0
ν 0
ξ 0
ο 0
π 0
ρ 0
ς 0
σ 0
τ 0
υ 0
φ 0
χ 0
ψ 0
ω 0
ϐ 0
ϑ 0
ϒ 0
ϕ 0
ϖ 0
Ϙ 0
ϙ 0
Ϛ 0
ϛ 0
Ϝ 0
ϝ 0
Ϟ 0
ϟ 0
Ϡ 0
ϡ 0
Ϣ 0
ϣ 0
Ϧ 0
Ϩ 0
ϩ 0
ϯ 0
ϰ 0
ϳ 0
ϵ 0
Ϸ 0
ϸ 0
Ϲ 0
Ϻ 0
Ђ 0
Є 0
Ѕ 0
І 0
Ј 0
Љ 0
Њ 0
Ћ 0
Џ 0
А 0
Б 0
В 0
Г 0
Д 0
Е 0
Ж 0
З 0
И 0
К 0
Л 0
М 0
Н 0
О 0
П 0
Р 0
С 0
Т 0
У 0
Ф 0
Х 0
Ц 0
Ч 0
Ш 0
Щ 0
Ъ 0
Ы 0
Ь 0
Э 0
Ю 0
Я 0
а 0
б 0
в 0
г 0
д 0
е 0
ж 0
з 0
и 0
к 0
л 0
м 0
н 0
о 0
п 0
р 0
с 0
т 0
у 0
ф 0
х 0
ц 0
ч 0
ш 0
щ 0
ъ 0
ы 0
ь 0
э 0
ю 0
я 0
ђ 0
є 0
ѕ 0
і 0
ј 0
љ 0
њ 0
ћ 0
џ 0
Ѡ 0
ѡ 0
Ѣ 0
ѣ 0
Ѥ 0
ѥ 0
Ѧ 0
ѧ 0
Ѫ 0
ѫ 0
Ѯ 0
ѯ 0
Ѱ 0
ѱ 0
Ѳ 0
ѳ 0
Ѵ 0
ѵ 0
Ѹ 0
ѹ 0
Ѻ 0
ѻ 0
Ѽ 0
ѽ 0
Ѿ 0
ѿ 0
Ҁ 0
ҁ 0
҂ 0
҉ 0
Ҋ 0
ҋ 0
Ҍ 0
ҍ 0
Ҏ 0
ҏ 0
Ґ 0
ґ 0
Ғ 0
ғ 0
Ҕ 0
ҕ 0
Җ 0
җ 0
Ҙ 0
ҙ 0
Қ 0
қ 0
Ҝ 0
ҝ 0
Ҟ 0
ҟ 0
Ҡ 0
ҡ 0
Ң 0
ң 0
Ҥ 0
ҥ 0
Ҧ 0
ҧ 0
Ҩ 0
ҩ 0
Ҫ 0
ҫ 0
Ҭ 0
ҭ 0
Ү 0
ү 0
Ұ 0
ұ 0
Ҳ 0
ҳ 0
Ҵ 0
ҵ 0
Ҷ 0
ҷ 0
Ҹ 0
ҹ 0
Һ 0
һ 0
Ҽ 0
ҽ 0
Ҿ 0
ҿ 0
Ӏ 0
Ӄ 0
ӄ 0
Ӆ 0
ӆ 0
Ӈ 0
ӈ 0
Ӊ 0
ӊ 0
Ӌ 0
ӌ 0
Ӎ 0
ӎ 0
ӏ 0
Ӕ 0
ӕ 0
Ә 0
ә 0
Ӡ 0
ӡ 0
Ө 0
ө 0
Ӷ 0
ӷ 0
Ӻ 0
ӻ 0
Ӽ 0
ӽ 0
Ԁ 0
ԁ 0
Ԃ 0
ԃ 0
Ԅ 0
ԅ 0
Ԇ 0
ԇ 0
Ԉ 0
ԉ 0
Ԋ 0
ԋ 0
Ԍ 0
ԍ 0
Ԏ 0
ԏ 0
Ԑ 0
ԑ 0
Ԓ 0
ԓ 0
Ԕ 0
ԕ 0
Ԗ 0
ԗ 0
Ԙ 0
ԙ 0
Ԛ 0
ԛ 0
Ԝ 0
ԝ 0
Ԟ 0
ԟ 0
Ԡ 0
ԡ 0
Ԣ 0
ԣ 0
Ԥ 0
ԥ 0
Ԩ 0
ԩ 0
Ԫ 0
ԫ 0
Ԭ 0
ԭ 0
Ԯ 0
ԯ 0
Ա 0
Բ 0
Գ 0
Դ 0
Ե 0
Զ 0
Է 0
Ը 0
Թ 0
Ժ 0
Ի 0
Լ 0
Խ 0
Ծ 0
Կ 0
Հ 0
Ձ 0
Ղ 0
Ճ 0
Մ 0
Յ 0
Ն 0
Շ 0
Ո 0
Պ 0
Ջ 0
Ռ 0
Ս 0
Վ 0
Տ 0
Ր 0
Ց 0
Ւ 0
Փ 0
Ք 0
Օ 0
Ֆ 0
՚ 0
՛ 0
՜ 0
՝ 0
՞ 0
՟ 0
ա 0
բ 0
գ 0
դ 0
ե 0
զ 0
է 0
ը 0
թ 0
ժ 0
ի 0
լ 0
խ 0
ծ 0
կ 0
հ 0
ձ 0
ղ 0
ճ 0
մ 0
յ 0
ն 0
շ 0
ո 0
չ 0
պ 0
ջ 0
ռ 0
ս 0
վ 0
տ 0
ր 0
ց 0
ւ 0
փ 0
ք 0
օ 0
ֆ 0
և 0
։ 0
֊ 0
֏ 0
־ 0
׀ 0
׃ 0
׆ 0
א 0
ב 0
ג 0
ד 0
ה 0
ו 0
ז 0
ח 0
ט 0
י 0
ך 0
כ 0
ל 0
ם 0
מ 0
ן 0
נ 0
ס 0
ע 0
ף 0
פ 0
ץ 0
צ 0
ק 0
ר 0
ש 0
ת 0
װ 0
ױ 0
ײ 0
׳ 0
״ 0
׷ 0
؉ 0
؊ 0
، 0
؍ 0
؛ 0
؞ 0
؟ 0
ء 0
ا 0
ب 0
ة 0
ت 0
ث 0
ج 0
ح 0
خ 0
د 0
ذ 0
ر 0
ز 0
س 0
ش 0
ص 0
ض 0
ط 0
ظ 0
ع 0
غ 0
ؾ 0
ـ 0
ف 0
ق 0
ك 0
ل 0
م 0
ن 0
ه 0
و 0
ى 0
ي 0
١ 0
٢ 0
٧ 0
٨ 0
٩ 0
٪ 0
٫ 0
٬ 0
٭ 0
ٱ 0
ٹ 0
ٺ 0
ټ 0
ٽ 0
پ 0
ڄ 0
څ 0
چ 0
ڈ 0
ڊ 0
ڌ 0
ڏ 0
ڑ 0
ړ 0
ڕ 0
ږ 0
ژ 0
ڙ 0
ښ 0
ڜ 0
ڠ 0
ڡ 0
ڤ 0
ک 0
ڪ 0
ګ 0
ڬ 0
ڭ 0
گ 0
ڵ 0
ں 0
ڻ 0
ھ 0
ہ 0
ۆ 0
ۇ 0
ۈ 0
ۋ 0
ی 0
ۍ 0
ێ 0
ې 0
ے 0
۔ 0
ە 0
۩ 0
۰ 0
۱ 0
۲ 0
۳ 0
۴ 0
۵ 0
۶ 0
۷ 0
۸ 0
۹ 0
܀ 0
܁ 0
܂ 0
܃ 0
܄ 0
܅ 0
܆ 0
܇ 0
܈ 0
܉ 0
܊ 0
܋ 0
܌ 0
܍ 0
ܐ 0
ܒ 0
ܓ 0
ܔ 0
ܕ 0
ܗ 0
ܘ 0
ܙ 0
ܚ 0
ܛ 0
ܝ 0
ܟ 0
ܠ 0
ܡ 0
ܢ 0
ܣ 0
ܥ 0
ܦ 0
ܨ 0
ܩ 0
ܪ 0
ܫ 0
ܬ 0
ݢ 0
ހ 0
ނ 0
ރ 0
ބ 0
ޅ 0
ކ 0
އ 0
ވ 0
މ 0
ފ 0
ދ 0
ތ 0
ލ 0
ގ 0
ޏ 0
ސ 0
ޑ 0
ޔ 0
ޕ 0
ޖ 0
ޙ 0
ޝ 0
ޱ 0
ߏ 0
ߒ 0
ߞ 0
߷ 0
߸ 0
߹ 0
࠰ 0
࠱ 0
࠲ 0
࠳ 0
࠴ 0
࠵ 0
࠶ 0
࠷ 0
࠸ 0
࠹ 0
࠺ 0
࠻ 0
࠼ 0
࠽ 0
࠾ 0
࡞ 0
ः 0
अ 0
आ 0
इ 0
ई 0
उ 0
ऋ 0
ए 0
ऐ 0
ऑ 0
ओ 0
औ 0
क 0
ख 0
ग 0
घ 0
ङ 0
च 0
छ 0
ज 0
झ 0
ञ 0
ट 0
ठ 0
ड 0
ढ 0
ण 0
त 0
थ 0
द 0
ध 0
न 0
प 0
फ 0
ब 0
भ 0
म 0
य 0
र 0
ल 0
ळ 0
व 0
श 0
ष 0
स 0
ह 0
ऽ 0
ा 0
ि 0
ी 0
ॉ 0
ॊ 0
ो 0
ौ 0
ॐ 0
ॡ 0
। 0
॥ 0
० 0
१ 0
२ 0
३ 0
५ 0
७ 0
॰ 0
ং 0
ঃ 0
অ 0
আ 0
ই 0
উ 0
এ 0
ও 0
ক 0
খ 0
গ 0
ঘ 0
ঙ 0
চ 0
ছ 0
জ 0
ঝ 0
ঞ 0
ট 0
ঠ 0
ড 0
ঢ 0
ণ 0
ত 0
থ 0
দ 0
ধ 0
ন 0
প 0
ফ 0
ব 0
ভ 0
ম 0
য 0
র 0
ল 0
শ 0
ষ 0
স 0
হ 0
া 0
ি 0
ী 0
ে 0
ৈ 0
ৎ 0
ৗ 0
১ 0
৬ 0
৭ 0
ৰ 0
ৱ 0
৽ 0
ਃ 0
ਅ 0
ਆ 0
ਉ 0
ਕ 0
ਖ 0
ਗ 0
ਘ 0
ਚ 0
ਜ 0
ਝ 0
ਟ 0
ਠ 0
ਡ 0
ਣ 0
ਤ 0
ਥ 0
ਦ 0
ਧ 0
ਨ 0
ਪ 0
ਬ 0
ਭ 0
ਮ 0
ਰ 0
ਲ 0
ਵ 0
ਸ 0
ਹ 0
ਾ 0
ਿ 0
ੀ 0
ੜ 0
ੲ 0
ੳ 0
ੴ 0
੶ 0
અ 0
ક 0
ખ 0
ગ 0
જ 0
ટ 0
ણ 0
ત 0
દ 0
ધ 0
ન 0
પ 0
ફ 0
બ 0
મ 0
ર 0
લ 0
વ 0
શ 0
સ 0
હ 0
ા 0
ી 0
ો 0
૰ 0
૱ 0
ଂ 0
ଓ 0
ଗ 0
ଙ 0
ଡ 0
ନ 0
ପ 0
ବ 0
ଭ 0
ର 0
ଲ 0
ଵ 0
ଶ 0
ସ 0
ା 0
ୀ 0
େ 0
୨ 0
ஃ 0
அ 0
ஆ 0
இ 0
ஈ 0
உ 0
ஊ 0
எ 0
ஏ 0
ஐ 0
ஒ 0
ஓ 0
க 0
ங 0
ச 0
ஜ 0
ஞ 0
ட 0
ண 0
த 0
ந 0
ன 0
ப 0
ம 0
ய 0
ர 0
ற 0
ல 0
ள 0
ழ 0
வ 0
ஷ 0
ஸ 0
ா 0
ி 0
ு 0
ூ 0
ெ 0
ே 0
ை 0
ௐ 0
௷ 0
௸ 0
ఁ 0
ం 0
ః 0
ఆ 0
ఇ 0
ఎ 0
ఐ 0
ఔ 0
క 0
ఖ 0
గ 0
చ 0
జ 0
ఞ 0
ట 0
ఠ 0
డ 0
ణ 0
త 0
థ 0
ద 0
న 0
ప 0
బ 0
భ 0
మ 0
య 0
ర 0
ల 0
వ 0
ష 0
స 0
హ 0
ు 0
ూ 0
ృ 0
ౄ 0
౨ 0
౪ 0
ಂ 0
ಃ 0
಄ 0
ಅ 0
ಇ 0
ಕ 0
ಖ 0
ಗ 0
ಘ 0
ಙ 0
ಚ 0
ಛ 0
ಜ 0
ಝ 0
ಞ 0
ಟ 0
ಠ 0
ಡ 0
ಢ 0
ಣ 0
ತ 0
ಥ 0
ದ 0
ಧ 0
ನ 0
ಪ 0
ಫ 0
ಬ 0
ಭ 0
ಮ 0
ಯ 0
ರ 0
ಱ 0
ಲ 0
ಳ 0
ವ 0
ಶ 0
ಷ 0
ಸ 0
ಹ 0
ಾ 0
ು 0
ೂ 0
ೕ 0
ೞ 0
೦ 0
೧ 0
೨ 0
೩ 0
೪ 0
೫ 0
೬ 0
೭ 0
೮ 0
೯ 0
ം 0
അ 0
ആ 0
ഇ 0
ഓ 0
ക 0
ങ 0
ട 0
ഡ 0
ണ 0
ത 0
ദ 0
ന 0
പ 0
ഫ 0
ബ 0
മ 0
യ 0
ര 0
റ 0
ല 0
ള 0
വ 0
ശ 0
സ 0
ഹ 0
ാ 0
ി 0
െ 0
ං 0
අ 0
ආ 0
ඉ 0
එ 0
ඓ 0
ඔ 0
ක 0
ඛ 0
ග 0
ච 0
ජ 0
ට 0
ඨ 0
ණ 0
ත 0
ථ 0
ද 0
ධ 0
න 0
ප 0
බ 0
භ 0
ම 0
ය 0
ර 0
ල 0
ව 0
ශ 0
ෂ 0
ස 0
හ 0
ළ 0
ා 0
ැ 0
ෙ 0
෴ 0
ก 0
ข 0
ค 0
ฅ 0
ฆ 0
ง 0
จ 0
ฉ 0
ช 0
ซ 0
ฌ 0
ญ 0
ฎ 0
ฏ 0
ฐ 0
ฑ 0
ฒ 0
ณ 0
ด 0
ต 0
ถ 0
ท 0
ธ 0
น 0
บ 0
ป 0
ผ 0
ฝ 0
พ 0
ฟ 0
ภ 0
ม 0
ย 0
ร 0
ฤ 0
ล 0
ฦ 0
ว 0
ศ 0
ษ 0
ส 0
ห 0
ฬ 0
อ 0
ฮ 0
ฯ 0
ะ 0
า 0
ำ 0
฿ 0
เ 0
แ 0
โ 0
ใ 0
ไ 0
ๅ 0
ๆ 0
๏ 0
๐ 0
๑ 0
๒ 0
๓ 0
๔ 0
๕ 0
๖ 0
๙ 0
๚ 0
๛ 0
ກ 0
ຂ 0
ຄ 0
ງ 0
ຈ 0
ຊ 0
ຍ 0
ດ 0
ຕ 0
ທ 0
ນ 0
ບ 0
ປ 0
ຜ 0
ພ 0
ຟ 0
ມ 0
ຣ 0
ລ 0
ວ 0
ສ 0
ຫ 0
ອ 0
ຮ 0
ະ 0
າ 0
ຳ 0
ຽ 0
ເ 0
ແ 0
ໂ 0
ໄ 0
ໜ 0
໱ 0
༄ 0
༅ 0
༆ 0
༇ 0
༈ 0
༉ 0
༊ 0
་ 0
༌ 0
། 0
༎ 0
༏ 0
༐ 0
༑ 0
༒ 0
༔ 0
༭ 0
༺ 0
༻ 0
༼ 0
༽ 0
ཀ 0
ཁ 0
ག 0
ང 0
ཅ 0
ཆ 0
ཇ 0
ཉ 0
ཊ 0
ཏ 0
ཐ 0
ད 0
ན 0
པ 0
ཕ 0
བ 0
མ 0
ཙ 0
ཚ 0
ཛ 0
ཝ 0
ཞ 0
ཟ 0
འ 0
ཡ 0
ར 0
ལ 0
ཤ 0
ས 0
ཧ 0
ཨ 0
ཿ 0
྅ 0
࿐ 0
࿑ 0
࿒ 0
࿓ 0
࿔ 0
࿙ 0
࿚ 0
က 0
ခ 0
ဂ 0
ဃ 0
င 0
စ 0
ဆ 0
ဇ 0
ည 0
ဌ 0
ဎ 0
ဏ 0
တ 0
ထ 0
ဒ 0
န 0
ပ 0
ဖ 0
ဗ 0
ဘ 0
မ 0
ယ 0
ရ 0
လ 0
ဝ 0
သ 0
ဟ 0
အ 0
ဥ 0
ဧ 0
ါ 0
ာ 0
ေ 0
း 0
ျ 0
ြ 0
၀ 0
၁ 0
၂ 0
၆ 0
၇ 0
၈ 0
၉ 0
၊ 0
။ 0
၌ 0
၍ 0
၎ 0
၏ 0
ၢ 0
ၵ 0
ၼ 0
ၿ 0
ႀ 0
ႁ 0
ႃ 0
ႄ 0
ႈ 0
႐ 0
႔ 0
Ⴀ 0
Ⴂ 0
Ⴃ 0
Ⴈ 0
Ⴌ 0
Ⴕ 0
Ⴟ 0
ა 0
ბ 0
გ 0
დ 0
ე 0
ვ 0
ზ 0
თ 0
ი 0
კ 0
ლ 0
მ 0
ნ 0
ო 0
პ 0
ჟ 0
რ 0
ს 0
ტ 0
უ 0
ფ 0
ქ 0
ღ 0
ყ 0
შ 0
ჩ 0
ც 0
ძ 0
წ 0
ჭ 0
ხ 0
ჯ 0
ჰ 0
ჱ 0
ჲ 0
ჳ 0
ჴ 0
ჵ 0
ჶ 0
ჷ 0
ჸ 0
ჹ 0
ჺ 0
჻ 0
ᄀ 0
ᄁ 0
ᄂ 0
ᄃ 0
ᄄ 0
ᄅ 0
ᄆ 0
ᄇ 0
ᄈ 0
ᄉ 0
ᄊ 0
ᄋ 0
ᄌ 0
ᄍ 0
ᄎ 0
ᄏ 0
ᄐ 0
ᄑ 0
ᄒ 0
ᄽ 0
ᄿ 0
ᅎ 0
ᅏ 0
ᅐ 0
ᅑ 0
ᅔ 0
ᅕ 0
ᅡ 0
ᅢ 0
ᅣ 0
ᅤ 0
ᅥ 0
ᅦ 0
ᅧ 0
ᅨ 0
ᅩ 0
ᅪ 0
ᅫ 0
ᅬ 0
ᅭ 0
ᅮ 0
ᅯ 0
ᅰ 0
ᅱ 0
ᅲ 0
ᅳ 0
ᅴ 0
ᅵ 0
ᆨ 0
ᆩ 0
ᆪ 0
ᆫ 0
ᆬ 0
ᆭ 0
ᆮ 0
ᆯ 0
ᆰ 0
ᆱ 0
ᆲ 0
ᆳ 0
ᆵ 0
ᆶ 0
ᆷ 0
ᆸ 0
ᆹ 0
ᆺ 0
ᆻ 0
ᆼ 0
ᆽ 0
ᆾ 0
ᆿ 0
ᇀ 0
ᇁ 0
ᇂ 0
ሀ 0
ሄ 0
ህ 0
ለ 0
ሊ 0
ላ 0
ል 0
ሐ 0
ሒ 0
ሓ 0
ሕ 0
መ 0
ሚ 0
ማ 0
ሜ 0
ም 0
ሞ 0
ሥ 0
ረ 0
ሪ 0
ራ 0
ሬ 0
ር 0
ሰ 0
ሱ 0
ሳ 0
ስ 0
ሸ 0
ቃ 0
ቅ 0
ቆ 0
ቈ 0
በ 0
ቡ 0
ባ 0
ብ 0
ተ 0
ቲ 0
ታ 0
ቴ 0
ት 0
ነ 0
ና 0
ን 0
ኖ 0
ኛ 0
አ 0
ኢ 0
ኣ 0
ኤ 0
እ 0
ከ 0
ክ 0
ኲ 0
ኽ 0
ወ 0
ዊ 0
ዋ 0
ው 0
ዎ 0
ዕ 0
ዘ 0
ዛ 0
ዝ 0
የ 0
ያ 0
ዬ 0
ይ 0
ዮ 0
ደ 0
ዳ 0
ዴ 0
ድ 0
ዶ 0
ጀ 0
ጅ 0
ገ 0
ጉ 0
ጊ 0
ጋ 0
ግ 0
ጥ 0
ጨ 0
ጵ 0
ጸ 0
ፀ 0
ፈ 0
ፊ 0
ፋ 0
ፍ 0
ፕ 0
፠ 0
፡ 0
። 0
፣ 0
፤ 0
፥ 0
፦ 0
፧ 0
፨ 0
Ꭰ 0
Ꭳ 0
Ꭶ 0
Ꭸ 0
Ꭹ 0
Ꭿ 0
Ꮀ 0
Ꮃ 0
Ꮄ 0
Ꮉ 0
Ꮕ 0
Ꮜ 0
Ꮝ 0
Ꮳ 0
Ꮷ 0
Ꮿ 0
Ᏹ 0
᐀ 0
ᐃ 0
ᐄ 0
ᐅ 0
ᐊ 0
ᐋ 0
ᐍ 0
ᐎ 0
ᐏ 0
ᐑ 0
ᐛ 0
ᐟ 0
ᐢ 0
ᐣ 0
ᐤ 0
ᐦ 0
ᐧ 0
ᐯ 0
ᐱ 0
ᐸ 0
ᑎ 0
ᑑ 0
ᑕ 0
ᑖ 0
ᑦ 0
ᑭ 0
ᑮ 0
ᑯ 0
ᑲ 0
ᒃ 0
ᒋ 0
ᒡ 0
ᒣ 0
ᒥ 0
ᒧ 0
ᒪ 0
ᓀ 0
ᓂ 0
ᓄ 0
ᓇ 0
ᓈ 0
ᓐ 0
ᓕ 0
ᓗ 0
ᓘ 0
ᓪ 0
ᓯ 0
ᓱ 0
ᓴ 0
ᔅ 0
ᔑ 0
ᔕ 0
ᔪ 0
ᔭ 0
ᕆ 0
ᕐ 0
ᕗ 0
ᕙ 0
ᕤ 0
ᕼ 0
ᕿ 0
ᖃ 0
ᖅ 0
ᖇ 0
ᖓ 0
ᖹ 0
ᗅ 0
ᗣ 0
ᗩ 0
ᗰ 0
ᗷ 0
ᗺ 0
᙭ 0
᙮ 0
᚛ 0
᚜ 0
ᚢ 0
ᚣ 0
ᚦ 0
ᚨ 0
ᚩ 0
ᚬ 0
ᚱ 0
ᚲ 0
ᚷ 0
ᚹ 0
ᚺ 0
ᚻ 0
ᚼ 0
ᚾ 0
ᛁ 0
ᛃ 0
ᛄ 0
ᛇ 0
ᛋ 0
ᛏ 0
ᛒ 0
ᛗ 0
ᛚ 0
ᛜ 0
ᛝ 0
ᛞ 0
ᛟ 0
ᛠ 0
᛫ 0
᛬ 0
᛭ 0
᜵ 0
᜶ 0
ᝃ 0
ក 0
ខ 0
គ 0
ឃ 0
ង 0
ច 0
ឆ 0
ជ 0
ឈ 0
ញ 0
ដ 0
ឋ 0
ឌ 0
ណ 0
ត 0
ថ 0
ទ 0
ធ 0
ន 0
ប 0
ផ 0
ព 0
ភ 0
ម 0
យ 0
រ 0
ល 0
វ 0
ស 0
ហ 0
ឡ 0
អ 0
ឥ 0
ឧ 0
ឪ 0
ឫ 0
ឯ 0
ា 0
ើ 0
ឿ 0
ៀ 0
េ 0
ែ 0
ៃ 0
ោ 0
ៅ 0
ះ 0
ៈ 0
។ 0
៕ 0
៖ 0
៘ 0
៙ 0
៚ 0
᠀ 0
᠁ 0
᠂ 0
᠃ 0
᠄ 0
᠅ 0
᠆ 0
᠇ 0
᠈ 0
᠉ 0
᠊ 0
ᠠ 0
ᠡ 0
ᠢ 0
ᠣ 0
ᠤ 0
ᠥ 0
ᠨ 0
ᠪ 0
ᠬ 0
ᠭ 0
ᠮ 0
ᠯ 0
ᠰ 0
ᠱ 0
ᠳ 0
ᠴ 0
ᠵ 0
ᠶ 0
ᠷ 0
ᠸ 0
ᡝ 0
ᡠ 0
ᡥ 0
ᡨ 0
ᡳ 0
ᡴ 0
ᡵ 0
ᤌ 0
ᤕ 0
ᤰ 0
ᤱ 0
᥄ 0
᥅ 0
ᥐ 0
ᥑ 0
ᥒ 0
ᥓ 0
ᥔ 0
ᥕ 0
ᥖ 0
ᥗ 0
ᥘ 0
ᥙ 0
ᥚ 0
ᥛ 0
ᥜ 0
ᥝ 0
ᥞ 0
ᥟ 0
ᥢ 0
ᥣ 0
ᥤ 0
ᥥ 0
ᥦ 0
ᥧ 0
ᥨ 0
ᥩ 0
ᥫ 0
ᥬ 0
ᥭ 0
ᥰ 0
ᥱ 0
ᥲ 0
ᥳ 0
ᥴ 0
ᦂ 0
ᦄ 0
ᦆ 0
ᦎ 0
ᦑ 0
ᦞ 0
ᦟ 0
ᦰ 0
ᦱ 0
ᦲ 0
ᦳ 0
ᦴ 0
ᦵ 0
ᦶ 0
ᦷ 0
ᦸ 0
ᦹ 0
ᦺ 0
ᧁ 0
ᧂ 0
ᧅ 0
ᧆ 0
ᧈ 0
ᧉ 0
᧑ 0
᧚ 0
᧞ 0
᧟ 0
ᨀ 0
ᨁ 0
ᨄ 0
ᨅ 0
ᨆ 0
ᨈ 0
ᨑ 0
ᨓ 0
ᨔ 0
ᨙ 0
ᨚ 0
᨞ 0
᨟ 0
ᨠ 0
ᨣ 0
ᨦ 0
ᨯ 0
ᨰ 0
ᨲ 0
ᨴ 0
ᨵ 0
ᨾ 0
ᩁ 0
ᩃ 0
ᩅ 0
ᩣ 0
ᩤ 0
ᩭ 0
ᩮ 0
ᩯ 0
ᩰ 0
ᩱ 0
ᩲ 0
᪠ 0
᪡ 0
᪢ 0
᪣ 0
᪤ 0
᪥ 0
᪦ 0
᪨ 0
᪩ 0
᪪ 0
᪫ 0
᪬ 0
᪭ 0
᭚ 0
᭛ 0
᭜ 0
᭝ 0
᭞ 0
᭟ 0
᭠ 0
ᮅ 0
ᮏ 0
ᮓ 0
ᮔ 0
ᮘ 0
ᮛ 0
ᮝ 0
ᮞ 0
᮪ 0
᯼ 0
᯽ 0
᯾ 0
᯿ 0
ᰧ 0
ᰨ 0
᰻ 0
᰼ 0
᰽ 0
᰾ 0
᰿ 0
᱾ 0
᱿ 0
᳀ 0
᳁ 0
᳂ 0
᳃ 0
᳄ 0
᳅ 0
᳆ 0
᳇ 0
᳓ 0
ᴀ 0
ᴁ 0
ᴂ 0
ᴃ 0
ᴄ 0
ᴅ 0
ᴆ 0
ᴇ 0
ᴈ 0
ᴉ 0
ᴊ 0
ᴋ 0
ᴌ 0
ᴍ 0
ᴔ 0
ᴗ 0
ᴘ 0
ᴙ 0
ᴚ 0
ᴛ 0
ᴜ 0
ᴝ 0
ᴞ 0
ᴟ 0
ᴠ 0
ᴰ 0
ᴷ 0
ᴺ 0
ᵀ 0
ᵉ 0
ᵊ 0
ᵋ 0
ᵌ 0
ᵐ 0
ᵑ 0
ᵒ 0
ᵗ 0
ᵘ 0
ᵚ 0
ᵛ 0
ᵝ 0
ᵫ 0
ᵬ 0
ᵭ 0
ᵮ 0
ᵯ 0
ᵰ 0
ᵱ 0
ᵲ 0
ᵳ 0
ᵴ 0
ᵵ 0
ᵶ 0
ᵷ 0
ᵹ 0
ᵺ 0
ᵻ 0
ᵼ 0
ᵽ 0
ᵾ 0
ᵿ 0
ᶀ 0
ᶂ 0
ᶃ 0
ᶄ 0
ᶅ 0
ᶆ 0
ᶇ 0
ᶈ 0
ᶉ 0
ᶊ 0
ᶋ 0
ᶌ 0
ᶍ 0
ᶎ 0
ᶏ 0
ᶐ 0
ᶑ 0
ᶒ 0
ᶓ 0
ᶔ 0
ᶕ 0
ᶖ 0
ᶘ 0
ᶙ 0
ᶚ 0
ᶢ 0
ᶦ 0
ᶧ 0
ᶫ 0
ᶰ 0
ᶴ 0
ᶶ 0
ᶷ 0
ᶸ 0
ẚ 0
ẞ 0
Ỻ 0
ỻ 0
Ỽ 0
᾽ 0
᾿ 0
῾ 0
‐ 0
‑ 0
‒ 0
– 0
— 0
― 0
‖ 0
‗ 0
‘ 0
’ 0
‚ 0
‛ 0
“ 0
” 0
„ 0
‟ 0
† 0
‡ 0
• 0
‣ 0
․ 0
‥ 0
… 0
‧ 0
‰ 0
‱ 0
′ 0
″ 0
‴ 0
‵ 0
‶ 0
‷ 0
‸ 0
‹ 0
› 0
※ 0
‼ 0
‽ 0
‾ 0
‿ 0
⁀ 0
⁁ 0
⁂ 0
⁃ 0
⁄ 0
⁅ 0
⁆ 0
⁇ 0
⁈ 0
⁉ 0
⁊ 0
⁋ 0
⁌ 0
⁍ 0
⁎ 0
⁏ 0
⁐ 0
⁑ 0
⁓ 0
⁔ 0
⁕ 0
⁖ 0
⁗ 0
⁘ 0
⁙ 0
⁚ 0
⁛ 0
⁜ 0
⁝ 0
⁞ 0
⁰ 0
ⁱ 0
⁴ 0
⁵ 0
⁷ 0
⁸ 0
⁹ 0
⁺ 0
⁻ 0
⁼ 0
⁽ 0
⁾ 0
ⁿ 0
₀ 0
₁ 0
₂ 0
₃ 0
₄ 0
₇ 0
₉ 0
₍ 0
₎ 0
ₐ 0
ₓ 0
₠ 0
₡ 0
₣ 0
₤ 0
₥ 0
₦ 0
₧ 0
₨ 0
₩ 0
₪ 0
₫ 0
€ 0
₮ 0
₯ 0
₰ 0
₱ 0
₲ 0
₴ 0
₵ 0
₷ 0
₹ 0
₺ 0
₽ 0
₿ 0
⃝ 0
⃣ 0
ℂ 0
℃ 0
℅ 0
℉ 0
ℏ 0
ℓ 0
ℕ 0
№ 0
℗ 0
℘ 0
ℚ 0
ℛ 0
ℝ 0
℞ 0
℠ 0
℡ 0
™ 0
ℤ 0
℥ 0
℩ 0
ℵ 0
⅄ 0
ⅎ 0
⅓ 0
⅔ 0
⅕ 0
⅖ 0
⅗ 0
⅘ 0
⅙ 0
⅛ 0
⅜ 0
⅝ 0
⅞ 0
Ⅰ 0
Ⅱ 0
Ⅲ 0
Ⅳ 0
Ⅴ 0
Ⅵ 0
Ⅶ 0
Ⅷ 0
Ⅸ 0
Ⅹ 0
Ⅺ 0
Ⅻ 0
Ⅼ 0
Ⅽ 0
Ⅾ 0
Ⅿ 0
ⅰ 0
ⅱ 0
ⅲ 0
ⅳ 0
ⅴ 0
ⅵ 0
ⅶ 0
ⅷ 0
ⅸ 0
ⅹ 0
ↀ 0
Ↄ 0
ↄ 0
← 0
↑ 0
→ 0
↓ 0
↔ 0
↖ 0
↗ 0
↘ 0
↙ 0
↦ 0
↪ 0
↵ 0
↺ 0
↼ 0
⇀ 0
⇄ 0
⇆ 0
⇌ 0
⇐ 0
⇒ 0
⇔ 0
⇧ 0
⇨ 0
⇪ 0
∀ 0
∁ 0
∂ 0
∃ 0
∅ 0
∆ 0
∇ 0
∈ 0
∊ 0
∋ 0
∎ 0
∏ 0
∑ 0
− 0
∓ 0
∕ 0
∖ 0
∗ 0
∘ 0
∙ 0
√ 0
∝ 0
∞ 0
∟ 0
∠ 0
∣ 0
∥ 0
∧ 0
∨ 0
∩ 0
∪ 0
∫ 0
∬ 0
∮ 0
∴ 0
∵ 0
∶ 0
∷ 0
∼ 0
∽ 0
≀ 0
≂ 0
≃ 0
≅ 0
≆ 0
≈ 0
≌ 0
≒ 0
≖ 0
≡ 0
≤ 0
≥ 0
≦ 0
≧ 0
≪ 0
≫ 0
≲ 0
≳ 0
⊂ 0
⊃ 0
⊆ 0
⊇ 0
⊊ 0
⊔ 0
⊕ 0
⊖ 0
⊗ 0
⊙ 0
⊞ 0
⊢ 0
⊣ 0
⊥ 0
⊦ 0
⊩ 0
⊲ 0
⊴ 0
⊿ 0
⋄ 0
⋅ 0
⋆ 0
⋈ 0
⋉ 0
⋊ 0
⋋ 0
⋌ 0
⋚ 0
⋛ 0
⋯ 0
⌂ 0
⌃ 0
⌄ 0
⌇ 0
⌈ 0
⌉ 0
⌊ 0
⌋ 0
⌑ 0
⌒ 0
⌓ 0
⌘ 0
⌚ 0
⌣ 0
⌥ 0
〈 0
〉 0
⌬ 0
⌿ 0
⍝ 0
⍵ 0
⍺ 0
⎓ 0
⎕ 0
⎝ 0
⎠ 0
⎯ 0
⏑ 0
⏕ 0
␆ 0
␕ 0
␚ 0
␡ 0
␣ 0
① 0
② 0
③ 0
④ 0
⑤ 0
⑥ 0
⑦ 0
⑧ 0
⑨ 0
⑩ 0
⑪ 0
⑫ 0
⑬ 0
⑭ 0
⑮ 0
⑯ 0
⑰ 0
⑱ 0
⑲ 0
⑳ 0
⑴ 0
⑵ 0
⑶ 0
⑷ 0
⑸ 0
⑹ 0
⑺ 0
⑻ 0
⑼ 0
⑽ 0
⑾ 0
⑿ 0
⒀ 0
⒁ 0
⒂ 0
⒃ 0
⒄ 0
⒅ 0
⒆ 0
⒇ 0
⒈ 0
⒉ 0
⒊ 0
⒋ 0
⒌ 0
⒍ 0
⒎ 0
⒏ 0
⒐ 0
⒑ 0
⒒ 0
⒓ 0
⒔ 0
⒕ 0
⒖ 0
⒗ 0
⒘ 0
⒙ 0
⒚ 0
⒛ 0
Ⓐ 0
Ⓑ 0
Ⓒ 0
Ⓓ 0
Ⓕ 0
Ⓟ 0
Ⓡ 0
Ⓥ 0
ⓒ 0
ⓟ 0
─ 0
━ 0
│ 0
┃ 0
┄ 0
┅ 0
┆ 0
┇ 0
┈ 0
┉ 0
┊ 0
┋ 0
┌ 0
┍ 0
┎ 0
┏ 0
┐ 0
┑ 0
┒ 0
┓ 0
└ 0
┕ 0
┖ 0
┗ 0
┘ 0
┙ 0
┚ 0
┛ 0
├ 0
┝ 0
┞ 0
┟ 0
┠ 0
┡ 0
┢ 0
┣ 0
┤ 0
┥ 0
┦ 0
┧ 0
┨ 0
┩ 0
┪ 0
┫ 0
┬ 0
┭ 0
┮ 0
┯ 0
┰ 0
┱ 0
┲ 0
┳ 0
┴ 0
┵ 0
┶ 0
┷ 0
┸ 0
┹ 0
┺ 0
┻ 0
┼ 0
┽ 0
┾ 0
┿ 0
╀ 0
╁ 0
╂ 0
╃ 0
╄ 0
╅ 0
╆ 0
╇ 0
╈ 0
╉ 0
╊ 0
╋ 0
═ 0
║ 0
╒ 0
╓ 0
╔ 0
╕ 0
╖ 0
╗ 0
╘ 0
╙ 0
╚ 0
╛ 0
╜ 0
╝ 0
╞ 0
╟ 0
╠ 0
╡ 0
╢ 0
╣ 0
╤ 0
╥ 0
╦ 0
╧ 0
╨ 0
╩ 0
╪ 0
╫ 0
╬ 0
╭ 0
╮ 0
╯ 0
╰ 0
╱ 0
╲ 0
╳ 0
╴ 0
╹ 0
▁ 0
▂ 0
▃ 0
▄ 0
▅ 0
▆ 0
▇ 0
█ 0
▉ 0
▊ 0
▋ 0
▌ 0
▍ 0
▎ 0
▏ 0
▒ 0
▓ 0
▔ 0
▕ 0
■ 0
□ 0
▢ 0
▣ 0
▧ 0
▨ 0
▪ 0
▮ 0
▲ 0
△ 0
▶ 0
▷ 0
► 0
▼ 0
▽ 0
▿ 0
◀ 0
◁ 0
◄ 0
◆ 0
◇ 0
◊ 0
○ 0
◌ 0
◍ 0
◎ 0
● 0
◐ 0
◑ 0
◕ 0
◘ 0
◙ 0
◡ 0
◢ 0
◣ 0
◤ 0
◥ 0
◦ 0
◧ 0
◩ 0
◬ 0
◯ 0
◼ 0
◾ 0
☀ 0
☁ 0
☂ 0
☃ 0
☄ 0
★ 0
☆ 0
☉ 0
☊ 0
☋ 0
☌ 0
☍ 0
☎ 0
☐ 0
☑ 0
☓ 0
☜ 0
☝ 0
☞ 0
☟ 0
☠ 0
☣ 0
☤ 0
☦ 0
☧ 0
☨ 0
☩ 0
☪ 0
☫ 0
☭ 0
☰ 0
☲ 0
☷ 0
☹ 0
☺ 0
☻ 0
☽ 0
☾ 0
☿ 0
♀ 0
♁ 0
♂ 0
♄ 0
♅ 0
♆ 0
♇ 0
♈ 0
♉ 0
♊ 0
♋ 0
♌ 0
♍ 0
♎ 0
♏ 0
♐ 0
♑ 0
♒ 0
♓ 0
♔ 0
♠ 0
♡ 0
♣ 0
♤ 0
♥ 0
♦ 0
♨ 0
♩ 0
♪ 0
♫ 0
♭ 0
♮ 0
♯ 0
♰ 0
♲ 0
♴ 0
♵ 0
♿ 0
⚊ 0
⚋ 0
⚑ 0
⚜ 0
⚠ 0
⚡ 0
⚪ 0
⚫ 0
⚭ 0
⚳ 0
⚴ 0
⚵ 0
⚹ 0
⚽ 0
⛄ 0
⛎ 0
⛢ 0
⛩ 0
✈ 0
✊ 0
✌ 0
✓ 0
✔ 0
✕ 0
✖ 0
✗ 0
✘ 0
✝ 0
✡ 0
✦ 0
✧ 0
✨ 0
✩ 0
✪ 0
✰ 0
✱ 0
✽ 0
✿ 0
❀ 0
❄ 0
❅ 0
❆ 0
❉ 0
❌ 0
❓ 0
❗ 0
❛ 0
❝ 0
❞ 0
❡ 0
❤ 0
❨ 0
❩ 0
❪ 0
❫ 0
❬ 0
❭ 0
❮ 0
❯ 0
❰ 0
❱ 0
❲ 0
❳ 0
❴ 0
❵ 0
❶ 0
❷ 0
❸ 0
❹ 0
❺ 0
❻ 0
❼ 0
❽ 0
❾ 0
➀ 0
➁ 0
➔ 0
➕ 0
➖ 0
➗ 0
➙ 0
➜ 0
➝ 0
➡ 0
➣ 0
➤ 0
➹ 0
⟅ 0
⟆ 0
⟕ 0
⟖ 0
⟗ 0
⟦ 0
⟧ 0
⟨ 0
⟩ 0
⟪ 0
⟫ 0
⟬ 0
⟭ 0
⟮ 0
⟯ 0
⟷ 0
⠀ 0
⠁ 0
⠂ 0
⠍ 0
⠒ 0
⠕ 0
⠛ 0
⠞ 0
⠡ 0
⠤ 0
⠦ 0
⠫ 0
⠲ 0
⠹ 0
⥇ 0
⦃ 0
⦄ 0
⦅ 0
⦆ 0
⦇ 0
⦈ 0
⦉ 0
⦊ 0
⦋ 0
⦌ 0
⦍ 0
⦎ 0
⦏ 0
⦐ 0
⦑ 0
⦒ 0
⦓ 0
⦔ 0
⦕ 0
⦖ 0
⦗ 0
⦘ 0
⦵ 0
⧘ 0
⧙ 0
⧚ 0
⧛ 0
⧸ 0
⧼ 0
⧽ 0
⨾ 0
⩽ 0
⩾ 0
⫶ 0
⬆ 0
⬕ 0
⭐ 0
Ⰹ 0
Ⱑ 0
Ⱛ 0
ⱋ 0
ⱌ 0
ⱛ 0
Ⱡ 0
ⱡ 0
Ɫ 0
Ᵽ 0
Ɽ 0
ⱥ 0
ⱦ 0
Ⱨ 0
ⱨ 0
Ⱪ 0
ⱪ 0
Ⱬ 0
ⱬ 0
Ɑ 0
Ɐ 0
ⱱ 0
ⱴ 0
Ⱶ 0
ⱶ 0
ⱷ 0
Ⲁ 0
ⲁ 0
ⲃ 0
ⲅ 0
ⲉ 0
ⲋ 0
ⲏ 0
ⲓ 0
Ⲕ 0
ⲕ 0
ⲗ 0
ⲙ 0
ⲛ 0
ⲟ 0
Ⲡ 0
ⲡ 0
ⲣ 0
ⲥ 0
ⲧ 0
ⲩ 0
Ⲫ 0
ⲫ 0
Ⲭ 0
ⲭ 0
ⲱ 0
⳥ 0
⳹ 0
⳺ 0
⳻ 0
⳼ 0
⳾ 0
⳿ 0
ⴰ 0
ⴱ 0
ⴳ 0
ⴷ 0
ⴻ 0
ⴼ 0
ⴽ 0
ⵀ 0
ⵃ 0
ⵄ 0
ⵇ 0
ⵉ 0
ⵊ 0
ⵍ 0
ⵎ 0
ⵏ 0
ⵓ 0
ⵔ 0
ⵕ 0
ⵖ 0
ⵙ 0
ⵛ 0
ⵜ 0
ⵟ 0
ⵡ 0
ⵢ 0
ⵣ 0
⵰ 0
⸀ 0
⸁ 0
⸂ 0
⸃ 0
⸄ 0
⸅ 0
⸆ 0
⸇ 0
⸈ 0
⸉ 0
⸊ 0
⸋ 0
⸌ 0
⸍ 0
⸎ 0
⸏ 0
⸐ 0
⸑ 0
⸒ 0
⸓ 0
⸔ 0
⸕ 0
⸖ 0
⸗ 0
⸘ 0
⸙ 0
⸚ 0
⸛ 0
⸜ 0
⸝ 0
⸞ 0
⸟ 0
⸠ 0
⸡ 0
⸢ 0
⸣ 0
⸤ 0
⸥ 0
⸦ 0
⸧ 0
⸨ 0
⸩ 0
⸪ 0
⸫ 0
⸬ 0
⸭ 0
⸮ 0
⸰ 0
⸱ 0
⸲ 0
⸳ 0
⸴ 0
⸵ 0
⸶ 0
⸷ 0
⸸ 0
⸹ 0
⸺ 0
⸻ 0
⸼ 0
⸽ 0
⸾ 0
⸿ 0
⹀ 0
⹁ 0
⹂ 0
⹃ 0
⹄ 0
⹅ 0
⹆ 0
⹇ 0
⹈ 0
⹉ 0
⹊ 0
⹋ 0
⹌ 0
⹍ 0
⹎ 0
⺀ 0
⺁ 0
⺄ 0
⺈ 0
⺋ 0
⺌ 0
⺕ 0
⺗ 0
⺟ 0
⺠ 0
⺪ 0
⺬ 0
⺭ 0
⺮ 0
⺷ 0
⺸ 0
⺻ 0
⺼ 0
⺾ 0
⺿ 0
⻄ 0
⻆ 0
⻌ 0
⻍ 0
⻎ 0
⻏ 0
⻑ 0
⻓ 0
⻘ 0
⻛ 0
⻝ 0
⻱ 0
⼀ 0
⼁ 0
⼂ 0
⼃ 0
⼄ 0
⼅ 0
⼆ 0
⼈ 0
⼊ 0
⼍ 0
⼎ 0
⼏ 0
⼐ 0
⼑ 0
⼒ 0
⼗ 0
⼝ 0
⼟ 0
⼠ 0
⼣ 0
⼤ 0
⼥ 0
⼦ 0
⼩ 0
⼭ 0
⼯ 0
⼲ 0
⼴ 0
⼹ 0
⼼ 0
⼿ 0
⽀ 0
⽂ 0
⽅ 0
⽆ 0
⽇ 0
⽉ 0
⽊ 0
⽒ 0
⽓ 0
⽔ 0
⽚ 0
⽠ 0
⽣ 0
⽤ 0
⽩ 0
⽬ 0
⽰ 0
⽴ 0
⽶ 0
⽹ 0
⽼ 0
⽽ 0
⾃ 0
⾄ 0
⾊ 0
⾏ 0
⾓ 0
⾔ 0
⾕ 0
⾘ 0
⾜ 0
⾝ 0
⾢ 0
⾥ 0
⾦ 0
⾨ 0
⾮ 0
⾯ 0
⾰ 0
⾳ 0
⾵ 0
⾷ 0
⾹ 0
⾺ 0
⾼ 0
⿇ 0
⿊ 0
⿰ 0
⿱ 0
⿲ 0
⿳ 0
⿴ 0
⿵ 0
⿶ 0
⿷ 0
⿸ 0
⿹ 0
⿺ 0
⿻ 0
、 0
。 0
〃 0
〄 0
々 0
〆 0
〇 0
〈 0
〉 0
《 0
》 0
「 0
」 0
『 0
』 0
【 0
】 0
〒 0
〓 0
〔 0
〕 0
〖 0
〗 0
〘 0
〙 0
〚 0
〛 0
〜 0
〝 0
〞 0
〟 0
〠 0
〡 0
〢 0
〣 0
〤 0
〥 0
〦 0
〧 0
〨 0
〩 0
〰 0
〱 0
〲 0
〳 0
〴 0
〵 0
〻 0
〽 0
〾 0
〿 0
ぁ 0
あ 0
ぃ 0
い 0
ぅ 0
う 0
ぇ 0
え 0
ぉ 0
お 0
か 0
き 0
く 0
け 0
こ 0
さ 0
し 0
す 0
せ 0
そ 0
た 0
ち 0
っ 0
つ 0
て 0
と 0
な 0
に 0
ぬ 0
ね 0
の 0
は 0
ひ 0
ふ 0
へ 0
ほ 0
ま 0
み 0
む 0
め 0
も 0
ゃ 0
や 0
ゅ 0
ゆ 0
ょ 0
よ 0
ら 0
り 0
る 0
れ 0
ろ 0
ゎ 0
わ 0
ゐ 0
ゑ 0
を 0
ん 0
゛ 0
゜ 0
ゝ 0
ゟ 0
゠ 0
ァ 0
ア 0
ィ 0
イ 0
ゥ 0
ウ 0
ェ 0
エ 0
ォ 0
オ 0
カ 0
キ 0
ク 0
ケ 0
コ 0
サ 0
シ 0
ス 0
セ 0
ソ 0
タ 0
チ 0
ッ 0
ツ 0
テ 0
ト 0
ナ 0
ニ 0
ヌ 0
ネ 0
ノ 0
ハ 0
ヒ 0
フ 0
ヘ 0
ホ 0
マ 0
ミ 0
ム 0
メ 0
モ 0
ャ 0
ヤ 0
ュ 0
ユ 0
ョ 0
ヨ 0
ラ 0
リ 0
ル 0
レ 0
ロ 0
ヮ 0
ワ 0
ヰ 0
ヱ 0
ヲ 0
ン 0
ヵ 0
ヶ 0
・ 0
ー 0
ヽ 0
ヿ 0
㄂ 0
ㄅ 0
ㄆ 0
ㄇ 0
ㄈ 0
ㄉ 0
ㄊ 0
ㄋ 0
ㄌ 0
ㄍ 0
ㄎ 0
ㄏ 0
ㄐ 0
ㄑ 0
ㄒ 0
ㄓ 0
ㄔ 0
ㄕ 0
ㄖ 0
ㄗ 0
ㄘ 0
ㄙ 0
ㄚ 0
ㄛ 0
ㄜ 0
ㄝ 0
ㄞ 0
ㄟ 0
ㄠ 0
ㄡ 0
ㄢ 0
ㄣ 0
ㄤ 0
ㄥ 0
ㄦ 0
ㄧ 0
ㄨ 0
ㄩ 0
ㄪ 0
ㄫ 0
ㄬ 0
ㄭ 0
ㄮ 0
ㄯ 0
ㄱ 0
ㄲ 0
ㄳ 0
ㄴ 0
ㄷ 0
ㄸ 0
ㄹ 0
ㄻ 0
ㄼ 0
ㅁ 0
ㅂ 0
ㅃ 0
ㅅ 0
ㅆ 0
ㅇ 0
ㅈ 0
ㅉ 0
ㅊ 0
ㅋ 0
ㅌ 0
ㅍ 0
ㅎ 0
ㅏ 0
ㅐ 0
ㅑ 0
ㅒ 0
ㅓ 0
ㅔ 0
ㅕ 0
ㅖ 0
ㅗ 0
ㅘ 0
ㅙ 0
ㅚ 0
ㅛ 0
ㅜ 0
ㅝ 0
ㅞ 0
ㅟ 0
ㅠ 0
ㅡ 0
ㅢ 0
ㅣ 0
ㅤ 0
ㅭ 0
ㅸ 0
ㅿ 0
ㆁ 0
ㆆ 0
ㆍ 0
㆒ 0
㆕ 0
㆖ 0
㆗ 0
㆟ 0
ㆠ 0
ㆡ 0
ㆢ 0
ㆣ 0
ㆤ 0
ㆥ 0
ㆦ 0
ㆧ 0
ㆨ 0
ㆩ 0
ㆪ 0
ㆫ 0
ㆬ 0
ㆭ 0
ㆮ 0
ㆯ 0
ㆰ 0
ㆱ 0
ㆲ 0
ㆳ 0
ㆴ 0
ㆵ 0
ㆶ 0
ㆷ 0
ㆻ 0
ㆼ 0
ㆽ 0
ㆾ 0
ㆿ 0
㇀ 0
㇋ 0
㇏ 0
㇐ 0
㇑ 0
㇒ 0
㇔ 0
㇕ 0
㇗ 0
㇙ 0
㇚ 0
㈜ 0
㈠ 0
㈡ 0
㈢ 0
㈣ 0
㈤ 0
㈥ 0
㈦ 0
㈧ 0
㈨ 0
㈩ 0
㈱ 0
㉑ 0
㉒ 0
㊀ 0
㊁ 0
㊂ 0
㊎ 0
㊑ 0
㊣ 0
㋿ 0
㌌ 0
㌍ 0
㌫ 0
㌶ 0
㍊ 0
㍍ 0
㍑ 0
㍻ 0
㍼ 0
㍽ 0
㍾ 0
㍿ 0
㎎ 0
㎏ 0
㎑ 0
㎒ 0
㎛ 0
㎜ 0
㎝ 0
㎞ 0
㎡ 0
㎢ 0
㎦ 0
㎧ 0
㎭ 0
㎮ 0
㏄ 0
㏉ 0
㏍ 0
㏎ 0
㏑ 0
㏒ 0
㏕ 0
㐀 0
㐂 0
㐅 0
㐉 0
㐌 0
㐚 0
㐨 0
㐩 0
㐫 0
㐰 0
㐱 0
㐲 0
㐵 0
㐷 0
㐺 0
㐽 0
㐾 0
㑀 0
㑇 0
㑈 0
㑋 0
㑩 0
㑮 0
㑯 0
㑳 0
㑷 0
㑹 0
㑺 0
㒄 0
㒒 0
㒓 0
㒚 0
㒜 0
㒝 0
㒟 0
㒡 0
㒨 0
㒭 0
㒰 0
㒷 0
㒹 0
㒼 0
㓂 0
㓕 0
㓗 0
㓛 0
㓜 0
㓤 0
㓥 0
㓦 0
㓾 0
㔆 0
㔉 0
㔨 0
㔬 0
㔶 0
㔾 0
㕊 0
㕎 0
㕑 0
㕒 0
㕔 0
㕕 0
㕛 0
㕟 0
㕢 0
㕩 0
㕫 0
㕭 0
㕵 0
㕶 0
㕹 0
㖊 0
㖞 0
㖫 0
㖱 0
㖼 0
㖿 0
㗊 0
㗌 0
㗎 0
㗑 0
㗖 0
㗙 0
㗚 0
㗦 0
㗰 0
㗼 0
㘃 0
㘎 0
㘡 0
㘣 0
㘧 0
㘭 0
㘰 0
㘵 0
㘾 0
㙁 0
㙂 0
㙉 0
㙊 0
㙍 0
㙎 0
㙏 0
㙓 0
㙔 0
㙞 0
㙟 0
㙡 0
㙨 0
㙩 0
㙫 0
㙱 0
㙲 0
㙸 0
㙺 0
㙻 0
㙾 0
㚁 0
㚇 0
㚏 0
㚒 0
㚕 0
㚖 0
㚘 0
㚟 0
㚡 0
㚣 0
㚬 0
㚸 0
㚻 0
㛀 0
㛂 0
㛃 0
㛄 0
㛅 0
㛐 0
㛑 0
㛢 0
㛤 0
㛧 0
㛨 0
㜑 0
㜕 0
㜢 0
㜫 0
㜲 0
㜺 0
㝅 0
㝇 0
㝉 0
㝎 0
㝏 0
㝑 0
㝓 0
㝗 0
㝘 0
㝜 0
㝝 0
㝠 0
㝡 0
㝢 0
㝧 0
㝩 0
㝬 0
㝭 0
㝵 0
㝷 0
㝸 0
㝹 0
㞎 0
㞗 0
㞘 0
㞙 0
㞞 0
㞢 0
㞦 0
㞶 0
㞷 0
㟁 0
㟃 0
㟊 0
㟋 0
㟍 0
㟏 0
㟐 0
㟓 0
㟖 0
㟥 0
㟧 0
㟨 0
㟲 0
㟶 0
㟽 0
㠁 0
㠂 0
㠄 0
㠉 0
㠏 0
㠐 0
㠖 0
㠗 0
㠜 0
㠫 0
㠬 0
㠭 0
㠯 0
㠱 0
㡉 0
㡎 0
㡓 0
㡠 0
㡣 0
㡬 0
㡭 0
㡳 0
㡽 0
㢆 0
㢉 0
㢢 0
㢶 0
㣈 0
㣉 0
㣚 0
㣧 0
㤀 0
㤖 0
㤘 0
㤚 0
㤝 0
㤧 0
㤭 0
㤻 0
㤽 0
㥄 0
㥅 0
㥏 0
㥠 0
㥣 0
㥥 0
㥪 0
㥽 0
㦀 0
㦂 0
㦃 0
㦕 0
㦝 0
㦢 0
㦤 0
㦪 0
㦯 0
㦲 0
㦷 0
㦸 0
㧀 0
㧋 0
㧎 0
㧏 0
㧐 0
㧑 0
㧟 0
㧥 0
㧪 0
㧰 0
㧸 0
㧻 0
㧽 0
㧾 0
㨃 0
㨆 0
㨖 0
㨗 0
㨴 0
㨿 0
㩄 0
㩉 0
㩒 0
㩗 0
㩦 0
㩧 0
㩪 0
㩲 0
㩴 0
㩼 0
㩿 0
㪅 0
㪍 0
㪚 0
㪨 0
㪲 0
㪳 0
㪷 0
㫁 0
㫃 0
㫇 0
㫈 0
㫋 0
㫒 0
㫕 0
㫖 0
㫛 0
㫜 0
㫝 0
㫟 0
㫠 0
㫤 0
㫫 0
㫬 0
㫰 0
㫶 0
㫻 0
㬀 0
㬂 0
㬅 0
㬇 0
㬊 0
㬋 0
㬌 0
㬎 0
㬏 0
㬕 0
㬙 0
㬪 0
㬫 0
㬹 0
㬼 0
㬾 0
㭉 0
㭎 0
㭏 0
㭕 0
㭘 0
㭙 0
㭠 0
㭤 0
㭪 0
㭲 0
㭴 0
㭼 0
㭽 0
㭿 0
㮁 0
㮂 0
㮆 0
㮈 0
㮌 0
㮐 0
㮒 0
㮔 0
㮙 0
㮚 0
㮞 0
㮡 0
㮣 0
㮨 0
㮮 0
㮯 0
㮳 0
㮴 0
㮵 0
㮹 0
㮾 0
㯊 0
㯋 0
㯕 0
㯟 0
㯢 0
㯥 0
㯫 0
㯳 0
㯽 0
㰂 0
㰋 0
㰐 0
㰒 0
㰖 0
㰘 0
㰴 0
㱔 0
㱕 0
㱘 0
㱛 0
㱮 0
㲀 0
㲎 0
㲚 0
㲪 0
㲯 0
㲲 0
㲳 0
㳄 0
㳆 0
㳇 0
㳉 0
㳋 0
㳍 0
㳔 0
㳕 0
㳘 0
㳚 0
㳛 0
㳠 0
㳡 0
㳥 0
㳦 0
㴁 0
㴇 0
㴋 0
㴐 0
㴓 0
㴤 0
㴦 0
㴧 0
㴩 0
㴭 0
㴰 0
㴱 0
㴶 0
㴻 0
㵂 0
㵅 0
㵎 0
㵐 0
㵑 0
㵘 0
㵝 0
㵢 0
㵩 0
㵮 0
㵰 0
㵲 0
㵴 0
㵸 0
㵼 0
㵾 0
㶁 0
㶇 0
㶉 0
㶍 0
㶎 0
㶏 0
㶞 0
㶟 0
㶠 0
㶣 0
㶧 0
㶨 0
㶬 0
㶱 0
㶲 0
㶴 0
㶶 0
㶽 0
㶾 0
㶿 0
㷂 0
㷃 0
㷆 0
㷇 0
㷋 0
㷍 0
㷛 0
㷧 0
㷩 0
㷫 0
㷹 0
㷿 0
㸁 0
㸃 0
㸄 0
㸅 0
㸆 0
㸌 0
㸎 0
㸙 0
㸚 0
㸞 0
㸦 0
㸯 0
㸲 0
㸺 0
㹜 0
㹢 0
㹥 0
㹧 0
㹭 0
㹴 0
㺄 0
㺅 0
㺍 0
㺏 0
㺒 0
㺔 0
㺢 0
㺤 0
㺬 0
㺭 0
㺯 0
㺱 0
㺷 0
㺹 0
㻁 0
㻂 0
㻅 0
㻇 0
㻋 0
㻌 0
㻑 0
㻗 0
㻛 0
㻞 0
㻠 0
㻪 0
㻫 0
㻬 0
㻱 0
㻶 0
㼀 0
㼁 0
㼅 0
㼆 0
㼈 0
㼌 0
㼎 0
㼴 0
㼼 0
㽏 0
㽓 0
㽘 0
㽜 0
㽞 0
㽦 0
㽬 0
㽱 0
㽲 0
㽵 0
㽿 0
㾀 0
㾆 0
㾗 0
㾫 0
㾮 0
㾾 0
㾿 0
㿃 0
㿉 0
㿗 0
㿝 0
㿟 0
㿭 0
䀇 0
䀊 0
䀏 0
䀚 0
䀠 0
䀬 0
䀲 0
䀹 0
䀻 0
䁅 0
䁋 0
䁐 0
䁔 0
䁖 0
䁥 0
䁱 0
䁻 0
䁽 0
䂊 0
䂓 0
䂗 0
䂮 0
䂵 0
䂺 0
䂻 0
䃄 0
䃅 0
䃟 0
䃮 0
䃼 0
䄂 0
䄄 0
䄉 0
䄓 0
䄔 0
䄖 0
䄙 0
䅁 0
䅉 0
䅟 0
䅩 0
䅰 0
䅲 0
䅳 0
䅴 0
䅵 0
䅶 0
䆀 0
䆁 0
䆃 0
䆅 0
䆐 0
䆝 0
䆡 0
䆥 0
䆲 0
䆳 0
䇄 0
䇍 0
䇲 0
䇳 0
䇿 0
䈎 0
䈜 0
䉀 0
䉋 0
䉤 0
䉶 0
䊆 0
䊹 0
䊾 0
䋊 0
䋞 0
䋱 0
䋲 0
䋻 0
䋼 0
䌓 0
䌫 0
䌷 0
䌸 0
䌹 0
䌼 0
䌽 0
䍀 0
䍁 0
䍃 0
䍉 0
䍡 0
䍦 0
䍩 0
䍪 0
䍲 0
䍺 0
䎃 0
䎕 0
䎖 0
䎗 0
䎚 0
䎜 0
䎞 0
䏁 0
䏌 0
䏏 0
䏘 0
䏝 0
䏟 0
䏠 0
䏡 0
䏣 0
䏭 0
䏰 0
䏲 0
䏻 0
䏿 0
䐁 0
䐃 0
䐗 0
䐶 0
䐾 0
䑏 0
䑓 0
䑩 0
䑸 0
䒏 0
䒐 0
䒑 0
䒢 0
䒩 0
䒶 0
䒷 0
䓁 0
䓈 0
䓓 0
䓕 0
䓖 0
䓘 0
䓛 0
䓝 0
䓤 0
䓨 0
䓪 0
䓬 0
䓯 0
䓴 0
䓶 0
䔃 0
䔍 0
䔎 0
䔖 0
䔧 0
䔶 0
䔷 0
䕈 0
䕒 0
䕢 0
䕫 0
䕭 0
䕶 0
䕷 0
䕾 0
䖃 0
䖏 0
䖑 0
䖔 0
䖝 0
䖢 0
䖳 0
䖴 0
䖵 0
䗁 0
䗂 0
䗃 0
䗉 0
䗋 0
䗖 0
䗛 0
䗡 0
䗧 0
䗩 0
䗴 0
䗶 0
䘎 0
䘏 0
䘗 0
䘙 0
䘮 0
䘰 0
䘴 0
䘵 0
䙉 0
䙌 0
䙓 0
䙝 0
䙥 0
䚀 0
䚟 0
䚡 0
䚢 0
䚮 0
䛁 0
䛒 0
䛔 0
䛘 0
䜌 0
䜓 0
䜛 0
䜣 0
䜧 0
䜩 0
䜭 0
䜳 0
䝉 0
䝙 0
䝞 0
䝠 0
䝼 0
䝾 0
䞀 0
䞭 0
䟢 0
䟫 0
䟴 0
䟽 0
䠀 0
䠉 0
䠋 0
䠌 0
䠎 0
䠏 0
䠐 0
䠖 0
䠘 0
䠙 0
䠚 0
䠥 0
䠩 0
䠷 0
䠺 0
䡐 0
䡛 0
䡵 0
䢅 0
䢘 0
䢵 0
䢺 0
䢿 0
䣄 0
䣈 0
䣓 0
䣕 0
䤂 0
䤈 0
䤌 0
䤞 0
䤡 0
䤪 0
䤭 0
䤰 0
䤸 0
䥈 0
䥑 0
䥓 0
䥕 0
䥛 0
䥩 0
䥫 0
䥵 0
䥸 0
䥺 0
䥽 0
䦃 0
䦅 0
䦆 0
䦉 0
䦋 0
䦕 0
䦦 0
䦧 0
䦨 0
䦹 0
䧄 0
䧇 0
䧏 0
䧛 0
䧟 0
䧲 0
䧳 0
䧺 0
䧿 0
䨄 0
䨇 0
䨈 0
䨌 0
䨓 0
䨞 0
䨱 0
䨲 0
䨺 0
䨻 0
䩆 0
䩌 0
䩑 0
䩮 0
䪚 0
䪧 0
䪭 0
䪴 0
䪹 0
䪻 0
䫂 0
䫄 0
䫆 0
䫈 0
䫓 0
䫻 0
䬅 0
䬌 0
䭔 0
䭕 0
䭣 0
䭵 0
䮀 0
䮄 0
䮐 0
䮓 0
䮖 0
䮭 0
䮾 0
䯁 0
䯄 0
䯑 0
䯖 0
䯻 0
䯼 0
䰀 0
䰐 0
䰖 0
䰛 0
䰟 0
䰠 0
䰰 0
䰷 0
䰽 0
䰾 0
䱀 0
䱂 0
䱋 0
䱐 0
䱗 0
䱛 0
䱞 0
䱡 0
䱵 0
䱷 0
䱹 0
䱻 0
䱽 0
䲀 0
䲁 0
䲅 0
䲆 0
䲉 0
䲎 0
䲔 0
䲕 0
䲗 0
䲞 0
䲟 0
䲠 0
䲡 0
䲢 0
䲧 0
䲹 0
䳇 0
䳋 0
䳍 0
䳒 0
䳗 0
䳘 0
䳢 0
䳤 0
䳭 0
䳲 0
䴈 0
䴉 0
䴓 0
䴔 0
䴕 0
䴖 0
䴗 0
䴘 0
䴙 0
䴚 0
䴥 0
䴫 0
䵃 0
䵋 0
䵍 0
䵚 0
䵣 0
䵬 0
䵺 0
䵼 0
䶄 0
䶈 0
䶎 0
䶪 0
䶮 0
䷌ 0
一 0
丁 0
丂 0
七 0
丄 0
丅 0
丆 0
万 0
丈 0
三 0
上 0
下 0
丌 0
不 0
与 0
丏 0
丐 0
丑 0
丒 0
专 0
且 0
丕 0
世 0
丗 0
丘 0
丙 0
业 0
丛 0
东 0
丝 0
丞 0
丟 0
丠 0
両 0
丢 0
丣 0
两 0
严 0
並 0
丧 0
丨 0
丩 0
个 0
丫 0
丬 0
中 0
丮 0
丯 0
丰 0
丱 0
串 0
丳 0
临 0
丵 0
丶 0
丷 0
丸 0
丹 0
为 0
主 0
丼 0
丽 0
举 0
丿 0
乀 0
乁 0
乂 0
乃 0
乄 0
久 0
乆 0
乇 0
么 0
义 0
乊 0
之 0
乌 0
乍 0
乎 0
乏 0
乐 0
乑 0
乒 0
乓 0
乔 0
乕 0
乖 0
乗 0
乘 0
乙 0
乚 0
乛 0
乜 0
九 0
乞 0
也 0
习 0
乡 0
乢 0
乣 0
乤 0
乥 0
书 0
乧 0
乨 0
乩 0
乪 0
乫 0
乭 0
乮 0
乯 0
买 0
乱 0
乲 0
乳 0
乴 0
乶 0
乷 0
乸 0
乹 0
乺 0
乻 0
乼 0
乽 0
乾 0
乿 0
亀 0
亁 0
亂 0
亃 0
亄 0
亅 0
了 0
亇 0
予 0
争 0
亊 0
事 0
二 0
亍 0
于 0
亏 0
亐 0
云 0
互 0
亓 0
五 0
井 0
亖 0
亗 0
亘 0
亙 0
亚 0
些 0
亜 0
亝 0
亞 0
亟 0
亠 0
亡 0
亢 0
亣 0
交 0
亥 0
亦 0
产 0
亨 0
亩 0
亪 0
享 0
京 0
亭 0
亮 0
亯 0
亰 0
亱 0
亲 0
亳 0
亴 0
亵 0
亶 0
亷 0
亸 0
亹 0
人 0
亻 0
亼 0
亽 0
亾 0
亿 0
什 0
仁 0
仂 0
仃 0
仄 0
仅 0
仆 0
仇 0
仈 0
仉 0
今 0
介 0
仌 0
仍 0
从 0
仏 0
仐 0
仑 0
仒 0
仓 0
仔 0
仕 0
他 0
仗 0
付 0
仙 0
仚 0
仛 0
仜 0
仝 0
仞 0
仟 0
仠 0
仡 0
代 0
令 0
以 0
仦 0
仧 0
仨 0
仩 0
仪 0
仫 0
们 0
仭 0
仮 0
仯 0
仰 0
仱 0
仲 0
仳 0
仴 0
仵 0
件 0
价 0
仸 0
仹 0
仺 0
任 0
仼 0
份 0
仾 0
仿 0
伀 0
企 0
伂 0
伃 0
伄 0
伅 0
伆 0
伇 0
伈 0
伉 0
伊 0
伋 0
伌 0
伍 0
伎 0
伏 0
伐 0
休 0
伒 0
伓 0
伔 0
伕 0
伖 0
众 0
优 0
伙 0
会 0
伛 0
伜 0
伝 0
伞 0
伟 0
传 0
伡 0
伢 0
伣 0
伤 0
伥 0
伦 0
伧 0
伨 0
伩 0
伪 0
伫 0
伬 0
伭 0
伮 0
伯 0
估 0
伱 0
伲 0
伳 0
伴 0
伵 0
伶 0
伷 0
伸 0
伹 0
伺 0
伻 0
似 0
伽 0
伾 0
伿 0
佀 0
佁 0
佂 0
佃 0
佄 0
佅 0
但 0
佇 0
佈 0
佉 0
佊 0
佋 0
佌 0
位 0
低 0
住 0
佐 0
佑 0
佒 0
体 0
佔 0
何 0
佖 0
佗 0
佘 0
余 0
佚 0
佛 0
作 0
佝 0
佞 0
佟 0
你 0
佡 0
佢 0
佣 0
佤 0
佥 0
佦 0
佧 0
佨 0
佩 0
佪 0
佫 0
佬 0
佭 0
佮 0
佯 0
佰 0
佱 0
佲 0
佳 0
佴 0
併 0
佶 0
佷 0
佸 0
佹 0
佺 0
佻 0
佼 0
佽 0
佾 0
使 0
侀 0
侁 0
侂 0
侃 0
侄 0
侅 0
來 0
侇 0
侈 0
侉 0
侊 0
例 0
侌 0
侍 0
侎 0
侏 0
侐 0
侑 0
侒 0
侓 0
侔 0
侕 0
侖 0
侗 0
侘 0
侙 0
侚 0
供 0
侜 0
依 0
侞 0
侟 0
侠 0
価 0
侢 0
侣 0
侤 0
侥 0
侦 0
侧 0
侨 0
侩 0
侪 0
侫 0
侬 0
侭 0
侮 0
侯 0
侰 0
侱 0
侲 0
侳 0
侴 0
侵 0
侶 0
侷 0
侸 0
侹 0
侻 0
侼 0
侽 0
侾 0
便 0
俀 0
俁 0
係 0
促 0
俄 0
俅 0
俆 0
俇 0
俈 0
俉 0
俊 0
俋 0
俌 0
俍 0
俎 0
俏 0
俐 0
俑 0
俒 0
俓 0
俔 0
俕 0
俖 0
俗 0
俘 0
俙 0
俚 0
俛 0
俜 0
保 0
俞 0
俟 0
俠 0
信 0
俢 0
俣 0
俤 0
俥 0
俦 0
俧 0
俨 0
俩 0
俪 0
俫 0
俬 0
俭 0
修 0
俯 0
俰 0
俱 0
俲 0
俳 0
俴 0
俵 0
俶 0
俷 0
俸 0
俹 0
俺 0
俻 0
俼 0
俽 0
俾 0
俿 0
倀 0
倁 0
倂 0
倃 0
倄 0
倅 0
倆 0
倇 0
倈 0
倉 0
倊 0
個 0
倌 0
倍 0
倎 0
倏 0
倐 0
們 0
倒 0
倓 0
倔 0
倕 0
倖 0
倗 0
倘 0
候 0
倚 0
倛 0
倜 0
倝 0
倞 0
借 0
倠 0
倡 0
倢 0
倣 0
値 0
倥 0
倦 0
倧 0
倨 0
倩 0
倪 0
倫 0
倬 0
倭 0
倮 0
倯 0
倰 0
倱 0
倳 0
倴 0
倵 0
倶 0
倷 0
倸 0
倹 0
债 0
倻 0
值 0
倽 0
倾 0
倿 0
偀 0
偁 0
偂 0
偃 0
偄 0
偅 0
偆 0
假 0
偈 0
偉 0
偊 0
偋 0
偌 0
偍 0
偎 0
偏 0
偐 0
偑 0
偒 0
偓 0
偔 0
偕 0
偖 0
偗 0
偘 0
偙 0
做 0
偛 0
停 0
偝 0
偞 0
偟 0
偠 0
偡 0
偢 0
偣 0
偤 0
健 0
偦 0
偧 0
偨 0
偩 0
偪 0
偫 0
偬 0
偭 0
偮 0
偯 0
偰 0
偱 0
偲 0
偳 0
側 0
偵 0
偶 0
偷 0
偸 0
偹 0
偺 0
偻 0
偼 0
偽 0
偾 0
偿 0
傀 0
傁 0
傂 0
傃 0
傄 0
傅 0
傆 0
傇 0
傈 0
傉 0
傊 0
傋 0
傌 0
傍 0
傎 0
傏 0
傐 0
傑 0
傒 0
傓 0
傔 0
傕 0
傖 0
傗 0
傘 0
備 0
傚 0
傛 0
傜 0
傝 0
傞 0
傟 0
傠 0
傡 0
傢 0
傣 0
傤 0
傥 0
傦 0
傧 0
储 0
傩 0
傪 0
傫 0
催 0
傭 0
傮 0
傯 0
傰 0
傱 0
傲 0
傳 0
傴 0
債 0
傶 0
傷 0
傸 0
傺 0
傻 0
傼 0
傾 0
傿 0
僀 0
僂 0
僃 0
僄 0
僅 0
僆 0
僇 0
僈 0
僉 0
僊 0
僋 0
僌 0
働 0
僎 0
像 0
僐 0
僑 0
僒 0
僓 0
僔 0
僕 0
僖 0
僗 0
僘 0
僙 0
僚 0
僛 0
僜 0
僝 0
僞 0
僟 0
僠 0
僡 0
僢 0
僣 0
僤 0
僥 0
僦 0
僧 0
僨 0
僩 0
僪 0
僫 0
僬 0
僭 0
僮 0
僯 0
僰 0
僱 0
僲 0
僳 0
僴 0
僵 0
僶 0
僷 0
僸 0
價 0
僺 0
僻 0
僼 0
僽 0
僾 0
僿 0
儀 0
儁 0
儂 0
儃 0
億 0
儅 0
儆 0
儇 0
儈 0
儉 0
儊 0
儋 0
儌 0
儍 0
儎 0
儏 0
儐 0
儑 0
儒 0
儓 0
儔 0
儕 0
儖 0
儗 0
儘 0
儙 0
儚 0
儛 0
儜 0
儝 0
儞 0
償 0
儠 0
儡 0
儢 0
儣 0
儤 0
儥 0
儦 0
儧 0
儨 0
儩 0
優 0
儫 0
儬 0
儭 0
儮 0
儯 0
儰 0
儱 0
儲 0
儳 0
儴 0
儵 0
儶 0
儷 0
儸 0
儹 0
儺 0
儻 0
儼 0
儾 0
儿 0
兀 0
允 0
兂 0
元 0
兄 0
充 0
兆 0
兇 0
先 0
光 0
兊 0
克 0
兌 0
免 0
兎 0
兏 0
児 0
兑 0
兒 0
兓 0
兔 0
兕 0
兖 0
兗 0
兘 0
兙 0
党 0
兛 0
兜 0
兝 0
兞 0
兟 0
兠 0
兡 0
兢 0
兣 0
兤 0
入 0
兦 0
內 0
全 0
兩 0
兪 0
八 0
公 0
六 0
兮 0
兯 0
兰 0
共 0
兲 0
关 0
兴 0
兵 0
其 0
具 0
典 0
兹 0
兺 0
养 0
兼 0
兽 0
兾 0
兿 0
冀 0
冁 0
冂 0
冃 0
冄 0
内 0
円 0
冇 0
冈 0
冉 0
冊 0
冋 0
册 0
再 0
冎 0
冏 0
冐 0
冑 0
冒 0
冓 0
冔 0
冕 0
冖 0
冗 0
冘 0
写 0
冚 0
军 0
农 0
冝 0
冞 0
冟 0
冠 0
冡 0
冢 0
冣 0
冤 0
冥 0
冦 0
冧 0
冨 0
冩 0
冪 0
冫 0
冬 0
冭 0
冮 0
冯 0
冰 0
冱 0
冲 0
决 0
冴 0
况 0
冶 0
冷 0
冸 0
冹 0
冺 0
冻 0
冼 0
冽 0
冾 0
冿 0
净 0
凁 0
凂 0
凃 0
凄 0
凅 0
准 0
凇 0
凈 0
凉 0
凊 0
凋 0
凌 0
凍 0
凎 0
减 0
凐 0
凑 0
凒 0
凓 0
凔 0
凕 0
凖 0
凗 0
凘 0
凙 0
凚 0
凛 0
凜 0
凝 0
凞 0
凟 0
几 0
凡 0
凢 0
凣 0
凤 0
凥 0
処 0
凧 0
凨 0
凩 0
凪 0
凫 0
凬 0
凭 0
凮 0
凯 0
凰 0
凱 0
凲 0
凳 0
凴 0
凵 0
凶 0
凷 0
凸 0
凹 0
出 0
击 0
凼 0
函 0
凾 0
凿 0
刀 0
刁 0
刂 0
刃 0
刄 0
刅 0
分 0
切 0
刈 0
刉 0
刊 0
刋 0
刌 0
刍 0
刎 0
刏 0
刐 0
刑 0
划 0
刓 0
刔 0
刕 0
刖 0
列 0
刘 0
则 0
刚 0
创 0
刜 0
初 0
刞 0
刟 0
删 0
刡 0
刢 0
刣 0
判 0
別 0
刦 0
刧 0
刨 0
利 0
刪 0
别 0
刬 0
刭 0
刮 0
刯 0
到 0
刱 0
刲 0
刳 0
刴 0
刵 0
制 0
刷 0
券 0
刹 0
刺 0
刻 0
刼 0
刽 0
刾 0
刿 0
剀 0
剁 0
剂 0
剃 0
剄 0
剅 0
則 0
剈 0
剉 0
削 0
剋 0
剌 0
前 0
剎 0
剏 0
剐 0
剑 0
剒 0
剓 0
剔 0
剕 0
剖 0
剗 0
剘 0
剙 0
剚 0
剛 0
剜 0
剝 0
剞 0
剟 0
剠 0
剡 0
剢 0
剣 0
剤 0
剥 0
剦 0
剧 0
剨 0
剩 0
剪 0
剫 0
剬 0
剭 0
剮 0
副 0
剰 0
剱 0
割 0
剳 0
剴 0
創 0
剶 0
剷 0
剸 0
剹 0
剺 0
剻 0
剼 0
剽 0
剿 0
劀 0
劁 0
劂 0
劃 0
劄 0
劅 0
劆 0
劇 0
劈 0
劉 0
劊 0
劋 0
劌 0
劍 0
劎 0
劏 0
劐 0
劑 0
劒 0
劓 0
劔 0
劕 0
劖 0
劗 0
劘 0
劙 0
劚 0
力 0
劜 0
劝 0
办 0
功 0
加 0
务 0
劢 0
劣 0
劤 0
劥 0
劦 0
劧 0
动 0
助 0
努 0
劫 0
劬 0
劭 0
劮 0
劯 0
劰 0
励 0
劲 0
劳 0
労 0
劵 0
劶 0
劷 0
劸 0
効 0
劺 0
劻 0
劼 0
劽 0
劾 0
势 0
勀 0
勁 0
勂 0
勃 0
勄 0
勅 0
勆 0
勇 0
勈 0
勉 0
勊 0
勋 0
勌 0
勍 0
勎 0
勏 0
勐 0
勑 0
勒 0
勓 0
勔 0
動 0
勖 0
勗 0
勘 0
務 0
勚 0
勛 0
勜 0
勝 0
勞 0
募 0
勠 0
勡 0
勢 0
勣 0
勤 0
勥 0
勦 0
勧 0
勨 0
勩 0
勪 0
勫 0
勬 0
勭 0
勮 0
勯 0
勰 0
勱 0
勲 0
勳 0
勴 0
勵 0
勶 0
勷 0
勸 0
勹 0
勺 0
勻 0
勼 0
勽 0
勾 0
勿 0
匀 0
匁 0
匂 0
匃 0
匄 0
包 0
匆 0
匇 0
匈 0
匉 0
匊 0
匋 0
匌 0
匍 0
匎 0
匏 0
匐 0
匑 0
匒 0
匓 0
匔 0
匕 0
化 0
北 0
匘 0
匙 0
匚 0
匛 0
匜 0
匝 0
匞 0
匟 0
匠 0
匡 0
匢 0
匣 0
匤 0
匥 0
匦 0
匧 0
匩 0
匪 0
匫 0
匬 0
匭 0
匮 0
匯 0
匰 0
匱 0
匲 0
匳 0
匴 0
匵 0
匶 0
匷 0
匸 0
匹 0
区 0
医 0
匼 0
匽 0
匾 0
匿 0
區 0
十 0
卂 0
千 0
卄 0
卅 0
卆 0
升 0
午 0
卉 0
半 0
卋 0
卌 0
卍 0
华 0
协 0
卐 0
卑 0
卒 0
卓 0
協 0
单 0
卖 0
南 0
単 0
卙 0
博 0
卛 0
卜 0
卝 0
卞 0
卟 0
占 0
卡 0
卢 0
卣 0
卤 0
卥 0
卦 0
卧 0
卨 0
卩 0
卪 0
卫 0
卬 0
卭 0
卮 0
卯 0
印 0
危 0
卲 0
即 0
却 0
卵 0
卶 0
卷 0
卸 0
卹 0
卺 0
卻 0
卼 0
卽 0
卾 0
卿 0
厀 0
厁 0
厂 0
厃 0
厄 0
厅 0
历 0
厇 0
厉 0
厊 0
压 0
厌 0
厍 0
厎 0
厏 0
厐 0
厑 0
厒 0
厓 0
厔 0
厕 0
厖 0
厗 0
厘 0
厙 0
厚 0
厛 0
厜 0
厝 0
厞 0
原 0
厠 0
厡 0
厢 0
厣 0
厤 0
厥 0
厦 0
厧 0
厨 0
厩 0
厪 0
厫 0
厬 0
厭 0
厮 0
厯 0
厰 0
厱 0
厲 0
厳 0
厴 0
厵 0
厶 0
厷 0
厸 0
厹 0
厺 0
去 0
厼 0
厽 0
厾 0
县 0
叀 0
叁 0
参 0
參 0
叄 0
叅 0
叆 0
叇 0
又 0
叉 0
及 0
友 0
双 0
反 0
収 0
叏 0
叐 0
发 0
叒 0
叓 0
叔 0
叕 0
取 0
受 0
变 0
叙 0
叚 0
叛 0
叜 0
叝 0
叞 0
叟 0
叠 0
叡 0
叢 0
口 0
古 0
句 0
另 0
叧 0
叨 0
叩 0
只 0
叫 0
召 0
叭 0
叮 0
可 0
台 0
叱 0
史 0
右 0
叴 0
叵 0
叶 0
号 0
司 0
叹 0
叺 0
叻 0
叼 0
叽 0
叾 0
叿 0
吀 0
吁 0
吂 0
吃 0
各 0
吅 0
吆 0
吇 0
合 0
吉 0
吊 0
吋 0
同 0
名 0
后 0
吏 0
吐 0
向 0
吒 0
吓 0
吔 0
吕 0
吖 0
吗 0
吘 0
吙 0
吚 0
君 0
吜 0
吝 0
吞 0
吟 0
吠 0
吡 0
吢 0
吣 0
吤 0
吥 0
否 0
吧 0
吨 0
吩 0
吪 0
含 0
听 0
吭 0
吮 0
启 0
吰 0
吱 0
吲 0
吳 0
吴 0
吵 0
吶 0
吷 0
吸 0
吹 0
吺 0
吻 0
吼 0
吽 0
吾 0
吿 0
呀 0
呁 0
呂 0
呃 0
呄 0
呅 0
呆 0
呇 0
呈 0
呉 0
告 0
呋 0
呌 0
呍 0
呎 0
呏 0
呐 0
呑 0
呒 0
呓 0
呔 0
呕 0
呖 0
呗 0
员 0
呙 0
呚 0
呛 0
呜 0
呝 0
呞 0
呟 0
呠 0
呡 0
呢 0
呣 0
呤 0
呥 0
呦 0
呧 0
周 0
呩 0
呪 0
呫 0
呬 0
呭 0
呮 0
呯 0
呰 0
呱 0
呲 0
味 0
呴 0
呵 0
呶 0
呷 0
呸 0
呹 0
呺 0
呻 0
呼 0
命 0
呾 0
呿 0
咀 0
咁 0
咂 0
咃 0
咄 0
咅 0
咆 0
咇 0
咈 0
咉 0
咊 0
咋 0
和 0
咍 0
咎 0
咏 0
咐 0
咑 0
咒 0
咓 0
咔 0
咕 0
咖 0
咗 0
咘 0
咙 0
咚 0
咛 0
咜 0
咝 0
咞 0
咟 0
咠 0
咡 0
咢 0
咣 0
咤 0
咥 0
咦 0
咧 0
咨 0
咩 0
咪 0
咫 0
咬 0
咭 0
咮 0
咯 0
咰 0
咱 0
咲 0
咳 0
咴 0
咵 0
咶 0
咷 0
咸 0
咹 0
咺 0
咻 0
咼 0
咽 0
咾 0
咿 0
哀 0
品 0
哂 0
哃 0
哄 0
哅 0
哆 0
哇 0
哈 0
哉 0
哊 0
哋 0
哌 0
响 0
哎 0
哏 0
哐 0
哑 0
哒 0
哓 0
哔 0
哕 0
哖 0
哗 0
哘 0
哙 0
哚 0
哛 0
哜 0
哝 0
哞 0
哟 0
哠 0
員 0
哢 0
哣 0
哤 0
哥 0
哦 0
哧 0
哨 0
哩 0
哪 0
哫 0
哬 0
哭 0
哮 0
哯 0
哰 0
哱 0
哲 0
哳 0
哴 0
哵 0
哶 0
哷 0
哸 0
哹 0
哺 0
哻 0
哼 0
哽 0
哾 0
哿 0
唀 0
唁 0
唂 0
唃 0
唄 0
唅 0
唆 0
唇 0
唈 0
唉 0
唊 0
唋 0
唌 0
唍 0
唎 0
唏 0
唐 0
唑 0
唒 0
唓 0
唔 0
唕 0
唖 0
唗 0
唘 0
唙 0
唚 0
唛 0
唜 0
唝 0
唞 0
唟 0
唠 0
唡 0
唢 0
唣 0
唤 0
唥 0
唦 0
唧 0
唨 0
唩 0
唪 0
唫 0
唬 0
唭 0
售 0
唯 0
唰 0
唱 0
唲 0
唳 0
唴 0
唵 0
唶 0
唷 0
唸 0
唹 0
唺 0
唻 0
唼 0
唽 0
唾 0
唿 0
啀 0
啁 0
啂 0
啃 0
啄 0
啅 0
商 0
啇 0
啈 0
啉 0
啊 0
啋 0
啌 0
啍 0
啎 0
問 0
啐 0
啑 0
啒 0
啓 0
啔 0
啕 0
啖 0
啗 0
啘 0
啙 0
啚 0
啛 0
啜 0
啝 0
啞 0
啟 0
啠 0
啡 0
啢 0
啣 0
啤 0
啥 0
啦 0
啧 0
啨 0
啩 0
啪 0
啫 0
啬 0
啭 0
啮 0
啯 0
啰 0
啱 0
啲 0
啳 0
啴 0
啵 0
啶 0
啷 0
啸 0
啹 0
啺 0
啻 0
啼 0
啽 0
啾 0
啿 0
喀 0
喁 0
喂 0
喃 0
善 0
喅 0
喆 0
喇 0
喈 0
喉 0
喊 0
喋 0
喌 0
喍 0
喎 0
喏 0
喐 0
喑 0
喒 0
喓 0
喔 0
喕 0
喗 0
喘 0
喙 0
喚 0
喛 0
喜 0
喝 0
喞 0
喟 0
喠 0
喡 0
喢 0
喣 0
喤 0
喥 0
喦 0
喧 0
喨 0
喩 0
喪 0
喫 0
喬 0
喭 0
單 0
喯 0
喰 0
喱 0
喲 0
喳 0
喴 0
喵 0
営 0
喷 0
喸 0
喹 0
喺 0
喻 0
喼 0
喽 0
喾 0
喿 0
嗀 0
嗁 0
嗂 0
嗃 0
嗄 0
嗅 0
嗆 0
嗇 0
嗈 0
嗉 0
嗊 0
嗋 0
嗌 0
嗍 0
嗎 0
嗏 0
嗐 0
嗑 0
嗒 0
嗓 0
嗔 0
嗕 0
嗖 0
嗗 0
嗘 0
嗙 0
嗚 0
嗛 0
嗜 0
嗝 0
嗞 0
嗟 0
嗠 0
嗡 0
嗢 0
嗣 0
嗤 0
嗥 0
嗦 0
嗧 0
嗨 0
嗩 0
嗪 0
嗫 0
嗬 0
嗭 0
嗮 0
嗯 0
嗰 0
嗱 0
嗲 0
嗳 0
嗴 0
嗵 0
嗶 0
嗷 0
嗸 0
嗹 0
嗺 0
嗻 0
嗼 0
嗽 0
嗾 0
嗿 0
嘀 0
嘁 0
嘂 0
嘃 0
嘄 0
嘅 0
嘆 0
嘇 0
嘈 0
嘉 0
嘊 0
嘋 0
嘌 0
嘍 0
嘎 0
嘏 0
嘐 0
嘑 0
嘒 0
嘓 0
嘔 0
嘕 0
嘖 0
嘗 0
嘘 0
嘙 0
嘚 0
嘛 0
嘜 0
嘝 0
嘞 0
嘟 0
嘠 0
嘡 0
嘢 0
嘣 0
嘤 0
嘥 0
嘦 0
嘧 0
嘨 0
嘩 0
嘪 0
嘫 0
嘬 0
嘭 0
嘮 0
嘯 0
嘰 0
嘱 0
嘲 0
嘳 0
嘴 0
嘵 0
嘶 0
嘷 0
嘸 0
嘹 0
嘻 0
嘼 0
嘽 0
嘿 0
噀 0
噁 0
噂 0
噃 0
噄 0
噅 0
噆 0
噇 0
噈 0
噉 0
噊 0
噋 0
噌 0
噍 0
噎 0
噏 0
噐 0
噑 0
噒 0
噓 0
噔 0
噕 0
噖 0
噗 0
噘 0
噙 0
噚 0
噛 0
噜 0
噝 0
噞 0
噟 0
噠 0
噢 0
噣 0
噤 0
噥 0
噦 0
噧 0
器 0
噩 0
噪 0
噫 0
噬 0
噭 0
噮 0
噯 0
噰 0
噱 0
噲 0
噳 0
噴 0
噵 0
噶 0
噷 0
噸 0
噹 0
噺 0
噻 0
噼 0
噽 0
噾 0
噿 0
嚀 0
嚁 0
嚂 0
嚃 0
嚄 0
嚅 0
嚆 0
嚇 0
嚈 0
嚉 0
嚊 0
嚋 0
嚌 0
嚍 0
嚎 0
嚏 0
嚐 0
嚑 0
嚒 0
嚓 0
嚔 0
嚕 0
嚖 0
嚗 0
嚘 0
嚙 0
嚚 0
嚛 0
嚜 0
嚞 0
嚟 0
嚠 0
嚡 0
嚢 0
嚣 0
嚤 0
嚥 0
嚦 0
嚧 0
嚨 0
嚩 0
嚪 0
嚫 0
嚬 0
嚭 0
嚮 0
嚯 0
嚰 0
嚱 0
嚲 0
嚳 0
嚴 0
嚵 0
嚶 0
嚷 0
嚸 0
嚹 0
嚺 0
嚻 0
嚼 0
嚾 0
嚿 0
囀 0
囁 0
囂 0
囃 0
囄 0
囅 0
囆 0
囇 0
囈 0
囉 0
囊 0
囋 0
囌 0
囍 0
囎 0
囏 0
囐 0
囑 0
囒 0
囓 0
囔 0
囕 0
囖 0
囗 0
囘 0
囙 0
囚 0
四 0
囜 0
囝 0
回 0
囟 0
因 0
囡 0
团 0
団 0
囤 0
囥 0
囦 0
囧 0
囨 0
囩 0
囪 0
囫 0
囬 0
园 0
囮 0
囯 0
困 0
囱 0
囲 0
図 0
围 0
囵 0
囶 0
囷 0
囸 0
囹 0
固 0
囻 0
囼 0
国 0
图 0
囿 0
圀 0
圁 0
圂 0
圃 0
圄 0
圅 0
圆 0
圇 0
圈 0
圉 0
圊 0
國 0
圌 0
圍 0
圎 0
圏 0
圐 0
圑 0
園 0
圓 0
圔 0
圕 0
圖 0
圗 0
團 0
圙 0
圚 0
圛 0
圜 0
圝 0
圞 0
土 0
圠 0
圡 0
圢 0
圣 0
圤 0
圥 0
圦 0
圧 0
在 0
圩 0
圪 0
圫 0
圬 0
圭 0
圮 0
圯 0
地 0
圱 0
圲 0
圳 0
圴 0
圵 0
圶 0
圷 0
圸 0
圹 0
场 0
圻 0
圼 0
圽 0
圾 0
圿 0
址 0
坁 0
坂 0
坃 0
坄 0
坅 0
坆 0
均 0
坈 0
坉 0
坊 0
坋 0
坌 0
坍 0
坎 0
坏 0
坐 0
坑 0
坒 0
坓 0
坔 0
坕 0
坖 0
块 0
坘 0
坙 0
坚 0
坛 0
坜 0
坝 0
坞 0
坟 0
坠 0
坡 0
坢 0
坣 0
坤 0
坥 0
坦 0
坧 0
坨 0
坩 0
坪 0
坫 0
坬 0
坭 0
坮 0
坯 0
坰 0
坱 0
坲 0
坳 0
坴 0
坵 0
坶 0
坷 0
坸 0
坹 0
坺 0
坻 0
坼 0
坽 0
坿 0
垀 0
垁 0
垂 0
垃 0
垄 0
垅 0
垆 0
垇 0
垈 0
垉 0
垊 0
型 0
垌 0
垍 0
垎 0
垏 0
垐 0
垑 0
垒 0
垓 0
垔 0
垕 0
垖 0
垗 0
垘 0
垙 0
垚 0
垛 0
垜 0
垝 0
垞 0
垟 0
垠 0
垡 0
垢 0
垣 0
垤 0
垥 0
垦 0
垧 0
垨 0
垩 0
垪 0
垫 0
垬 0
垭 0
垮 0
垯 0
垰 0
垱 0
垲 0
垳 0
垴 0
垵 0
垶 0
垷 0
垸 0
垹 0
垺 0
垻 0
垽 0
垾 0
垿 0
埀 0
埁 0
埂 0
埃 0
埄 0
埅 0
埆 0
埇 0
埈 0
埉 0
埊 0
埋 0
埌 0
埍 0
城 0
埏 0
埐 0
埑 0
埒 0
埓 0
埔 0
埕 0
埖 0
埗 0
埘 0
埙 0
埚 0
埛 0
埜 0
埝 0
埞 0
域 0
埠 0
埡 0
埢 0
埣 0
埤 0
埥 0
埦 0
埧 0
埨 0
埩 0
埪 0
埫 0
埭 0
埮 0
埯 0
埰 0
埱 0
埲 0
埳 0
埴 0
埵 0
埶 0
執 0
埸 0
培 0
基 0
埻 0
埼 0
埽 0
埾 0
埿 0
堀 0
堁 0
堂 0
堃 0
堄 0
堅 0
堆 0
堇 0
堈 0
堉 0
堊 0
堋 0
堌 0
堍 0
堎 0
堐 0
堑 0
堒 0
堓 0
堔 0
堕 0
堖 0
堗 0
堘 0
堙 0
堚 0
堛 0
堜 0
堝 0
堞 0
堟 0
堠 0
堡 0
堢 0
堣 0
堤 0
堥 0
堦 0
堧 0
堨 0
堩 0
堪 0
堫 0
堬 0
堭 0
堮 0
堯 0
堰 0
報 0
堲 0
堳 0
場 0
堵 0
堶 0
堷 0
堸 0
堹 0
堺 0
堻 0
堼 0
堽 0
堾 0
堿 0
塀 0
塁 0
塂 0
塃 0
塄 0
塅 0
塆 0
塇 0
塈 0
塉 0
塊 0
塋 0
塌 0
塍 0
塎 0
塏 0
塐 0
塑 0
塒 0
塓 0
塔 0
塕 0
塖 0
塗 0
塘 0
塙 0
塚 0
塛 0
塜 0
塝 0
塞 0
塟 0
塠 0
塡 0
塢 0
塣 0
塤 0
塥 0
塦 0
塨 0
塩 0
塪 0
填 0
塬 0
塭 0
塮 0
塯 0
塰 0
塱 0
塲 0
塳 0
塴 0
塵 0
塶 0
塷 0
塸 0
塹 0
塺 0
塻 0
塼 0
塽 0
塾 0
塿 0
墀 0
墁 0
墂 0
境 0
墄 0
墅 0
墆 0
墇 0
墈 0
墉 0
墊 0
墋 0
墌 0
墍 0
墎 0
墏 0
墐 0
墑 0
墒 0
墓 0
墔 0
墕 0
墖 0
増 0
墘 0
墙 0
墚 0
墛 0
墜 0
墝 0
增 0
墟 0
墠 0
墡 0
墢 0
墣 0
墤 0
墥 0
墦 0
墧 0
墨 0
墩 0
墪 0
墫 0
墬 0
墭 0
墮 0
墯 0
墰 0
墱 0
墳 0
墴 0
墵 0
墶 0
墷 0
墸 0
墹 0
墺 0
墻 0
墼 0
墽 0
墾 0
墿 0
壀 0
壁 0
壂 0
壃 0
壄 0
壅 0
壆 0
壇 0
壈 0
壉 0
壊 0
壋 0
壌 0
壍 0
壎 0
壏 0
壐 0
壑 0
壒 0
壓 0
壔 0
壕 0
壖 0
壘 0
壙 0
壚 0
壛 0
壜 0
壝 0
壞 0
壟 0
壠 0
壡 0
壢 0
壤 0
壦 0
壧 0
壨 0
壩 0
壪 0
士 0
壬 0
壭 0
壮 0
壯 0
声 0
壱 0
売 0
壳 0
壴 0
壵 0
壶 0
壷 0
壸 0
壹 0
壺 0
壻 0
壼 0
壽 0
壾 0
壿 0
夀 0
夁 0
夂 0
夃 0
处 0
夅 0
夆 0
备 0
夈 0
変 0
夊 0
夋 0
夌 0
复 0
夎 0
夏 0
夐 0
夑 0
夒 0
夓 0
夔 0
夕 0
外 0
夗 0
夘 0
夙 0
多 0
夛 0
夜 0
夝 0
夞 0
够 0
夠 0
夡 0
夢 0
夣 0
夤 0
夥 0
夦 0
大 0
夨 0
天 0
太 0
夫 0
夬 0
夭 0
央 0
夯 0
夰 0
失 0
夲 0
头 0
夶 0
夷 0
夸 0
夹 0
夺 0
夻 0
夼 0
夽 0
夾 0
夿 0
奀 0
奁 0
奂 0
奃 0
奄 0
奅 0
奆 0
奇 0
奈 0
奉 0
奊 0
奋 0
奌 0
奍 0
奎 0
奏 0
奐 0
契 0
奒 0
奓 0
奔 0
奕 0
奖 0
套 0
奘 0
奙 0
奚 0
奛 0
奜 0
奝 0
奞 0
奟 0
奠 0
奡 0
奢 0
奣 0
奤 0
奥 0
奦 0
奧 0
奨 0
奩 0
奪 0
奫 0
奬 0
奭 0
奮 0
奯 0
奰 0
奱 0
奲 0
女 0
奴 0
奵 0
奶 0
奷 0
奸 0
她 0
奺 0
奻 0
奼 0
好 0
奾 0
奿 0
妀 0
妁 0
如 0
妃 0
妄 0
妅 0
妆 0
妇 0
妈 0
妉 0
妊 0
妋 0
妌 0
妍 0
妎 0
妏 0
妐 0
妑 0
妒 0
妓 0
妔 0
妕 0
妖 0
妗 0
妘 0
妙 0
妚 0
妛 0
妜 0
妝 0
妞 0
妟 0
妠 0
妡 0
妢 0
妣 0
妤 0
妥 0
妦 0
妧 0
妨 0
妩 0
妪 0
妫 0
妬 0
妭 0
妮 0
妯 0
妰 0
妱 0
妲 0
妳 0
妵 0
妶 0
妷 0
妸 0
妹 0
妺 0
妻 0
妼 0
妽 0
妾 0
妿 0
姀 0
姁 0
姂 0
姃 0
姄 0
姅 0
姆 0
姇 0
姈 0
姉 0
姊 0
始 0
姌 0
姍 0
姎 0
姏 0
姐 0
姑 0
姒 0
姓 0
委 0
姕 0
姖 0
姗 0
姘 0
姙 0
姚 0
姛 0
姜 0
姝 0
姞 0
姟 0
姠 0
姡 0
姢 0
姣 0
姤 0
姥 0
姦 0
姧 0
姨 0
姩 0
姪 0
姫 0
姬 0
姭 0
姮 0
姯 0
姰 0
姱 0
姲 0
姳 0
姴 0
姵 0
姶 0
姷 0
姸 0
姹 0
姺 0
姻 0
姼 0
姽 0
姾 0
姿 0
娀 0
威 0
娂 0
娃 0
娄 0
娅 0
娆 0
娇 0
娈 0
娉 0
娊 0
娋 0
娌 0
娍 0
娎 0
娏 0
娐 0
娑 0
娒 0
娓 0
娔 0
娕 0
娖 0
娗 0
娘 0
娙 0
娚 0
娛 0
娜 0
娝 0
娞 0
娟 0
娠 0
娡 0
娢 0
娣 0
娤 0
娥 0
娦 0
娧 0
娨 0
娩 0
娪 0
娫 0
娬 0
娭 0
娮 0
娯 0
娰 0
娱 0
娲 0
娳 0
娴 0
娵 0
娶 0
娷 0
娸 0
娹 0
娺 0
娻 0
娼 0
娽 0
娾 0
娿 0
婀 0
婁 0
婂 0
婃 0
婄 0
婅 0
婆 0
婇 0
婈 0
婉 0
婊 0
婋 0
婌 0
婍 0
婎 0
婏 0
婐 0
婑 0
婒 0
婓 0
婔 0
婕 0
婖 0
婗 0
婘 0
婙 0
婚 0
婛 0
婜 0
婝 0
婞 0
婟 0
婠 0
婢 0
婣 0
婤 0
婥 0
婦 0
婧 0
婨 0
婩 0
婪 0
婫 0
婬 0
婭 0
婮 0
婯 0
婰 0
婱 0
婲 0
婳 0
婴 0
婵 0
婶 0
婷 0
婸 0
婹 0
婺 0
婻 0
婼 0
婽 0
婾 0
婿 0
媀 0
媁 0
媂 0
媃 0
媄 0
媅 0
媆 0
媉 0
媊 0
媋 0
媌 0
媍 0
媎 0
媏 0
媐 0
媑 0
媒 0
媓 0
媔 0
媕 0
媖 0
媗 0
媘 0
媙 0
媚 0
媛 0
媜 0
媝 0
媞 0
媟 0
媠 0
媡 0
媢 0
媣 0
媤 0
媥 0
媦 0
媧 0
媨 0
媩 0
媪 0
媫 0
媬 0
媭 0
媮 0
媯 0
媱 0
媲 0
媳 0
媴 0
媵 0
媶 0
媷 0
媸 0
媹 0
媺 0
媻 0
媼 0
媽 0
媾 0
媿 0
嫀 0
嫁 0
嫂 0
嫃 0
嫄 0
嫆 0
嫇 0
嫈 0
嫉 0
嫊 0
嫋 0
嫌 0
嫍 0
嫎 0
嫏 0
嫐 0
嫑 0
嫒 0
嫓 0
嫔 0
嫕 0
嫖 0
嫗 0
嫘 0
嫙 0
嫚 0
嫛 0
嫜 0
嫝 0
嫞 0
嫟 0
嫠 0
嫡 0
嫢 0
嫣 0
嫤 0
嫥 0
嫦 0
嫧 0
嫨 0
嫩 0
嫪 0
嫫 0
嫬 0
嫭 0
嫮 0
嫰 0
嫱 0
嫲 0
嫳 0
嫵 0
嫶 0
嫷 0
嫸 0
嫹 0
嫺 0
嫻 0
嫼 0
嫽 0
嫾 0
嫿 0
嬀 0
嬁 0
嬂 0
嬃 0
嬄 0
嬅 0
嬆 0
嬇 0
嬈 0
嬉 0
嬊 0
嬋 0
嬌 0
嬍 0
嬎 0
嬏 0
嬐 0
嬑 0
嬒 0
嬓 0
嬔 0
嬕 0
嬖 0
嬗 0
嬘 0
嬙 0
嬚 0
嬛 0
嬜 0
嬝 0
嬞 0
嬟 0
嬡 0
嬢 0
嬤 0
嬥 0
嬦 0
嬧 0
嬨 0
嬩 0
嬪 0
嬫 0
嬬 0
嬭 0
嬮 0
嬯 0
嬰 0
嬱 0
嬲 0
嬳 0
嬴 0
嬶 0
嬷 0
嬸 0
嬹 0
嬺 0
嬻 0
嬼 0
嬽 0
嬾 0
嬿 0
孀 0
孁 0
孂 0
孃 0
孄 0
孅 0
孆 0
孇 0
孈 0
孉 0
孊 0
孋 0
孌 0
孍 0
孎 0
孏 0
子 0
孑 0
孒 0
孓 0
孔 0
孕 0
孖 0
字 0
存 0
孙 0
孚 0
孛 0
孜 0
孝 0
孞 0
孟 0
孠 0
孢 0
季 0
孤 0
孥 0
学 0
孧 0
孨 0
孩 0
孪 0
孫 0
孬 0
孭 0
孮 0
孯 0
孰 0
孱 0
孲 0
孳 0
孴 0
孵 0
孶 0
孷 0
學 0
孹 0
孺 0
孻 0
孼 0
孽 0
孿 0
宀 0
宁 0
宂 0
它 0
宄 0
宅 0
宆 0
宇 0
守 0
安 0
宊 0
宋 0
完 0
宍 0
宎 0
宏 0
宐 0
宑 0
宒 0
宓 0
宔 0
宕 0
宖 0
宗 0
官 0
宙 0
定 0
宛 0
宜 0
宝 0
实 0
実 0
宠 0
审 0
客 0
宣 0
室 0
宥 0
宦 0
宧 0
宨 0
宩 0
宪 0
宫 0
宬 0
宭 0
宮 0
宰 0
宱 0
宲 0
害 0
宴 0
宵 0
家 0
宷 0
宸 0
容 0
宺 0
宻 0
宼 0
宽 0
宾 0
宿 0
寀 0
寁 0
寂 0
寃 0
寄 0
寅 0
密 0
寇 0
寈 0
寉 0
寊 0
寋 0
富 0
寍 0
寎 0
寏 0
寐 0
寑 0
寒 0
寓 0
寔 0
寕 0
寖 0
寗 0
寘 0
寙 0
寚 0
寛 0
寜 0
寝 0
寞 0
察 0
寠 0
寡 0
寢 0
寣 0
寤 0
寥 0
實 0
寧 0
寨 0
審 0
寪 0
寫 0
寬 0
寭 0
寮 0
寯 0
寰 0
寱 0
寲 0
寳 0
寴 0
寵 0
寶 0
寷 0
寸 0
对 0
寺 0
寻 0
导 0
寽 0
対 0
寿 0
尀 0
封 0
専 0
尃 0
射 0
尅 0
将 0
將 0
專 0
尉 0
尊 0
尋 0
尌 0
對 0
導 0
小 0
尐 0
少 0
尒 0
尓 0
尔 0
尕 0
尖 0
尗 0
尘 0
尙 0
尚 0
尛 0
尜 0
尝 0
尞 0
尟 0
尠 0
尡 0
尢 0
尣 0
尤 0
尥 0
尦 0
尧 0
尨 0
尩 0
尪 0
尫 0
尬 0
尭 0
尮 0
尯 0
尰 0
就 0
尲 0
尳 0
尴 0
尵 0
尶 0
尷 0
尸 0
尹 0
尺 0
尻 0
尼 0
尽 0
尾 0
尿 0
局 0
屁 0
层 0
屃 0
屄 0
居 0
屆 0
屇 0
屈 0
屉 0
届 0
屋 0
屌 0
屍 0
屎 0
屏 0
屐 0
屑 0
屒 0
屓 0
屔 0
展 0
屗 0
屘 0
屙 0
屚 0
屛 0
屜 0
屝 0
属 0
屟 0
屠 0
屡 0
屢 0
屣 0
層 0
履 0
屦 0
屧 0
屨 0
屩 0
屪 0
屬 0
屭 0
屮 0
屯 0
屰 0
山 0
屲 0
屳 0
屴 0
屵 0
屶 0
屷 0
屸 0
屹 0
屺 0
屻 0
屼 0
屽 0
屾 0
屿 0
岀 0
岁 0
岂 0
岃 0
岄 0
岅 0
岆 0
岇 0
岈 0
岉 0
岊 0
岋 0
岌 0
岍 0
岎 0
岏 0
岐 0
岑 0
岒 0
岓 0
岔 0
岕 0
岖 0
岗 0
岘 0
岙 0
岚 0
岛 0
岜 0
岝 0
岞 0
岟 0
岠 0
岡 0
岢 0
岣 0
岤 0
岥 0
岦 0
岧 0
岨 0
岩 0
岪 0
岫 0
岬 0
岭 0
岮 0
岯 0
岰 0
岱 0
岲 0
岳 0
岴 0
岵 0
岶 0
岷 0
岸 0
岹 0
岺 0
岻 0
岼 0
岽 0
岾 0
岿 0
峀 0
峁 0
峂 0
峃 0
峄 0
峅 0
峆 0
峇 0
峈 0
峉 0
峊 0
峋 0
峌 0
峍 0
峎 0
峏 0
峐 0
峑 0
峒 0
峓 0
峔 0
峕 0
峖 0
峗 0
峘 0
峙 0
峚 0
峛 0
峜 0
峝 0
峞 0
峟 0
峠 0
峡 0
峣 0
峤 0
峥 0
峦 0
峧 0
峨 0
峩 0
峪 0
峫 0
峬 0
峭 0
峮 0
峯 0
峰 0
峱 0
峲 0
峳 0
峴 0
峵 0
島 0
峷 0
峸 0
峹 0
峺 0
峻 0
峼 0
峽 0
峿 0
崀 0
崁 0
崂 0
崃 0
崄 0
崆 0
崇 0
崈 0
崉 0
崊 0
崋 0
崌 0
崍 0
崎 0
崏 0
崐 0
崑 0
崒 0
崓 0
崔 0
崕 0
崖 0
崗 0
崘 0
崙 0
崚 0
崛 0
崜 0
崝 0
崞 0
崟 0
崠 0
崡 0
崢 0
崤 0
崥 0
崦 0
崧 0
崨 0
崩 0
崪 0
崫 0
崬 0
崭 0
崮 0
崯 0
崰 0
崱 0
崲 0
崳 0
崴 0
崵 0
崶 0
崷 0
崸 0
崺 0
崻 0
崼 0
崽 0
崾 0
崿 0
嵀 0
嵁 0
嵂 0
嵃 0
嵄 0
嵅 0
嵆 0
嵇 0
嵈 0
嵉 0
嵊 0
嵋 0
嵌 0
嵍 0
嵎 0
嵏 0
嵐 0
嵑 0
嵒 0
嵓 0
嵔 0
嵕 0
嵖 0
嵗 0
嵘 0
嵙 0
嵚 0
嵛 0
嵜 0
嵝 0
嵞 0
嵟 0
嵠 0
嵡 0
嵢 0
嵣 0
嵤 0
嵥 0
嵦 0
嵧 0
嵨 0
嵩 0
嵪 0
嵫 0
嵬 0
嵭 0
嵮 0
嵯 0
嵰 0
嵱 0
嵲 0
嵴 0
嵵 0
嵶 0
嵷 0
嵸 0
嵹 0
嵺 0
嵻 0
嵼 0
嵽 0
嵾 0
嵿 0
嶀 0
嶁 0
嶂 0
嶃 0
嶄 0
嶅 0
嶆 0
嶇 0
嶈 0
嶉 0
嶊 0
嶋 0
嶌 0
嶍 0
嶎 0
嶏 0
嶐 0
嶑 0
嶒 0
嶓 0
嶔 0
嶕 0
嶖 0
嶗 0
嶙 0
嶚 0
嶛 0
嶜 0
嶝 0
嶞 0
嶟 0
嶠 0
嶡 0
嶢 0
嶣 0
嶤 0
嶥 0
嶦 0
嶧 0
嶨 0
嶩 0
嶪 0
嶫 0
嶬 0
嶭 0
嶮 0
嶯 0
嶰 0
嶱 0
嶲 0
嶴 0
嶵 0
嶶 0
嶷 0
嶸 0
嶹 0
嶺 0
嶻 0
嶼 0
嶽 0
嶾 0
巀 0
巁 0
巂 0
巃 0
巄 0
巅 0
巆 0
巇 0
巈 0
巉 0
巋 0
巌 0
巍 0
巎 0
巏 0
巐 0
巑 0
巒 0
巓 0
巔 0
巕 0
巖 0
巗 0
巘 0
巙 0
巚 0
巛 0
巜 0
川 0
州 0
巟 0
巠 0
巡 0
巢 0
巣 0
巤 0
工 0
左 0
巧 0
巨 0
巩 0
巪 0
巫 0
巬 0
巭 0
差 0
巯 0
巰 0
己 0
已 0
巳 0
巴 0
巵 0
巶 0
巷 0
巸 0
巹 0
巺 0
巻 0
巼 0
巽 0
巾 0
巿 0
帀 0
币 0
市 0
布 0
帄 0
帅 0
帆 0
帇 0
师 0
帉 0
帊 0
帋 0
希 0
帍 0
帎 0
帏 0
帐 0
帑 0
帒 0
帓 0
帔 0
帕 0
帖 0
帗 0
帘 0
帙 0
帚 0
帛 0
帜 0
帝 0
帞 0
帟 0
帠 0
帡 0
帢 0
帣 0
帤 0
帥 0
带 0
帧 0
帨 0
帩 0
帪 0
師 0
帬 0
席 0
帮 0
帯 0
帰 0
帱 0
帲 0
帳 0
帴 0
帵 0
帶 0
帷 0
常 0
帹 0
帺 0
帻 0
帼 0
帽 0
帾 0
帿 0
幀 0
幁 0
幂 0
幃 0
幄 0
幅 0
幆 0
幇 0
幈 0
幉 0
幊 0
幋 0
幌 0
幍 0
幎 0
幏 0
幐 0
幑 0
幒 0
幔 0
幕 0
幖 0
幗 0
幘 0
幙 0
幚 0
幛 0
幜 0
幝 0
幞 0
幟 0
幠 0
幡 0
幢 0
幣 0
幤 0
幥 0
幦 0
幧 0
幨 0
幩 0
幪 0
幫 0
幬 0
幭 0
幮 0
幯 0
幰 0
幱 0
干 0
平 0
年 0
幵 0
并 0
幷 0
幸 0
幹 0
幺 0
幻 0
幼 0
幽 0
幾 0
广 0
庀 0
庁 0
庂 0
広 0
庄 0
庅 0
庆 0
庇 0
庈 0
庉 0
床 0
庋 0
庌 0
庍 0
庎 0
序 0
庐 0
庑 0
庒 0
库 0
应 0
底 0
庖 0
店 0
庘 0
庙 0
庚 0
庛 0
府 0
庝 0
庞 0
废 0
庠 0
庡 0
庢 0
庣 0
庤 0
庥 0
度 0
座 0
庨 0
庩 0
庪 0
庫 0
庬 0
庭 0
庮 0
庯 0
庰 0
庱 0
庲 0
庳 0
庴 0
庵 0
庶 0
康 0
庸 0
庹 0
庺 0
庻 0
庼 0
庽 0
庾 0
庿 0
廀 0
廁 0
廂 0
廃 0
廄 0
廅 0
廆 0
廇 0
廈 0
廉 0
廊 0
廋 0
廌 0
廍 0
廎 0
廏 0
廐 0
廑 0
廒 0
廓 0
廔 0
廕 0
廖 0
廗 0
廘 0
廙 0
廚 0
廛 0
廜 0
廝 0
廞 0
廟 0
廠 0
廡 0
廢 0
廣 0
廤 0
廥 0
廦 0
廧 0
廨 0
廩 0
廪 0
廫 0
廬 0
廭 0
廮 0
廯 0
廰 0
廱 0
廲 0
廳 0
廴 0
廵 0
延 0
廷 0
廸 0
廹 0
建 0
廻 0
廼 0
廽 0
廾 0
廿 0
开 0
弁 0
异 0
弃 0
弄 0
弅 0
弆 0
弇 0
弈 0
弉 0
弊 0
弋 0
弌 0
弍 0
弎 0
式 0
弐 0
弑 0
弒 0
弓 0
弔 0
引 0
弖 0
弗 0
弘 0
弙 0
弚 0
弛 0
弜 0
弝 0
弞 0
弟 0
张 0
弡 0
弢 0
弣 0
弤 0
弥 0
弦 0
弧 0
弨 0
弩 0
弪 0
弫 0
弬 0
弭 0
弮 0
弯 0
弰 0
弱 0
弲 0
弳 0
弴 0
張 0
弶 0
強 0
弸 0
弹 0
强 0
弻 0
弼 0
弽 0
弾 0
弿 0
彀 0
彁 0
彂 0
彃 0
彄 0
彅 0
彆 0
彇 0
彈 0
彉 0
彊 0
彋 0
彌 0
彍 0
彎 0
彏 0
彐 0
彑 0
归 0
当 0
彔 0
录 0
彖 0
彗 0
彘 0
彙 0
彚 0
彛 0
彜 0
彝 0
彞 0
彟 0
彠 0
彡 0
形 0
彣 0
彤 0
彥 0
彦 0
彧 0
彨 0
彩 0
彪 0
彫 0
彬 0
彭 0
彮 0
彯 0
彰 0
影 0
彲 0
彳 0
彴 0
彵 0
彶 0
彷 0
彸 0
役 0
彺 0
彻 0
彼 0
彽 0
彾 0
彿 0
往 0
征 0
徂 0
徃 0
径 0
待 0
徆 0
徇 0
很 0
徉 0
徊 0
律 0
後 0
徍 0
徎 0
徏 0
徐 0
徑 0
徒 0
従 0
徔 0
徕 0
徖 0
得 0
徘 0
徙 0
徚 0
徛 0
徜 0
徝 0
從 0
徟 0
徠 0
御 0
徢 0
徣 0
徤 0
徥 0
徦 0
徧 0
徨 0
復 0
循 0
徫 0
徬 0
徭 0
微 0
徯 0
徰 0
徱 0
徲 0
徳 0
徴 0
徵 0
徶 0
德 0
徸 0
徹 0
徺 0
徻 0
徼 0
徽 0
徾 0
忀 0
忁 0
忂 0
心 0
忄 0
必 0
忆 0
忇 0
忈 0
忉 0
忊 0
忋 0
忌 0
忍 0
忎 0
忏 0
忐 0
忑 0
忒 0
忓 0
忔 0
忕 0
忖 0
志 0
忘 0
忙 0
忚 0
忛 0
応 0
忝 0
忞 0
忟 0
忠 0
忡 0
忢 0
忣 0
忤 0
忥 0
忦 0
忧 0
忨 0
忩 0
忪 0
快 0
忬 0
忭 0
忮 0
忯 0
忰 0
忱 0
忲 0
忳 0
忴 0
念 0
忶 0
忷 0
忸 0
忹 0
忺 0
忻 0
忼 0
忽 0
忾 0
忿 0
怀 0
态 0
怂 0
怃 0
怄 0
怅 0
怆 0
怇 0
怈 0
怉 0
怊 0
怋 0
怌 0
怍 0
怎 0
怏 0
怐 0
怑 0
怒 0
怓 0
怔 0
怕 0
怖 0
怗 0
怘 0
怙 0
怚 0
怛 0
怜 0
思 0
怞 0
怟 0
怠 0
怡 0
怢 0
怣 0
怤 0
急 0
怦 0
性 0
怨 0
怩 0
怪 0
怫 0
怬 0
怭 0
怮 0
怯 0
怰 0
怱 0
怲 0
怳 0
怴 0
怵 0
怶 0
怷 0
怸 0
怹 0
怺 0
总 0
怼 0
怽 0
怾 0
怿 0
恀 0
恁 0
恂 0
恃 0
恄 0
恅 0
恆 0
恇 0
恈 0
恉 0
恊 0
恋 0
恌 0
恍 0
恏 0
恐 0
恑 0
恒 0
恓 0
恔 0
恕 0
恖 0
恗 0
恘 0
恙 0
恚 0
恛 0
恜 0
恝 0
恞 0
恟 0
恠 0
恡 0
恢 0
恣 0
恤 0
恥 0
恦 0
恧 0
恨 0
恩 0
恪 0
恫 0
恬 0
恭 0
恮 0
息 0
恰 0
恱 0
恲 0
恳 0
恴 0
恵 0
恶 0
恷 0
恸 0
恹 0
恺 0
恻 0
恼 0
恽 0
恾 0
恿 0
悀 0
悁 0
悂 0
悃 0
悄 0
悅 0
悆 0
悇 0
悈 0
悉 0
悊 0
悋 0
悌 0
悍 0
悎 0
悏 0
悐 0
悑 0
悒 0
悓 0
悔 0
悕 0
悖 0
悗 0
悘 0
悙 0
悚 0
悛 0
悜 0
悝 0
悞 0
悟 0
悠 0
悡 0
悢 0
患 0
悤 0
悥 0
悦 0
悧 0
您 0
悩 0
悪 0
悫 0
悬 0
悭 0
悮 0
悯 0
悰 0
悱 0
悲 0
悳 0
悴 0
悵 0
悶 0
悷 0
悸 0
悹 0
悺 0
悻 0
悼 0
悽 0
悾 0
悿 0
惀 0
惁 0
惂 0
惃 0
惄 0
情 0
惆 0
惇 0
惈 0
惉 0
惊 0
惋 0
惌 0
惍 0
惎 0
惏 0
惐 0
惑 0
惒 0
惓 0
惔 0
惕 0
惖 0
惗 0
惘 0
惙 0
惚 0
惛 0
惜 0
惝 0
惞 0
惟 0
惠 0
惡 0
惢 0
惣 0
惤 0
惥 0
惦 0
惧 0
惨 0
惩 0
惪 0
惫 0
惬 0
惭 0
惮 0
惯 0
惰 0
惱 0
惲 0
想 0
惴 0
惵 0
惶 0
惷 0
惸 0
惹 0
惺 0
惻 0
惼 0
惽 0
惾 0
惿 0
愀 0
愁 0
愂 0
愃 0
愄 0
愅 0
愆 0
愇 0
愈 0
愉 0
愊 0
愋 0
愌 0
愍 0
愎 0
意 0
愐 0
愑 0
愒 0
愓 0
愔 0
愕 0
愖 0
愗 0
愘 0
愙 0
愚 0
愛 0
愜 0
愝 0
愞 0
感 0
愠 0
愡 0
愢 0
愣 0
愤 0
愥 0
愦 0
愧 0
愨 0
愩 0
愪 0
愫 0
愬 0
愭 0
愮 0
愯 0
愰 0
愱 0
愲 0
愳 0
愴 0
愵 0
愶 0
愷 0
愸 0
愹 0
愺 0
愻 0
愼 0
愽 0
愾 0
愿 0
慀 0
慁 0
慂 0
慃 0
慄 0
慅 0
慆 0
慇 0
慈 0
慉 0
慊 0
態 0
慌 0
慍 0
慎 0
慏 0
慐 0
慑 0
慒 0
慓 0
慔 0
慕 0
慖 0
慗 0
慘 0
慙 0
慚 0
慛 0
慜 0
慝 0
慞 0
慟 0
慠 0
慡 0
慢 0
慣 0
慤 0
慥 0
慦 0
慧 0
慨 0
慩 0
慪 0
慫 0
慬 0
慭 0
慮 0
慯 0
慰 0
慱 0
慲 0
慳 0
慴 0
慵 0
慶 0
慷 0
慸 0
慹 0
慺 0
慻 0
慼 0
慽 0
慾 0
慿 0
憀 0
憁 0
憂 0
憃 0
憅 0
憆 0
憇 0
憈 0
憉 0
憊 0
憋 0
憌 0
憍 0
憎 0
憏 0
憐 0
憑 0
憒 0
憓 0
憔 0
憕 0
憖 0
憗 0
憘 0
憙 0
憚 0
憛 0
憜 0
憝 0
憞 0
憟 0
憠 0
憡 0
憣 0
憤 0
憥 0
憦 0
憧 0
憨 0
憩 0
憪 0
憫 0
憬 0
憭 0
憮 0
憯 0
憰 0
憱 0
憲 0
憳 0
憴 0
憵 0
憶 0
憷 0
憸 0
憹 0
憺 0
憻 0
憼 0
憽 0
憾 0
憿 0
懀 0
懁 0
懂 0
懃 0
懅 0
懆 0
懇 0
懈 0
應 0
懊 0
懋 0
懌 0
懍 0
懎 0
懏 0
懐 0
懑 0
懒 0
懓 0
懔 0
懕 0
懖 0
懗 0
懘 0
懙 0
懚 0
懛 0
懜 0
懝 0
懞 0
懟 0
懠 0
懡 0
懢 0
懣 0
懤 0
懥 0
懦 0
懧 0
懨 0
懩 0
懪 0
懫 0
懬 0
懭 0
懮 0
懯 0
懰 0
懲 0
懳 0
懴 0
懵 0
懶 0
懷 0
懸 0
懹 0
懺 0
懻 0
懼 0
懽 0
懾 0
懿 0
戀 0
戁 0
戂 0
戃 0
戄 0
戅 0
戆 0
戇 0
戈 0
戉 0
戊 0
戋 0
戌 0
戍 0
戎 0
戏 0
成 0
我 0
戒 0
戓 0
戔 0
戕 0
或 0
戗 0
战 0
戙 0
戚 0
戛 0
戜 0
戝 0
戞 0
戟 0
戠 0
戡 0
戢 0
戣 0
戤 0
戥 0
戦 0
戧 0
戨 0
戩 0
截 0
戫 0
戬 0
戭 0
戮 0
戯 0
戰 0
戱 0
戲 0
戳 0
戴 0
戵 0
戶 0
户 0
戸 0
戹 0
戺 0
戻 0
戼 0
戽 0
戾 0
房 0
所 0
扁 0
扂 0
扃 0
扄 0
扅 0
扆 0
扇 0
扈 0
扉 0
扊 0
手 0
扌 0
才 0
扎 0
扏 0
扐 0
扑 0
扒 0
打 0
扔 0
払 0
扖 0
扗 0
托 0
扙 0
扚 0
扛 0
扜 0
扝 0
扞 0
扟 0
扠 0
扡 0
扢 0
扣 0
扤 0
扥 0
扦 0
执 0
扨 0
扩 0
扪 0
扫 0
扬 0
扭 0
扮 0
扯 0
扰 0
扱 0
扲 0
扳 0
扴 0
扵 0
扶 0
扷 0
扸 0
批 0
扺 0
扻 0
扼 0
扽 0
找 0
承 0
技 0
抁 0
抂 0
抃 0
抄 0
抅 0
抆 0
抇 0
抈 0
抉 0
把 0
抋 0
抌 0
抍 0
抎 0
抏 0
抐 0
抑 0
抒 0
抓 0
抔 0
投 0
抖 0
抗 0
折 0
抙 0
抚 0
抛 0
抜 0
抝 0
択 0
抟 0
抠 0
抡 0
抢 0
抣 0
护 0
报 0
抦 0
抧 0
抨 0
抩 0
抪 0
披 0
抬 0
抭 0
抮 0
抯 0
抰 0
抱 0
抲 0
抳 0
抴 0
抵 0
抶 0
抷 0
抸 0
抹 0
抺 0
抻 0
押 0
抽 0
抾 0
抿 0
拀 0
拁 0
拂 0
拃 0
拄 0
担 0
拆 0
拇 0
拈 0
拉 0
拊 0
拋 0
拌 0
拍 0
拎 0
拏 0
拐 0
拑 0
拒 0
拓 0
拔 0
拕 0
拖 0
拗 0
拘 0
拙 0
拚 0
招 0
拜 0
拝 0
拞 0
拟 0
拠 0
拡 0
拢 0
拣 0
拤 0
拥 0
拦 0
拧 0
拨 0
择 0
拪 0
拫 0
括 0
拭 0
拮 0
拯 0
拰 0
拱 0
拲 0
拳 0
拴 0
拵 0
拶 0
拷 0
拸 0
拹 0
拺 0
拻 0
拼 0
拽 0
拾 0
拿 0
挀 0
持 0
挂 0
挃 0
挄 0
挅 0
挆 0
指 0
挈 0
按 0
挊 0
挋 0
挌 0
挍 0
挎 0
挏 0
挐 0
挑 0
挒 0
挓 0
挔 0
挕 0
挖 0
挗 0
挘 0
挙 0
挚 0
挛 0
挜 0
挝 0
挞 0
挟 0
挠 0
挡 0
挢 0
挣 0
挤 0
挥 0
挦 0
挧 0
挨 0
挩 0
挪 0
挫 0
挬 0
挭 0
挮 0
振 0
挰 0
挱 0
挲 0
挳 0
挴 0
挵 0
挶 0
挷 0
挸 0
挹 0
挺 0
挻 0
挼 0
挽 0
挾 0
挿 0
捀 0
捁 0
捂 0
捃 0
捄 0
捅 0
捆 0
捇 0
捈 0
捉 0
捊 0
捋 0
捌 0
捍 0
捎 0
捏 0
捐 0
捑 0
捒 0
捓 0
捔 0
捕 0
捖 0
捗 0
捘 0
捙 0
捚 0
捛 0
捜 0
捝 0
捞 0
损 0
捡 0
换 0
捣 0
捤 0
捥 0
捦 0
捧 0
捨 0
捩 0
捪 0
捫 0
捭 0
据 0
捯 0
捰 0
捱 0
捲 0
捳 0
捴 0
捵 0
捶 0
捷 0
捸 0
捹 0
捺 0
捻 0
捼 0
捽 0
捾 0
捿 0
掀 0
掁 0
掂 0
掃 0
掄 0
掅 0
掆 0
掇 0
授 0
掉 0
掊 0
掋 0
掌 0
掍 0
掎 0
掏 0
掐 0
掑 0
排 0
掓 0
掔 0
掕 0
掖 0
掗 0
掘 0
掙 0
掛 0
掜 0
掝 0
掞 0
掟 0
掠 0
採 0
探 0
掣 0
掤 0
接 0
掦 0
控 0
推 0
掩 0
措 0
掫 0
掬 0
掭 0
掮 0
掯 0
掰 0
掱 0
掲 0
掳 0
掴 0
掵 0
掷 0
掸 0
掹 0
掺 0
掻 0
掼 0
掽 0
掾 0
掿 0
揀 0
揁 0
揂 0
揃 0
揄 0
揅 0
揆 0
揇 0
揈 0
揉 0
揊 0
揌 0
揍 0
揎 0
描 0
提 0
揑 0
插 0
揓 0
揔 0
揕 0
揖 0
揗 0
揘 0
揙 0
揚 0
換 0
揜 0
揝 0
揞 0
揟 0
揠 0
握 0
揢 0
揣 0
揤 0
揥 0
揦 0
揧 0
揨 0
揩 0
揪 0
揫 0
揬 0
揭 0
揮 0
揰 0
揱 0
揲 0
揳 0
援 0
揵 0
揶 0
揷 0
揸 0
揹 0
揺 0
揻 0
揼 0
揽 0
揾 0
揿 0
搀 0
搁 0
搂 0
搃 0
搄 0
搅 0
搆 0
搇 0
搈 0
搉 0
搊 0
搋 0
搌 0
損 0
搎 0
搏 0
搐 0
搑 0
搒 0
搓 0
搔 0
搕 0
搖 0
搗 0
搘 0
搙 0
搚 0
搛 0
搜 0
搞 0
搟 0
搠 0
搡 0
搢 0
搣 0
搤 0
搥 0
搦 0
搧 0
搨 0
搩 0
搪 0
搫 0
搬 0
搭 0
搮 0
搯 0
搰 0
搱 0
搲 0
搳 0
搴 0
搵 0
搶 0
搷 0
搸 0
搹 0
携 0
搻 0
搼 0
搽 0
搾 0
搿 0
摀 0
摁 0
摂 0
摃 0
摄 0
摅 0
摆 0
摇 0
摈 0
摉 0
摊 0
摋 0
摌 0
摍 0
摎 0
摏 0
摐 0
摑 0
摒 0
摓 0
摔 0
摕 0
摖 0
摗 0
摘 0
摙 0
摚 0
摛 0
摜 0
摝 0
摞 0
摟 0
摠 0
摡 0
摢 0
摣 0
摤 0
摥 0
摦 0
摧 0
摨 0
摩 0
摪 0
摫 0
摬 0
摭 0
摮 0
摯 0
摰 0
摱 0
摲 0
摳 0
摴 0
摵 0
摶 0
摷 0
摸 0
摹 0
摺 0
摻 0
摼 0
摽 0
摾 0
摿 0
撀 0
撁 0
撂 0
撃 0
撄 0
撅 0
撆 0
撇 0
撈 0
撉 0
撋 0
撌 0
撍 0
撎 0
撏 0
撐 0
撑 0
撒 0
撓 0
撔 0
撕 0
撖 0
撗 0
撘 0
撙 0
撚 0
撛 0
撜 0
撝 0
撞 0
撟 0
撠 0
撡 0
撢 0
撣 0
撤 0
撥 0
撦 0
撧 0
撨 0
撩 0
撪 0
撫 0
撬 0
播 0
撮 0
撯 0
撰 0
撱 0
撲 0
撳 0
撴 0
撵 0
撶 0
撷 0
撸 0
撹 0
撺 0
撻 0
撼 0
撽 0
撾 0
撿 0
擀 0
擁 0
擂 0
擃 0
擄 0
擅 0
擆 0
擇 0
擈 0
擉 0
擊 0
擋 0
擌 0
操 0
擎 0
擏 0
擐 0
擑 0
擒 0
擓 0
擔 0
擕 0
擖 0
擗 0
擘 0
擙 0
據 0
擛 0
擜 0
擝 0
擞 0
擠 0
擡 0
擢 0
擣 0
擤 0
擥 0
擦 0
擧 0
擨 0
擩 0
擪 0
擫 0
擬 0
擭 0
擮 0
擯 0
擰 0
擱 0
擲 0
擳 0
擴 0
擵 0
擶 0
擷 0
擸 0
擹 0
擺 0
擻 0
擼 0
擽 0
擾 0
擿 0
攀 0
攂 0
攃 0
攄 0
攅 0
攆 0
攈 0
攉 0
攊 0
攋 0
攌 0
攍 0
攏 0
攐 0
攑 0
攒 0
攓 0
攔 0
攕 0
攖 0
攗 0
攘 0
攙 0
攚 0
攛 0
攜 0
攝 0
攞 0
攟 0
攠 0
攡 0
攢 0
攣 0
攤 0
攥 0
攦 0
攧 0
攨 0
攩 0
攪 0
攫 0
攬 0
攭 0
攮 0
支 0
攰 0
攱 0
攲 0
攴 0
攵 0
收 0
攷 0
攸 0
改 0
攺 0
攻 0
攼 0
攽 0
放 0
政 0
敀 0
敁 0
敂 0
敃 0
敄 0
故 0
敆 0
敇 0
效 0
敉 0
敊 0
敋 0
敌 0
敍 0
敎 0
敏 0
敐 0
救 0
敒 0
敓 0
敔 0
敕 0
敖 0
敗 0
敘 0
教 0
敚 0
敛 0
敜 0
敝 0
敞 0
敟 0
敠 0
敡 0
敢 0
散 0
敤 0
敥 0
敦 0
敧 0
敨 0
敩 0
敪 0
敫 0
敬 0
敭 0
敮 0
敯 0
数 0
敱 0
敲 0
敳 0
整 0
敵 0
敶 0
敷 0
數 0
敹 0
敺 0
敻 0
敼 0
敽 0
敾 0
敿 0
斀 0
斁 0
斂 0
斃 0
斄 0
斅 0
斆 0
文 0
斈 0
斉 0
斊 0
斋 0
斌 0
斍 0
斎 0
斏 0
斐 0
斑 0
斒 0
斓 0
斔 0
斕 0
斖 0
斗 0
斘 0
料 0
斚 0
斛 0
斜 0
斝 0
斟 0
斠 0
斡 0
斢 0
斣 0
斤 0
斥 0
斦 0
斧 0
斨 0
斩 0
斪 0
斫 0
斬 0
断 0
斮 0
斯 0
新 0
斱 0
斲 0
斳 0
斴 0
斵 0
斶 0
斷 0
斸 0
方 0
斺 0
斻 0
於 0
施 0
斾 0
斿 0
旀 0
旁 0
旂 0
旃 0
旄 0
旅 0
旆 0
旇 0
旈 0
旉 0
旊 0
旋 0
旌 0
旍 0
旎 0
族 0
旐 0
旑 0
旒 0
旓 0
旔 0
旕 0
旖 0
旗 0
旘 0
旙 0
旚 0
旛 0
旜 0
旝 0
旞 0
旟 0
无 0
旡 0
既 0
旣 0
旤 0
日 0
旦 0
旧 0
旨 0
早 0
旪 0
旫 0
旬 0
旭 0
旮 0
旯 0
旰 0
旱 0
旲 0
旳 0
旴 0
旵 0
时 0
旷 0
旸 0
旹 0
旺 0
旻 0
旼 0
旽 0
旾 0
旿 0
昀 0
昂 0
昃 0
昄 0
昅 0
昆 0
昇 0
昈 0
昉 0
昊 0
昋 0
昌 0
昍 0
明 0
昏 0
昐 0
昑 0
昒 0
易 0
昔 0
昕 0
昖 0
昗 0
昘 0
昙 0
昚 0
昛 0
昜 0
昝 0
昞 0
星 0
映 0
昡 0
昢 0
昣 0
昤 0
春 0
昦 0
昧 0
昨 0
昩 0
昪 0
昫 0
昬 0
昭 0
昮 0
是 0
昰 0
昱 0
昲 0
昳 0
昴 0
昵 0
昶 0
昷 0
昸 0
昹 0
昺 0
昻 0
昼 0
昽 0
显 0
昿 0
晀 0
晁 0
時 0
晃 0
晄 0
晅 0
晆 0
晇 0
晈 0
晉 0
晊 0
晋 0
晌 0
晍 0
晎 0
晏 0
晐 0
晑 0
晒 0
晓 0
晔 0
晕 0
晖 0
晗 0
晘 0
晙 0
晚 0
晛 0
晜 0
晝 0
晞 0
晟 0
晠 0
晡 0
晢 0
晣 0
晤 0
晥 0
晦 0
晧 0
晨 0
晩 0
晪 0
晫 0
晬 0
晭 0
普 0
景 0
晰 0
晱 0
晲 0
晳 0
晴 0
晵 0
晶 0
晷 0
晸 0
晹 0
智 0
晻 0
晼 0
晽 0
晾 0
晿 0
暀 0
暁 0
暂 0
暃 0
暄 0
暅 0
暆 0
暇 0
暈 0
暉 0
暊 0
暋 0
暌 0
暍 0
暎 0
暏 0
暐 0
暑 0
暒 0
暓 0
暔 0
暕 0
暖 0
暗 0
暘 0
暙 0
暚 0
暛 0
暜 0
暝 0
暞 0
暟 0
暠 0
暡 0
暢 0
暣 0
暤 0
暥 0
暦 0
暧 0
暨 0
暩 0
暪 0
暫 0
暬 0
暭 0
暮 0
暯 0
暰 0
暱 0
暲 0
暳 0
暴 0
暵 0
暶 0
暷 0
暸 0
暹 0
暺 0
暻 0
暼 0
暽 0
暾 0
暿 0
曀 0
曁 0
曂 0
曃 0
曄 0
曅 0
曆 0
曇 0
曈 0
曉 0
曋 0
曌 0
曍 0
曎 0
曏 0
曐 0
曑 0
曒 0
曓 0
曔 0
曕 0
曖 0
曗 0
曘 0
曙 0
曚 0
曛 0
曜 0
曝 0
曞 0
曟 0
曠 0
曡 0
曢 0
曣 0
曤 0
曥 0
曦 0
曧 0
曨 0
曩 0
曪 0
曫 0
曬 0
曭 0
曮 0
曯 0
曰 0
曱 0
曲 0
曳 0
更 0
曵 0
曶 0
曷 0
書 0
曹 0
曺 0
曻 0
曼 0
曽 0
曾 0
替 0
最 0
朁 0
朂 0
會 0
朄 0
朅 0
朆 0
朇 0
月 0
有 0
朊 0
朋 0
朌 0
服 0
朎 0
朏 0
朐 0
朑 0
朒 0
朓 0
朔 0
朕 0
朖 0
朗 0
朘 0
朙 0
朚 0
望 0
朜 0
朝 0
朞 0
期 0
朠 0
朡 0
朢 0
朣 0
朤 0
朥 0
朦 0
朧 0
木 0
朩 0
未 0
末 0
本 0
札 0
朮 0
术 0
朰 0
朱 0
朲 0
朳 0
朴 0
朵 0
朶 0
朸 0
朹 0
机 0
朻 0
朽 0
朾 0
朿 0
杀 0
杁 0
杂 0
权 0
杄 0
杅 0
杆 0
杇 0
杈 0
杉 0
杊 0
杋 0
杌 0
杍 0
李 0
杏 0
材 0
村 0
杒 0
杓 0
杔 0
杕 0
杖 0
杗 0
杘 0
杙 0
杛 0
杜 0
杝 0
杞 0
束 0
杠 0
条 0
杢 0
杣 0
杤 0
来 0
杦 0
杧 0
杨 0
杩 0
杪 0
杫 0
杬 0
杭 0
杮 0
杯 0
杰 0
東 0
杲 0
杳 0
杴 0
杵 0
杶 0
杷 0
杸 0
杹 0
杺 0
杻 0
杼 0
杽 0
松 0
板 0
枀 0
极 0
枂 0
枃 0
构 0
枅 0
枆 0
枇 0
枈 0
枉 0
枊 0
枋 0
枌 0
枍 0
枎 0
枏 0
析 0
枑 0
枒 0
枓 0
枔 0
枕 0
枖 0
林 0
枘 0
枙 0
枚 0
枛 0
果 0
枝 0
枞 0
枟 0
枠 0
枡 0
枢 0
枣 0
枤 0
枥 0
枦 0
枧 0
枨 0
枩 0
枪 0
枫 0
枬 0
枭 0
枮 0
枯 0
枰 0
枱 0
枲 0
枳 0
枴 0
枵 0
架 0
枷 0
枸 0
枹 0
枺 0
枻 0
枼 0
枽 0
枾 0
枿 0
柀 0
柁 0
柂 0
柃 0
柄 0
柅 0
柆 0
柇 0
柈 0
柉 0
柊 0
柋 0
柌 0
柍 0
柎 0
柏 0
某 0
柑 0
柒 0
染 0
柔 0
柕 0
柖 0
柗 0
柘 0
柙 0
柚 0
柛 0
柜 0
柝 0
柞 0
柟 0
柠 0
柡 0
柢 0
柣 0
柤 0
查 0
柦 0
柧 0
柨 0
柩 0
柪 0
柫 0
柬 0
柭 0
柮 0
柯 0
柰 0
柱 0
柲 0
柳 0
柴 0
柵 0
柶 0
柷 0
柸 0
柹 0
柺 0
査 0
柼 0
柽 0
柾 0
柿 0
栀 0
栁 0
栂 0
栃 0
栄 0
栅 0
栆 0
标 0
栈 0
栉 0
栊 0
栋 0
栌 0
栍 0
栎 0
栏 0
栐 0
树 0
栒 0
栓 0
栔 0
栕 0
栖 0
栗 0
栘 0
栙 0
栛 0
栜 0
栝 0
栞 0
栟 0
栠 0
校 0
栢 0
栣 0
栤 0
栥 0
栦 0
栧 0
栨 0
栩 0
株 0
栫 0
栬 0
栭 0
栮 0
栯 0
栰 0
栱 0
栲 0
栳 0
栴 0
栵 0
栶 0
样 0
核 0
根 0
栺 0
栻 0
格 0
栽 0
栾 0
栿 0
桀 0
桁 0
桂 0
桃 0
桄 0
桅 0
框 0
桇 0
案 0
桉 0
桊 0
桋 0
桌 0
桍 0
桎 0
桐 0
桑 0
桒 0
桓 0
桔 0
桕 0
桖 0
桗 0
桘 0
桙 0
桚 0
桛 0
桜 0
桝 0
桞 0
桟 0
桠 0
桡 0
桢 0
档 0
桤 0
桥 0
桦 0
桧 0
桨 0
桩 0
桪 0
桫 0
桬 0
桭 0
桮 0
桯 0
桰 0
桱 0
桲 0
桳 0
桴 0
桵 0
桶 0
桷 0
桸 0
桹 0
桻 0
桼 0
桽 0
桾 0
桿 0
梀 0
梁 0
梂 0
梃 0
梄 0
梅 0
梆 0
梇 0
梈 0
梉 0
梊 0
梋 0
梌 0
梍 0
梎 0
梏 0
梐 0
梑 0
梒 0
梓 0
梔 0
梕 0
梖 0
梗 0
梘 0
梙 0
梚 0
梛 0
梜 0
條 0
梞 0
梟 0
梠 0
梡 0
梢 0
梣 0
梤 0
梥 0
梦 0
梧 0
梨 0
梩 0
梪 0
梫 0
梭 0
梮 0
梯 0
械 0
梱 0
梲 0
梳 0
梴 0
梵 0
梶 0
梷 0
梸 0
梹 0
梺 0
梻 0
梼 0
梽 0
梾 0
梿 0
检 0
棁 0
棂 0
棃 0
棄 0
棅 0
棆 0
棇 0
棈 0
棉 0
棊 0
棋 0
棌 0
棍 0
棎 0
棏 0
棐 0
棑 0
棒 0
棓 0
棔 0
棕 0
棖 0
棗 0
棘 0
棙 0
棚 0
棛 0
棜 0
棝 0
棞 0
棟 0
棠 0
棡 0
棢 0
棣 0
棤 0
棥 0
棦 0
棧 0
棨 0
棩 0
棪 0
棫 0
棬 0
棭 0
森 0
棯 0
棰 0
棱 0
棲 0
棳 0
棴 0
棵 0
棶 0
棷 0
棸 0
棹 0
棺 0
棻 0
棼 0
棽 0
棾 0
棿 0
椀 0
椁 0
椂 0
椃 0
椄 0
椅 0
椆 0
椇 0
椈 0
椉 0
椊 0
椋 0
椌 0
植 0
椎 0
椏 0
椐 0
椑 0
椒 0
椓 0
椔 0
椕 0
椖 0
椗 0
椘 0
椙 0
椚 0
椛 0
検 0
椝 0
椞 0
椟 0
椠 0
椡 0
椢 0
椣 0
椤 0
椥 0
椦 0
椧 0
椨 0
椩 0
椪 0
椫 0
椬 0
椭 0
椮 0
椯 0
椰 0
椱 0
椲 0
椳 0
椴 0
椵 0
椶 0
椷 0
椸 0
椹 0
椺 0
椻 0
椼 0
椽 0
椾 0
椿 0
楀 0
楁 0
楂 0
楃 0
楄 0
楅 0
楆 0
楇 0
楈 0
楉 0
楊 0
楋 0
楌 0
楍 0
楎 0
楏 0
楐 0
楑 0
楒 0
楓 0
楔 0
楕 0
楖 0
楗 0
楘 0
楙 0
楚 0
楛 0
楜 0
楝 0
楞 0
楟 0
楠 0
楡 0
楢 0
楣 0
楤 0
楥 0
楦 0
楧 0
楨 0
楩 0
楪 0
楫 0
楬 0
業 0
楮 0
楯 0
楰 0
楱 0
楲 0
楳 0
楴 0
極 0
楶 0
楷 0
楸 0
楹 0
楺 0
楻 0
楼 0
楽 0
楾 0
楿 0
榀 0
榁 0
概 0
榃 0
榄 0
榅 0
榆 0
榇 0
榈 0
榉 0
榊 0
榋 0
榌 0
榍 0
榎 0
榏 0
榐 0
榑 0
榒 0
榓 0
榔 0
榕 0
榖 0
榗 0
榘 0
榙 0
榚 0
榛 0
榜 0
榝 0
榞 0
榟 0
榠 0
榡 0
榢 0
榣 0
榤 0
榥 0
榦 0
榧 0
榨 0
榩 0
榪 0
榫 0
榬 0
榭 0
榮 0
榯 0
榰 0
榱 0
榲 0
榳 0
榴 0
榵 0
榶 0
榷 0
榸 0
榹 0
榺 0
榻 0
榼 0
榽 0
榾 0
榿 0
槀 0
槁 0
槂 0
槃 0
槄 0
槅 0
槆 0
槇 0
槈 0
槉 0
槊 0
構 0
槌 0
槍 0
槎 0
槏 0
槐 0
槑 0
槒 0
槓 0
槔 0
槕 0
槖 0
槗 0
様 0
槙 0
槚 0
槛 0
槜 0
槝 0
槞 0
槟 0
槠 0
槡 0
槢 0
槣 0
槤 0
槥 0
槦 0
槧 0
槨 0
槩 0
槪 0
槫 0
槬 0
槭 0
槮 0
槯 0
槰 0
槱 0
槲 0
槳 0
槴 0
槵 0
槶 0
槷 0
槸 0
槹 0
槺 0
槻 0
槼 0
槽 0
槾 0
槿 0
樀 0
樁 0
樂 0
樃 0
樄 0
樅 0
樆 0
樇 0
樈 0
樉 0
樊 0
樋 0
樌 0
樍 0
樎 0
樏 0
樐 0
樑 0
樒 0
樓 0
樔 0
樕 0
樖 0
樗 0
樘 0
標 0
樚 0
樛 0
樜 0
樝 0
樞 0
樟 0
樠 0
模 0
樢 0
樣 0
樤 0
樥 0
樦 0
樧 0
樨 0
権 0
横 0
樫 0
樬 0
樭 0
樮 0
樯 0
樰 0
樱 0
樲 0
樴 0
樵 0
樶 0
樷 0
樸 0
樹 0
樺 0
樻 0
樼 0
樽 0
樾 0
樿 0
橀 0
橁 0
橂 0
橃 0
橄 0
橅 0
橆 0
橇 0
橈 0
橉 0
橋 0
橌 0
橍 0
橎 0
橏 0
橐 0
橑 0
橒 0
橓 0
橔 0
橕 0
橖 0
橗 0
橘 0
橙 0
橚 0
橛 0
橜 0
橝 0
橞 0
機 0
橠 0
橡 0
橢 0
橣 0
橤 0
橥 0
橦 0
橧 0
橨 0
橩 0
橪 0
橫 0
橬 0
橭 0
橮 0
橰 0
橱 0
橲 0
橳 0
橴 0
橵 0
橶 0
橷 0
橸 0
橹 0
橺 0
橻 0
橼 0
橽 0
橾 0
橿 0
檀 0
檁 0
檂 0
檃 0
檄 0
檅 0
檆 0
檇 0
檈 0
檉 0
檊 0
檋 0
檌 0
檍 0
檎 0
檏 0
檐 0
檑 0
檒 0
檓 0
檔 0
檕 0
檖 0
檗 0
檘 0
檙 0
檚 0
檛 0
檜 0
檝 0
檞 0
檟 0
檠 0
檡 0
檢 0
檣 0
檤 0
檥 0
檦 0
檧 0
檨 0
檩 0
檪 0
檫 0
檬 0
檮 0
檯 0
檰 0
檱 0
檲 0
檳 0
檴 0
檵 0
檶 0
檷 0
檸 0
檹 0
檺 0
檻 0
檼 0
檽 0
檾 0
檿 0
櫀 0
櫁 0
櫂 0
櫃 0
櫄 0
櫆 0
櫇 0
櫈 0
櫉 0
櫊 0
櫋 0
櫌 0
櫍 0
櫎 0
櫏 0
櫐 0
櫑 0
櫒 0
櫓 0
櫔 0
櫕 0
櫖 0
櫗 0
櫘 0
櫙 0
櫚 0
櫛 0
櫜 0
櫝 0
櫞 0
櫟 0
櫡 0
櫢 0
櫣 0
櫤 0
櫥 0
櫦 0
櫧 0
櫨 0
櫪 0
櫫 0
櫬 0
櫮 0
櫯 0
櫰 0
櫱 0
櫲 0
櫳 0
櫴 0
櫵 0
櫶 0
櫷 0
櫸 0
櫹 0
櫺 0
櫻 0
櫼 0
櫽 0
櫾 0
櫿 0
欀 0
欁 0
欂 0
欃 0
欄 0
欅 0
欆 0
欇 0
欈 0
欉 0
權 0
欋 0
欌 0
欎 0
欏 0
欐 0
欑 0
欒 0
欓 0
欔 0
欖 0
欗 0
欘 0
欙 0
欚 0
欛 0
欜 0
欝 0
欞 0
欟 0
欠 0
次 0
欢 0
欣 0
欤 0
欥 0
欦 0
欧 0
欨 0
欩 0
欪 0
欫 0
欬 0
欭 0
欮 0
欯 0
欰 0
欱 0
欲 0
欳 0
欴 0
欵 0
欶 0
欷 0
欸 0
欹 0
欺 0
欻 0
欼 0
欽 0
款 0
欿 0
歀 0
歁 0
歂 0
歃 0
歄 0
歅 0
歆 0
歇 0
歈 0
歉 0
歊 0
歋 0
歌 0
歍 0
歎 0
歏 0
歐 0
歑 0
歒 0
歓 0
歔 0
歕 0
歖 0
歗 0
歘 0
歙 0
歚 0
歛 0
歜 0
歞 0
歟 0
歠 0
歡 0
止 0
正 0
此 0
步 0
武 0
歧 0
歨 0
歩 0
歪 0
歫 0
歬 0
歭 0
歮 0
歯 0
歰 0
歱 0
歲 0
歳 0
歴 0
歵 0
歶 0
歷 0
歸 0
歹 0
歺 0
死 0
歼 0
歽 0
歾 0
歿 0
殀 0
殁 0
殂 0
殃 0
殄 0
殅 0
殆 0
殇 0
殈 0
殉 0
殊 0
残 0
殍 0
殎 0
殏 0
殐 0
殑 0
殒 0
殓 0
殔 0
殕 0
殖 0
殗 0
殘 0
殙 0
殚 0
殛 0
殜 0
殝 0
殞 0
殟 0
殠 0
殡 0
殢 0
殣 0
殤 0
殥 0
殦 0
殧 0
殨 0
殩 0
殪 0
殫 0
殬 0
殭 0
殮 0
殯 0
殰 0
殱 0
殲 0
殳 0
殴 0
段 0
殶 0
殷 0
殸 0
殹 0
殺 0
殻 0
殼 0
殽 0
殾 0
殿 0
毀 0
毁 0
毂 0
毃 0
毄 0
毅 0
毆 0
毇 0
毈 0
毉 0
毊 0
毋 0
毌 0
母 0
毎 0
每 0
毐 0
毑 0
毒 0
毓 0
比 0
毕 0
毖 0
毗 0
毘 0
毙 0
毚 0
毛 0
毜 0
毝 0
毞 0
毟 0
毠 0
毡 0
毢 0
毣 0
毤 0
毥 0
毦 0
毧 0
毨 0
毩 0
毪 0
毫 0
毬 0
毭 0
毮 0
毯 0
毰 0
毱 0
毲 0
毳 0
毴 0
毵 0
毶 0
毷 0
毸 0
毹 0
毺 0
毻 0
毼 0
毽 0
毾 0
毿 0
氀 0
氁 0
氂 0
氃 0
氄 0
氅 0
氆 0
氇 0
氈 0
氉 0
氊 0
氋 0
氌 0
氍 0
氎 0
氏 0
氐 0
民 0
氒 0
氓 0
气 0
氕 0
氖 0
気 0
氘 0
氙 0
氚 0
氛 0
氜 0
氝 0
氞 0
氟 0
氠 0
氡 0
氢 0
氣 0
氤 0
氥 0
氦 0
氧 0
氨 0
氩 0
氪 0
氫 0
氬 0
氮 0
氯 0
氰 0
氱 0
氲 0
氳 0
水 0
氵 0
氶 0
氷 0
永 0
氹 0
氺 0
氻 0
氼 0
氽 0
氾 0
氿 0
汀 0
汁 0
求 0
汃 0
汄 0
汅 0
汆 0
汇 0
汈 0
汉 0
汊 0
汋 0
汌 0
汍 0
汎 0
汏 0
汐 0
汑 0
汒 0
汓 0
汔 0
汕 0
汖 0
汗 0
汘 0
汙 0
汚 0
汛 0
汜 0
汝 0
汞 0
江 0
池 0
污 0
汢 0
汣 0
汤 0
汥 0
汦 0
汧 0
汨 0
汩 0
汪 0
汫 0
汬 0
汭 0
汮 0
汯 0
汰 0
汱 0
汲 0
汳 0
汴 0
汵 0
汶 0
汷 0
汸 0
汹 0
決 0
汻 0
汼 0
汽 0
汾 0
沀 0
沁 0
沂 0
沃 0
沄 0
沅 0
沆 0
沇 0
沈 0
沉 0
沊 0
沋 0
沌 0
沍 0
沎 0
沏 0
沐 0
沑 0
沒 0
沓 0
沔 0
沕 0
沖 0
沗 0
沘 0
沙 0
沚 0
沛 0
沜 0
沝 0
沞 0
沟 0
沠 0
没 0
沢 0
沣 0
沤 0
沥 0
沦 0
沧 0
沨 0
沩 0
沪 0
沫 0
沬 0
沭 0
沮 0
沯 0
沰 0
沱 0
沲 0
河 0
沴 0
沵 0
沶 0
沷 0
沸 0
油 0
沺 0
治 0
沼 0
沽 0
沾 0
沿 0
況 0
泂 0
泃 0
泄 0
泅 0
泆 0
泇 0
泈 0
泉 0
泊 0
泋 0
泌 0
泍 0
泎 0
泏 0
泐 0
泑 0
泒 0
泓 0
泔 0
法 0
泖 0
泗 0
泘 0
泙 0
泚 0
泛 0
泜 0
泝 0
泞 0
泟 0
泠 0
泡 0
波 0
泣 0
泤 0
泥 0
泦 0
泧 0
注 0
泩 0
泪 0
泫 0
泬 0
泭 0
泮 0
泯 0
泰 0
泱 0
泲 0
泳 0
泴 0
泵 0
泶 0
泷 0
泸 0
泹 0
泺 0
泻 0
泼 0
泽 0
泾 0
泿 0
洀 0
洁 0
洂 0
洃 0
洄 0
洅 0
洆 0
洇 0
洈 0
洉 0
洊 0
洋 0
洌 0
洍 0
洎 0
洏 0
洐 0
洑 0
洒 0
洓 0
洔 0
洕 0
洖 0
洗 0
洘 0
洙 0
洚 0
洛 0
洜 0
洝 0
洞 0
洟 0
洠 0
洡 0
洢 0
洣 0
洤 0
津 0
洦 0
洧 0
洨 0
洩 0
洪 0
洫 0
洬 0
洭 0
洮 0
洯 0
洰 0
洱 0
洲 0
洳 0
洴 0
洵 0
洶 0
洷 0
洸 0
洹 0
洺 0
活 0
洼 0
洽 0
派 0
洿 0
浀 0
流 0
浂 0
浃 0
浄 0
浅 0
浆 0
浇 0
浈 0
浉 0
浊 0
测 0
浌 0
浍 0
济 0
浏 0
浐 0
浑 0
浒 0
浓 0
浔 0
浕 0
浖 0
浗 0
浘 0
浙 0
浚 0
浛 0
浜 0
浞 0
浟 0
浠 0
浡 0
浢 0
浣 0
浤 0
浥 0
浦 0
浧 0
浩 0
浪 0
浫 0
浬 0
浭 0
浮 0
浯 0
浰 0
浱 0
浲 0
浳 0
浴 0
浵 0
浶 0
海 0
浸 0
浹 0
浺 0
浻 0
浼 0
浽 0
浾 0
浿 0
涀 0
涁 0
涂 0
涃 0
涄 0
涅 0
涆 0
涇 0
消 0
涉 0
涊 0
涋 0
涌 0
涍 0
涎 0
涏 0
涐 0
涑 0
涒 0
涓 0
涔 0
涕 0
涖 0
涗 0
涘 0
涙 0
涚 0
涛 0
涜 0
涝 0
涞 0
涟 0
涠 0
涡 0
涢 0
涣 0
涤 0
涥 0
润 0
涧 0
涨 0
涩 0
涪 0
涫 0
涬 0
涭 0
涮 0
涯 0
涰 0
涱 0
液 0
涳 0
涴 0
涵 0
涶 0
涷 0
涸 0
涹 0
涺 0
涻 0
涼 0
涽 0
涾 0
涿 0
淀 0
淁 0
淂 0
淃 0
淄 0
淅 0
淆 0
淇 0
淈 0
淉 0
淊 0
淋 0
淌 0
淍 0
淎 0
淏 0
淐 0
淑 0
淒 0
淓 0
淔 0
淕 0
淖 0
淗 0
淘 0
淙 0
淚 0
淛 0
淜 0
淝 0
淞 0
淟 0
淠 0
淡 0
淢 0
淤 0
淥 0
淦 0
淧 0
淨 0
淩 0
淪 0
淫 0
淬 0
淭 0
淮 0
淯 0
淰 0
深 0
淲 0
淳 0
淴 0
淵 0
淶 0
混 0
淸 0
淹 0
淺 0
添 0
淼 0
淽 0
淾 0
淿 0
渀 0
渁 0
渂 0
渃 0
渄 0
清 0
渆 0
渇 0
済 0
渉 0
渊 0
渋 0
渌 0
渍 0
渎 0
渏 0
渐 0
渑 0
渒 0
渓 0
渔 0
渕 0
渖 0
渗 0
渘 0
渙 0
渚 0
減 0
渜 0
渝 0
渞 0
渟 0
渠 0
渡 0
渢 0
渣 0
渤 0
渥 0
渦 0
渧 0
渨 0
温 0
渪 0
渫 0
測 0
渭 0
渮 0
港 0
渰 0
渱 0
渲 0
渳 0
渴 0
渵 0
渶 0
渷 0
游 0
渹 0
渺 0
渻 0
渼 0
渽 0
渾 0
渿 0
湀 0
湁 0
湂 0
湃 0
湄 0
湅 0
湆 0
湇 0
湈 0
湉 0
湊 0
湋 0
湌 0
湍 0
湎 0
湏 0
湐 0
湑 0
湒 0
湓 0
湔 0
湕 0
湖 0
湗 0
湘 0
湙 0
湚 0
湛 0
湜 0
湝 0
湞 0
湟 0
湠 0
湡 0
湢 0
湣 0
湤 0
湥 0
湦 0
湧 0
湨 0
湩 0
湪 0
湫 0
湬 0
湭 0
湮 0
湯 0
湰 0
湱 0
湲 0
湳 0
湴 0
湵 0
湶 0
湷 0
湸 0
湹 0
湺 0
湻 0
湼 0
湾 0
湿 0
満 0
溁 0
溂 0
溃 0
溄 0
溅 0
溆 0
溇 0
溈 0
溉 0
溊 0
溋 0
溌 0
溍 0
溎 0
溏 0
源 0
溑 0
溒 0
溓 0
溔 0
溕 0
準 0
溗 0
溘 0
溙 0
溚 0
溛 0
溜 0
溝 0
溞 0
溟 0
溠 0
溡 0
溢 0
溣 0
溤 0
溥 0
溦 0
溧 0
溨 0
溩 0
溪 0
溫 0
溭 0
溮 0
溯 0
溰 0
溱 0
溲 0
溳 0
溴 0
溵 0
溶 0
溷 0
溸 0
溹 0
溺 0
溻 0
溼 0
溽 0
溾 0
溿 0
滀 0
滁 0
滂 0
滃 0
滄 0
滅 0
滆 0
滇 0
滈 0
滉 0
滊 0
滋 0
滌 0
滍 0
滎 0
滏 0
滐 0
滑 0
滒 0
滓 0
滔 0
滕 0
滖 0
滗 0
滘 0
滙 0
滚 0
滛 0
滜 0
滝 0
滞 0
滟 0
滠 0
满 0
滢 0
滣 0
滤 0
滥 0
滦 0
滧 0
滨 0
滩 0
滪 0
滫 0
滬 0
滭 0
滮 0
滯 0
滰 0
滱 0
滲 0
滳 0
滴 0
滵 0
滶 0
滷 0
滸 0
滹 0
滺 0
滻 0
滼 0
滽 0
滾 0
滿 0
漀 0
漁 0
漂 0
漃 0
漄 0
漅 0
漆 0
漇 0
漈 0
漉 0
漊 0
漋 0
漌 0
漍 0
漎 0
漏 0
漐 0
漑 0
漒 0
漓 0
演 0
漕 0
漖 0
漘 0
漙 0
漚 0
漛 0
漝 0
漞 0
漟 0
漠 0
漡 0
漢 0
漣 0
漤 0
漥 0
漦 0
漧 0
漨 0
漩 0
漪 0
漫 0
漬 0
漭 0
漮 0
漯 0
漰 0
漱 0
漲 0
漳 0
漴 0
漵 0
漶 0
漷 0
漸 0
漹 0
漺 0
漻 0
漼 0
漽 0
漾 0
漿 0
潀 0
潁 0
潂 0
潃 0
潄 0
潅 0
潆 0
潇 0
潈 0
潉 0
潊 0
潋 0
潌 0
潍 0
潎 0
潏 0
潐 0
潑 0
潒 0
潓 0
潔 0
潕 0
潖 0
潗 0
潘 0
潙 0
潚 0
潛 0
潜 0
潝 0
潞 0
潟 0
潠 0
潡 0
潢 0
潣 0
潤 0
潥 0
潦 0
潧 0
潨 0
潩 0
潪 0
潫 0
潬 0
潭 0
潮 0
潯 0
潰 0
潱 0
潲 0
潴 0
潵 0
潶 0
潷 0
潸 0
潹 0
潺 0
潻 0
潼 0
潽 0
潾 0
潿 0
澀 0
澁 0
澂 0
澃 0
澄 0
澅 0
澆 0
澇 0
澈 0
澉 0
澊 0
澋 0
澌 0
澍 0
澎 0
澏 0
澐 0
澑 0
澒 0
澓 0
澔 0
澕 0
澖 0
澗 0
澘 0
澙 0
澚 0
澛 0
澜 0
澝 0
澞 0
澟 0
澠 0
澡 0
澢 0
澣 0
澤 0
澥 0
澦 0
澧 0
澨 0
澩 0
澪 0
澫 0
澬 0
澭 0
澮 0
澯 0
澰 0
澱 0
澲 0
澳 0
澴 0
澵 0
澶 0
澷 0
澸 0
澹 0
澺 0
澻 0
澼 0
澽 0
澾 0
澿 0
激 0
濁 0
濂 0
濃 0
濄 0
濅 0
濆 0
濇 0
濈 0
濉 0
濊 0
濋 0
濌 0
濍 0
濎 0
濏 0
濐 0
濑 0
濒 0
濓 0
濔 0
濕 0
濖 0
濗 0
濘 0
濙 0
濚 0
濛 0
濜 0
濝 0
濞 0
濟 0
濠 0
濡 0
濢 0
濣 0
濤 0
濥 0
濦 0
濨 0
濩 0
濪 0
濫 0
濬 0
濭 0
濮 0
濯 0
濰 0
濱 0
濲 0
濳 0
濴 0
濵 0
濶 0
濸 0
濹 0
濺 0
濻 0
濼 0
濽 0
濾 0
濿 0
瀀 0
瀁 0
瀂 0
瀃 0
瀄 0
瀅 0
瀆 0
瀇 0
瀈 0
瀉 0
瀊 0
瀋 0
瀌 0
瀍 0
瀎 0
瀏 0
瀐 0
瀑 0
瀒 0
瀓 0
瀔 0
瀕 0
瀖 0
瀗 0
瀘 0
瀙 0
瀚 0
瀛 0
瀜 0
瀝 0
瀞 0
瀟 0
瀠 0
瀡 0
瀢 0
瀣 0
瀤 0
瀥 0
瀦 0
瀧 0
瀨 0
瀪 0
瀫 0
瀬 0
瀭 0
瀮 0
瀯 0
瀰 0
瀱 0
瀲 0
瀳 0
瀴 0
瀵 0
瀶 0
瀷 0
瀸 0
瀹 0
瀺 0
瀻 0
瀼 0
瀽 0
瀾 0
瀿 0
灀 0
灁 0
灂 0
灃 0
灄 0
灅 0
灆 0
灇 0
灈 0
灉 0
灊 0
灋 0
灌 0
灎 0
灏 0
灐 0
灑 0
灒 0
灓 0
灔 0
灕 0
灖 0
灘 0
灙 0
灚 0
灛 0
灜 0
灝 0
灞 0
灟 0
灠 0
灡 0
灢 0
灣 0
灤 0
灥 0
灦 0
灧 0
灨 0
灩 0
灪 0
火 0
灬 0
灭 0
灮 0
灯 0
灰 0
灱 0
灲 0
灳 0
灴 0
灵 0
灶 0
灷 0
灸 0
灹 0
灺 0
灻 0
灼 0
災 0
灾 0
灿 0
炀 0
炁 0
炂 0
炃 0
炄 0
炅 0
炆 0
炇 0
炈 0
炉 0
炊 0
炋 0
炌 0
炎 0
炏 0
炐 0
炑 0
炒 0
炓 0
炔 0
炕 0
炖 0
炗 0
炘 0
炙 0
炚 0
炛 0
炜 0
炝 0
炞 0
炟 0
炠 0
炡 0
炢 0
炣 0
炤 0
炥 0
炦 0
炧 0
炨 0
炩 0
炪 0
炫 0
炬 0
炭 0
炮 0
炯 0
炰 0
炱 0
炲 0
炳 0
炴 0
炵 0
炶 0
炷 0
炸 0
点 0
為 0
炻 0
炼 0
炽 0
炾 0
炿 0
烀 0
烁 0
烂 0
烃 0
烄 0
烅 0
烆 0
烇 0
烈 0
烉 0
烊 0
烋 0
烌 0
烍 0
烎 0
烏 0
烐 0
烑 0
烒 0
烓 0
烔 0
烕 0
烖 0
烗 0
烘 0
烙 0
烚 0
烛 0
烜 0
烝 0
烞 0
烟 0
烠 0
烡 0
烢 0
烣 0
烤 0
烥 0
烦 0
烧 0
烨 0
烩 0
烪 0
烫 0
烬 0
热 0
烮 0
烯 0
烰 0
烱 0
烳 0
烴 0
烵 0
烶 0
烷 0
烸 0
烹 0
烺 0
烻 0
烼 0
烽 0
烿 0
焀 0
焁 0
焂 0
焃 0
焄 0
焅 0
焆 0
焇 0
焈 0
焉 0
焊 0
焋 0
焌 0
焍 0
焎 0
焏 0
焐 0
焑 0
焓 0
焔 0
焕 0
焖 0
焗 0
焘 0
焙 0
焚 0
焛 0
焜 0
焝 0
焞 0
焟 0
焠 0
無 0
焢 0
焣 0
焤 0
焥 0
焦 0
焧 0
焨 0
焩 0
焪 0
焫 0
焬 0
焭 0
焮 0
焯 0
焰 0
焱 0
焲 0
焳 0
焴 0
焵 0
然 0
焷 0
焸 0
焹 0
焺 0
焻 0
焼 0
焽 0
焾 0
焿 0
煀 0
煁 0
煂 0
煃 0
煄 0
煅 0
煆 0
煇 0
煈 0
煉 0
煊 0
煋 0
煌 0
煍 0
煎 0
煏 0
煐 0
煑 0
煒 0
煓 0
煔 0
煕 0
煖 0
煗 0
煘 0
煙 0
煚 0
煛 0
煜 0
煝 0
煞 0
煟 0
煠 0
煡 0
煢 0
煣 0
煤 0
煥 0
煦 0
照 0
煨 0
煩 0
煪 0
煫 0
煬 0
煭 0
煮 0
煯 0
煰 0
煱 0
煲 0
煳 0
煴 0
煵 0
煶 0
煷 0
煸 0
煹 0
煺 0
煻 0
煼 0
煽 0
煾 0
煿 0
熀 0
熁 0
熂 0
熃 0
熄 0
熅 0
熆 0
熇 0
熈 0
熉 0
熊 0
熋 0
熌 0
熎 0
熏 0
熐 0
熑 0
熒 0
熓 0
熔 0
熕 0
熖 0
熗 0
熘 0
熙 0
熚 0
熛 0
熜 0
熝 0
熞 0
熟 0
熠 0
熡 0
熢 0
熣 0
熤 0
熥 0
熦 0
熧 0
熨 0
熩 0
熪 0
熫 0
熬 0
熮 0
熯 0
熰 0
熱 0
熲 0
熳 0
熴 0
熵 0
熶 0
熷 0
熸 0
熹 0
熺 0
熻 0
熼 0
熽 0
熾 0
熿 0
燀 0
燁 0
燂 0
燃 0
燄 0
燅 0
燆 0
燇 0
燈 0
燉 0
燊 0
燋 0
燌 0
燍 0
燎 0
燏 0
燐 0
燑 0
燒 0
燓 0
燔 0
燕 0
燖 0
燗 0
燘 0
燙 0
燚 0
燛 0
燜 0
燝 0
燞 0
營 0
燠 0
燡 0
燢 0
燣 0
燤 0
燥 0
燦 0
燧 0
燨 0
燩 0
燪 0
燫 0
燬 0
燭 0
燮 0
燯 0
燰 0
燱 0
燲 0
燳 0
燴 0
燵 0
燶 0
燷 0
燸 0
燹 0
燺 0
燻 0
燼 0
燽 0
燾 0
燿 0
爀 0
爁 0
爂 0
爃 0
爄 0
爅 0
爆 0
爇 0
爈 0
爉 0
爊 0
爋 0
爌 0
爍 0
爎 0
爏 0
爐 0
爑 0
爒 0
爓 0
爔 0
爕 0
爖 0
爗 0
爘 0
爙 0
爚 0
爛 0
爜 0
爝 0
爞 0
爟 0
爠 0
爡 0
爢 0
爣 0
爤 0
爦 0
爧 0
爨 0
爩 0
爪 0
爫 0
爬 0
爭 0
爮 0
爯 0
爰 0
爱 0
爲 0
爳 0
爴 0
爵 0
父 0
爷 0
爸 0
爹 0
爺 0
爻 0
爼 0
爽 0
爾 0
爿 0
牀 0
牁 0
牂 0
牃 0
牄 0
牅 0
牆 0
片 0
版 0
牉 0
牊 0
牋 0
牌 0
牍 0
牎 0
牏 0
牐 0
牑 0
牒 0
牓 0
牔 0
牕 0
牖 0
牗 0
牘 0
牙 0
牚 0
牛 0
牜 0
牝 0
牞 0
牟 0
牠 0
牡 0
牢 0
牣 0
牤 0
牥 0
牦 0
牧 0
牨 0
物 0
牪 0
牫 0
牬 0
牭 0
牮 0
牯 0
牰 0
牱 0
牲 0
牳 0
牴 0
牵 0
牶 0
牷 0
牸 0
特 0
牺 0
牻 0
牼 0
牽 0
牾 0
牿 0
犀 0
犁 0
犂 0
犃 0
犄 0
犅 0
犆 0
犇 0
犈 0
犉 0
犊 0
犋 0
犌 0
犍 0
犎 0
犏 0
犐 0
犑 0
犒 0
犓 0
犔 0
犕 0
犖 0
犗 0
犘 0
犙 0
犚 0
犛 0
犜 0
犝 0
犟 0
犠 0
犡 0
犢 0
犣 0
犤 0
犥 0
犦 0
犧 0
犨 0
犩 0
犪 0
犫 0
犬 0
犭 0
犮 0
犯 0
犰 0
犱 0
犲 0
犳 0
犴 0
犵 0
状 0
犷 0
犸 0
犹 0
犺 0
犻 0
犼 0
犽 0
犾 0
犿 0
狀 0
狁 0
狂 0
狃 0
狄 0
狅 0
狆 0
狇 0
狈 0
狉 0
狊 0
狋 0
狌 0
狍 0
狎 0
狐 0
狑 0
狒 0
狓 0
狔 0
狕 0
狖 0
狗 0
狘 0
狙 0
狚 0
狛 0
狜 0
狝 0
狞 0
狟 0
狠 0
狡 0
狢 0
狣 0
狤 0
狥 0
狦 0
狧 0
狨 0
狩 0
狪 0
狫 0
独 0
狭 0
狮 0
狯 0
狰 0
狱 0
狲 0
狳 0
狴 0
狵 0
狶 0
狷 0
狸 0
狹 0
狺 0
狻 0
狼 0
狽 0
狾 0
狿 0
猀 0
猁 0
猂 0
猃 0
猄 0
猅 0
猆 0
猇 0
猈 0
猉 0
猊 0
猋 0
猍 0
猎 0
猐 0
猑 0
猒 0
猓 0
猔 0
猕 0
猖 0
猗 0
猘 0
猙 0
猛 0
猜 0
猝 0
猞 0
猟 0
猠 0
猡 0
猢 0
猣 0
猤 0
猥 0
猦 0
猧 0
猨 0
猩 0
猪 0
猫 0
猬 0
猭 0
献 0
猯 0
猰 0
猱 0
猲 0
猳 0
猴 0
猵 0
猶 0
猷 0
猸 0
猹 0
猺 0
猻 0
猼 0
猽 0
猾 0
猿 0
獀 0
獁 0
獂 0
獃 0
獄 0
獅 0
獆 0
獇 0
獈 0
獉 0
獋 0
獌 0
獍 0
獎 0
獏 0
獐 0
獑 0
獒 0
獓 0
獔 0
獕 0
獖 0
獗 0
獘 0
獙 0
獚 0
獛 0
獜 0
獝 0
獞 0
獟 0
獠 0
獡 0
獢 0
獣 0
獤 0
獥 0
獦 0
獧 0
獨 0
獩 0
獪 0
獫 0
獬 0
獭 0
獮 0
獯 0
獰 0
獱 0
獲 0
獳 0
獴 0
獵 0
獶 0
獷 0
獸 0
獹 0
獺 0
獻 0
獼 0
獽 0
獾 0
獿 0
玀 0
玁 0
玂 0
玃 0
玄 0
玅 0
玆 0
率 0
玈 0
玉 0
玊 0
王 0
玌 0
玍 0
玎 0
玏 0
玐 0
玑 0
玒 0
玓 0
玔 0
玕 0
玖 0
玗 0
玘 0
玙 0
玚 0
玛 0
玜 0
玝 0
玞 0
玟 0
玠 0
玡 0
玢 0
玣 0
玤 0
玥 0
玦 0
玧 0
玨 0
玩 0
玪 0
玫 0
玬 0
玭 0
玮 0
环 0
现 0
玱 0
玲 0
玳 0
玴 0
玵 0
玶 0
玷 0
玸 0
玹 0
玺 0
玻 0
玼 0
玽 0
玾 0
玿 0
珀 0
珁 0
珂 0
珃 0
珄 0
珅 0
珆 0
珇 0
珈 0
珉 0
珊 0
珋 0
珌 0
珍 0
珎 0
珏 0
珐 0
珑 0
珒 0
珓 0
珔 0
珕 0
珖 0
珗 0
珘 0
珙 0
珚 0
珛 0
珜 0
珝 0
珞 0
珟 0
珠 0
珡 0
珢 0
珣 0
珤 0
珥 0
珦 0
珧 0
珨 0
珩 0
珪 0
珫 0
班 0
珮 0
珯 0
珰 0
珱 0
珲 0
珳 0
珴 0
珵 0
珶 0
珷 0
珸 0
珹 0
珺 0
珻 0
珼 0
珽 0
現 0
珿 0
琀 0
琁 0
琂 0
球 0
琄 0
琅 0
理 0
琇 0
琈 0
琉 0
琊 0
琋 0
琌 0
琍 0
琎 0
琏 0
琐 0
琑 0
琒 0
琓 0
琔 0
琕 0
琖 0
琗 0
琘 0
琙 0
琚 0
琛 0
琜 0
琝 0
琞 0
琟 0
琠 0
琡 0
琢 0
琣 0
琤 0
琥 0
琦 0
琧 0
琨 0
琩 0
琪 0
琫 0
琬 0
琭 0
琮 0
琯 0
琰 0
琱 0
琲 0
琳 0
琴 0
琵 0
琶 0
琷 0
琸 0
琹 0
琺 0
琻 0
琼 0
琽 0
琾 0
琿 0
瑀 0
瑁 0
瑂 0
瑃 0
瑄 0
瑅 0
瑆 0
瑇 0
瑈 0
瑉 0
瑊 0
瑋 0
瑌 0
瑍 0
瑎 0
瑏 0
瑐 0
瑑 0
瑒 0
瑓 0
瑔 0
瑕 0
瑖 0
瑗 0
瑘 0
瑙 0
瑚 0
瑛 0
瑜 0
瑝 0
瑞 0
瑟 0
瑠 0
瑡 0
瑢 0
瑣 0
瑤 0
瑥 0
瑧 0
瑨 0
瑩 0
瑪 0
瑫 0
瑬 0
瑭 0
瑮 0
瑯 0
瑰 0
瑱 0
瑲 0
瑳 0
瑴 0
瑵 0
瑶 0
瑷 0
瑸 0
瑹 0
瑺 0
瑼 0
瑽 0
瑾 0
瑿 0
璀 0
璁 0
璂 0
璃 0
璄 0
璅 0
璆 0
璇 0
璈 0
璉 0
璊 0
璋 0
璌 0
璍 0
璎 0
璏 0
璐 0
璑 0
璒 0
璓 0
璔 0
璕 0
璖 0
璗 0
璘 0
璙 0
璚 0
璛 0
璜 0
璝 0
璞 0
璟 0
璠 0
璡 0
璢 0
璣 0
璤 0
璥 0
璦 0
璧 0
璨 0
璩 0
璪 0
璫 0
璬 0
璭 0
璮 0
璯 0
環 0
璱 0
璲 0
璳 0
璴 0
璵 0
璶 0
璷 0
璸 0
璹 0
璺 0
璻 0
璽 0
璿 0
瓀 0
瓁 0
瓂 0
瓃 0
瓄 0
瓅 0
瓆 0
瓇 0
瓈 0
瓉 0
瓊 0
瓋 0
瓌 0
瓍 0
瓎 0
瓏 0
瓐 0
瓑 0
瓒 0
瓓 0
瓔 0
瓕 0
瓖 0
瓗 0
瓘 0
瓙 0
瓚 0
瓛 0
瓜 0
瓝 0
瓞 0
瓟 0
瓠 0
瓡 0
瓢 0
瓣 0
瓤 0
瓥 0
瓦 0
瓧 0
瓨 0
瓩 0
瓪 0
瓫 0
瓬 0
瓭 0
瓮 0
瓯 0
瓰 0
瓱 0
瓲 0
瓳 0
瓴 0
瓵 0
瓶 0
瓷 0
瓸 0
瓹 0
瓺 0
瓻 0
瓼 0
瓽 0
瓾 0
瓿 0
甀 0
甁 0
甂 0
甃 0
甄 0
甅 0
甆 0
甇 0
甈 0
甉 0
甊 0
甋 0
甌 0
甍 0
甎 0
甏 0
甐 0
甑 0
甒 0
甓 0
甔 0
甕 0
甖 0
甗 0
甘 0
甙 0
甚 0
甛 0
甜 0
甝 0
甞 0
生 0
甠 0
甡 0
產 0
産 0
甤 0
甥 0
甦 0
甧 0
用 0
甩 0
甪 0
甫 0
甬 0
甭 0
甮 0
甯 0
田 0
由 0
甲 0
申 0
甴 0
电 0
甶 0
男 0
甸 0
甹 0
町 0
画 0
甼 0
甽 0
甾 0
甿 0
畀 0
畁 0
畂 0
畃 0
畄 0
畅 0
畆 0
畇 0
畈 0
畉 0
畊 0
畋 0
界 0
畍 0
畎 0
畏 0
畐 0
畑 0
畒 0
畓 0
畔 0
畕 0
畖 0
畗 0
畘 0
留 0
畚 0
畛 0
畜 0
畝 0
畞 0
畟 0
畠 0
畡 0
畢 0
畣 0
畤 0
略 0
畦 0
畧 0
畨 0
畩 0
番 0
畫 0
畬 0
畭 0
畮 0
畯 0
異 0
畱 0
畲 0
畳 0
畴 0
畵 0
當 0
畷 0
畸 0
畹 0
畺 0
畻 0
畼 0
畽 0
畾 0
畿 0
疀 0
疁 0
疂 0
疃 0
疄 0
疅 0
疆 0
疇 0
疈 0
疉 0
疊 0
疋 0
疌 0
疍 0
疎 0
疏 0
疐 0
疑 0
疒 0
疓 0
疔 0
疕 0
疖 0
疗 0
疘 0
疙 0
疚 0
疜 0
疝 0
疞 0
疟 0
疠 0
疡 0
疢 0
疣 0
疤 0
疥 0
疦 0
疧 0
疨 0
疩 0
疪 0
疫 0
疬 0
疭 0
疮 0
疯 0
疰 0
疱 0
疲 0
疳 0
疴 0
疵 0
疶 0
疷 0
疸 0
疹 0
疺 0
疻 0
疼 0
疽 0
疾 0
疿 0
痀 0
痁 0
痂 0
痃 0
痄 0
病 0
痆 0
症 0
痈 0
痉 0
痊 0
痋 0
痌 0
痍 0
痎 0
痏 0
痐 0
痑 0
痒 0
痓 0
痔 0
痕 0
痖 0
痗 0
痘 0
痙 0
痚 0
痛 0
痜 0
痝 0
痞 0
痟 0
痠 0
痡 0
痢 0
痣 0
痤 0
痥 0
痦 0
痧 0
痨 0
痩 0
痪 0
痫 0
痬 0
痭 0
痯 0
痰 0
痱 0
痲 0
痳 0
痴 0
痵 0
痶 0
痷 0
痸 0
痹 0
痺 0
痻 0
痼 0
痽 0
痾 0
痿 0
瘀 0
瘁 0
瘂 0
瘃 0
瘄 0
瘅 0
瘆 0
瘇 0
瘈 0
瘉 0
瘊 0
瘋 0
瘌 0
瘍 0
瘎 0
瘏 0
瘐 0
瘑 0
瘒 0
瘓 0
瘔 0
瘕 0
瘖 0
瘗 0
瘘 0
瘙 0
瘚 0
瘛 0
瘜 0
瘝 0
瘞 0
瘟 0
瘠 0
瘡 0
瘢 0
瘣 0
瘤 0
瘥 0
瘦 0
瘧 0
瘨 0
瘩 0
瘪 0
瘫 0
瘬 0
瘭 0
瘮 0
瘯 0
瘰 0
瘱 0
瘲 0
瘳 0
瘴 0
瘵 0
瘶 0
瘷 0
瘸 0
瘹 0
瘺 0
瘻 0
瘼 0
瘽 0
瘾 0
瘿 0
癀 0
癁 0
療 0
癃 0
癄 0
癅 0
癆 0
癇 0
癈 0
癉 0
癊 0
癋 0
癌 0
癍 0
癎 0
癏 0
癐 0
癑 0
癒 0
癓 0
癔 0
癕 0
癖 0
癗 0
癘 0
癙 0
癚 0
癛 0
癜 0
癝 0
癞 0
癟 0
癠 0
癡 0
癢 0
癣 0
癤 0
癥 0
癦 0
癧 0
癨 0
癩 0
癪 0
癫 0
癬 0
癭 0
癮 0
癯 0
癰 0
癱 0
癲 0
癳 0
癴 0
癵 0
癶 0
癷 0
癸 0
癹 0
発 0
登 0
發 0
白 0
百 0
癿 0
皀 0
皁 0
皂 0
皃 0
的 0
皅 0
皆 0
皇 0
皈 0
皉 0
皊 0
皋 0
皎 0
皏 0
皐 0
皑 0
皒 0
皓 0
皔 0
皕 0
皖 0
皗 0
皘 0
皙 0
皚 0
皛 0
皜 0
皝 0
皞 0
皠 0
皡 0
皢 0
皣 0
皤 0
皥 0
皦 0
皧 0
皪 0
皫 0
皬 0
皭 0
皮 0
皯 0
皰 0
皱 0
皲 0
皳 0
皴 0
皵 0
皶 0
皷 0
皸 0
皹 0
皺 0
皻 0
皼 0
皽 0
皾 0
皿 0
盀 0
盁 0
盂 0
盃 0
盄 0
盅 0
盆 0
盇 0
盈 0
盉 0
益 0
盋 0
盌 0
盍 0
盎 0
盏 0
盐 0
监 0
盒 0
盓 0
盔 0
盕 0
盖 0
盗 0
盘 0
盙 0
盚 0
盛 0
盜 0
盝 0
盞 0
盟 0
盠 0
盡 0
盢 0
監 0
盤 0
盥 0
盦 0
盧 0
盨 0
盩 0
盪 0
盫 0
盬 0
盭 0
目 0
盯 0
盰 0
盱 0
盲 0
盳 0
直 0
盵 0
盶 0
盷 0
相 0
盹 0
盺 0
盻 0
盼 0
盽 0
盾 0
盿 0
眀 0
省 0
眂 0
眃 0
眄 0
眅 0
眆 0
眇 0
眈 0
眉 0
眊 0
看 0
県 0
眍 0
眎 0
眏 0
眐 0
眑 0
眒 0
眓 0
眔 0
眕 0
眖 0
眗 0
眘 0
眙 0
眚 0
眛 0
眜 0
眝 0
眞 0
真 0
眠 0
眡 0
眢 0
眣 0
眤 0
眥 0
眦 0
眧 0
眨 0
眩 0
眪 0
眫 0
眬 0
眭 0
眮 0
眯 0
眰 0
眱 0
眲 0
眳 0
眴 0
眵 0
眶 0
眷 0
眸 0
眹 0
眺 0
眻 0
眼 0
眽 0
眾 0
着 0
睁 0
睂 0
睃 0
睄 0
睅 0
睆 0
睇 0
睈 0
睉 0
睊 0
睋 0
睌 0
睍 0
睎 0
睏 0
睐 0
睑 0
睒 0
睓 0
睔 0
睕 0
睖 0
睗 0
睘 0
睙 0
睚 0
睛 0
睜 0
睞 0
睟 0
睠 0
睡 0
睢 0
督 0
睤 0
睥 0
睦 0
睧 0
睨 0
睩 0
睪 0
睫 0
睬 0
睭 0
睮 0
睯 0
睰 0
睱 0
睲 0
睳 0
睴 0
睵 0
睶 0
睷 0
睸 0
睹 0
睺 0
睻 0
睼 0
睽 0
睾 0
睿 0
瞀 0
瞁 0
瞂 0
瞃 0
瞄 0
瞅 0
瞆 0
瞇 0
瞈 0
瞉 0
瞊 0
瞋 0
瞌 0
瞍 0
瞎 0
瞏 0
瞐 0
瞑 0
瞒 0
瞓 0
瞔 0
瞕 0
瞖 0
瞗 0
瞘 0
瞙 0
瞚 0
瞛 0
瞜 0
瞝 0
瞞 0
瞟 0
瞠 0
瞡 0
瞢 0
瞣 0
瞤 0
瞥 0
瞦 0
瞧 0
瞨 0
瞩 0
瞪 0
瞫 0
瞬 0
瞭 0
瞮 0
瞯 0
瞰 0
瞱 0
瞲 0
瞳 0
瞴 0
瞵 0
瞶 0
瞷 0
瞸 0
瞹 0
瞺 0
瞻 0
瞼 0
瞽 0
瞾 0
瞿 0
矀 0
矁 0
矂 0
矅 0
矆 0
矇 0
矈 0
矉 0
矊 0
矋 0
矌 0
矍 0
矎 0
矏 0
矐 0
矑 0
矒 0
矓 0
矔 0
矕 0
矖 0
矗 0
矘 0
矙 0
矚 0
矛 0
矜 0
矝 0
矞 0
矟 0
矠 0
矡 0
矢 0
矣 0
矤 0
知 0
矦 0
矧 0
矨 0
矩 0
矪 0
矫 0
矬 0
短 0
矮 0
矯 0
矰 0
矱 0
矲 0
石 0
矴 0
矵 0
矶 0
矷 0
矸 0
矹 0
矺 0
矻 0
矼 0
矽 0
矾 0
矿 0
砀 0
码 0
砂 0
砃 0
砄 0
砅 0
砆 0
砇 0
砈 0
砉 0
砊 0
砋 0
砌 0
砍 0
砎 0
砏 0
砐 0
砑 0
砒 0
砓 0
研 0
砕 0
砖 0
砗 0
砘 0
砙 0
砚 0
砛 0
砜 0
砝 0
砞 0
砟 0
砠 0
砡 0
砢 0
砣 0
砤 0
砥 0
砦 0
砧 0
砨 0
砩 0
砪 0
砫 0
砬 0
砭 0
砮 0
砯 0
砰 0
砱 0
砲 0
砳 0
破 0
砵 0
砶 0
砷 0
砸 0
砹 0
砺 0
砻 0
砼 0
砽 0
砾 0
砿 0
础 0
硁 0
硂 0
硃 0
硄 0
硅 0
硆 0
硇 0
硈 0
硉 0
硊 0
硋 0
硌 0
硍 0
硎 0
硏 0
硐 0
硑 0
硒 0
硓 0
硔 0
硕 0
硖 0
硗 0
硘 0
硙 0
硚 0
硛 0
硜 0
硝 0
硞 0
硟 0
硠 0
硡 0
硢 0
硣 0
硤 0
硥 0
硦 0
硧 0
硨 0
硩 0
硪 0
硫 0
硬 0
硭 0
确 0
硯 0
硰 0
硱 0
硲 0
硳 0
硴 0
硵 0
硶 0
硷 0
硸 0
硹 0
硺 0
硻 0
硼 0
硾 0
硿 0
碀 0
碁 0
碂 0
碃 0
碄 0
碅 0
碆 0
碇 0
碈 0
碉 0
碊 0
碋 0
碌 0
碍 0
碎 0
碏 0
碐 0
碑 0
碒 0
碓 0
碔 0
碕 0
碖 0
碗 0
碘 0
碙 0
碚 0
碛 0
碜 0
碝 0
碞 0
碟 0
碠 0
碡 0
碢 0
碣 0
碤 0
碥 0
碦 0
碧 0
碨 0
碩 0
碪 0
碫 0
碬 0
碭 0
碯 0
碰 0
碱 0
碲 0
碳 0
碴 0
碵 0
碶 0
碷 0
碸 0
碹 0
確 0
碻 0
碼 0
碽 0
碾 0
碿 0
磀 0
磁 0
磂 0
磃 0
磄 0
磅 0
磆 0
磇 0
磈 0
磉 0
磊 0
磋 0
磌 0
磍 0
磎 0
磏 0
磐 0
磑 0
磒 0
磓 0
磔 0
磕 0
磖 0
磗 0
磘 0
磙 0
磚 0
磜 0
磝 0
磞 0
磟 0
磠 0
磡 0
磢 0
磣 0
磤 0
磥 0
磦 0
磧 0
磨 0
磩 0
磪 0
磬 0
磭 0
磮 0
磯 0
磰 0
磱 0
磲 0
磳 0
磴 0
磵 0
磶 0
磷 0
磸 0
磹 0
磺 0
磻 0
磼 0
磽 0
磾 0
磿 0
礀 0
礁 0
礂 0
礃 0
礄 0
礅 0
礇 0
礈 0
礉 0
礊 0
礋 0
礌 0
礍 0
礎 0
礏 0
礐 0
礑 0
礒 0
礓 0
礔 0
礕 0
礖 0
礗 0
礘 0
礙 0
礚 0
礛 0
礜 0
礝 0
礞 0
礟 0
礠 0
礡 0
礢 0
礣 0
礤 0
礥 0
礦 0
礧 0
礨 0
礩 0
礪 0
礫 0
礬 0
礭 0
礮 0
礯 0
礰 0
礱 0
礲 0
礳 0
礴 0
礵 0
礶 0
礷 0
礸 0
礹 0
示 0
礻 0
礼 0
礽 0
社 0
礿 0
祀 0
祁 0
祂 0
祃 0
祄 0
祅 0
祆 0
祇 0
祈 0
祉 0
祊 0
祋 0
祌 0
祍 0
祎 0
祏 0
祐 0
祑 0
祒 0
祓 0
祔 0
祕 0
祖 0
祗 0
祘 0
祙 0
祚 0
祛 0
祜 0
祝 0
神 0
祟 0
祠 0
祡 0
祢 0
祣 0
祤 0
祥 0
祦 0
祧 0
票 0
祩 0
祪 0
祫 0
祬 0
祭 0
祮 0
祯 0
祰 0
祱 0
祲 0
祳 0
祴 0
祵 0
祶 0
祷 0
祸 0
祹 0
祺 0
祼 0
祽 0
祾 0
祿 0
禀 0
禁 0
禂 0
禃 0
禄 0
禅 0
禆 0
禇 0
禈 0
禉 0
禊 0
禋 0
禌 0
禍 0
禎 0
福 0
禐 0
禑 0
禒 0
禓 0
禔 0
禕 0
禖 0
禗 0
禘 0
禙 0
禚 0
禛 0
禜 0
禝 0
禞 0
禟 0
禠 0
禡 0
禢 0
禣 0
禤 0
禥 0
禦 0
禧 0
禨 0
禩 0
禪 0
禫 0
禬 0
禭 0
禮 0
禯 0
禰 0
禱 0
禲 0
禳 0
禴 0
禵 0
禶 0
禷 0
禸 0
禹 0
禺 0
离 0
禼 0
禽 0
禾 0
禿 0
秀 0
私 0
秂 0
秃 0
秄 0
秅 0
秆 0
秇 0
秈 0
秉 0
秊 0
秋 0
秌 0
种 0
秎 0
秏 0
秐 0
科 0
秒 0
秓 0
秔 0
秕 0
秖 0
秗 0
秘 0
秙 0
秚 0
秛 0
秜 0
秝 0
秞 0
租 0
秠 0
秡 0
秢 0
秣 0
秤 0
秥 0
秦 0
秧 0
秨 0
秩 0
秪 0
秫 0
秬 0
秭 0
秮 0
积 0
称 0
秱 0
秲 0
秳 0
秴 0
秵 0
秶 0
秷 0
秸 0
秹 0
秺 0
移 0
秼 0
秽 0
秾 0
秿 0
稀 0
稁 0
稂 0
稃 0
稄 0
稅 0
稆 0
稇 0
稈 0
稉 0
稊 0
程 0
稌 0
稍 0
税 0
稐 0
稑 0
稒 0
稓 0
稔 0
稕 0
稖 0
稗 0
稘 0
稙 0
稚 0
稛 0
稜 0
稝 0
稞 0
稟 0
稠 0
稡 0
稢 0
稣 0
稤 0
稥 0
稦 0
稧 0
稨 0
稩 0
稪 0
稫 0
稬 0
稭 0
種 0
稯 0
稰 0
稱 0
稲 0
稳 0
稴 0
稵 0
稶 0
稷 0
稸 0
稹 0
稺 0
稻 0
稼 0
稽 0
稾 0
稿 0
穀 0
穂 0
穃 0
穄 0
穅 0
穆 0
穇 0
穈 0
穉 0
穊 0
穋 0
穌 0
積 0
穎 0
穏 0
穐 0
穑 0
穒 0
穔 0
穕 0
穖 0
穗 0
穘 0
穙 0
穚 0
穛 0
穜 0
穝 0
穞 0
穟 0
穠 0
穡 0
穢 0
穣 0
穤 0
穥 0
穦 0
穧 0
穨 0
穩 0
穪 0
穫 0
穬 0
穮 0
穯 0
穰 0
穱 0
穲 0
穳 0
穴 0
穵 0
究 0
穷 0
穸 0
穹 0
空 0
穻 0
穼 0
穽 0
穾 0
穿 0
窀 0
突 0
窂 0
窃 0
窄 0
窅 0
窆 0
窇 0
窈 0
窉 0
窊 0
窋 0
窌 0
窍 0
窎 0
窏 0
窐 0
窑 0
窒 0
窓 0
窔 0
窕 0
窖 0
窗 0
窘 0
窙 0
窚 0
窛 0
窜 0
窝 0
窞 0
窟 0
窠 0
窡 0
窢 0
窣 0
窤 0
窥 0
窦 0
窧 0
窨 0
窩 0
窪 0
窫 0
窬 0
窭 0
窮 0
窯 0
窰 0
窱 0
窲 0
窳 0
窴 0
窵 0
窶 0
窷 0
窸 0
窹 0
窺 0
窻 0
窼 0
窽 0
窾 0
窿 0
竀 0
竁 0
竂 0
竃 0
竄 0
竅 0
竆 0
竇 0
竈 0
竉 0
竊 0
立 0
竌 0
竍 0
竎 0
竏 0
竐 0
竑 0
竒 0
竓 0
竔 0
竕 0
竖 0
竗 0
竘 0
站 0
竚 0
竛 0
竜 0
竝 0
竞 0
竟 0
章 0
竡 0
竢 0
竣 0
竤 0
童 0
竦 0
竧 0
竨 0
竩 0
竪 0
竫 0
竬 0
竭 0
竮 0
端 0
竰 0
竱 0
竲 0
竳 0
竴 0
竵 0
競 0
竷 0
竸 0
竹 0
竺 0
竻 0
竼 0
竽 0
竾 0
竿 0
笀 0
笁 0
笂 0
笃 0
笄 0
笅 0
笆 0
笇 0
笈 0
笉 0
笊 0
笋 0
笌 0
笍 0
笎 0
笏 0
笐 0
笑 0
笒 0
笓 0
笔 0
笕 0
笖 0
笗 0
笘 0
笙 0
笚 0
笛 0
笝 0
笞 0
笟 0
笠 0
笡 0
笢 0
笣 0
笤 0
笥 0
符 0
笧 0
笨 0
笩 0
笪 0
笫 0
第 0
笭 0
笮 0
笯 0
笰 0
笱 0
笲 0
笳 0
笴 0
笵 0
笶 0
笷 0
笸 0
笹 0
笺 0
笻 0
笼 0
笽 0
笾 0
笿 0
筀 0
筁 0
筂 0
筃 0
筄 0
筅 0
筆 0
筇 0
筈 0
等 0
筊 0
筋 0
筌 0
筍 0
筎 0
筏 0
筐 0
筑 0
筒 0
筓 0
答 0
筕 0
策 0
筗 0
筘 0
筙 0
筚 0
筛 0
筜 0
筝 0
筞 0
筟 0
筠 0
筡 0
筢 0
筣 0
筤 0
筥 0
筦 0
筧 0
筨 0
筩 0
筪 0
筫 0
筬 0
筭 0
筮 0
筯 0
筰 0
筱 0
筲 0
筳 0
筴 0
筵 0
筶 0
筷 0
筸 0
筹 0
筺 0
筻 0
筼 0
筽 0
签 0
筿 0
简 0
箁 0
箂 0
箃 0
箄 0
箅 0
箆 0
箇 0
箈 0
箉 0
箊 0
箋 0
箌 0
箍 0
箎 0
箏 0
箐 0
箑 0
箒 0
箓 0
箔 0
箕 0
箖 0
算 0
箘 0
箙 0
箚 0
箛 0
箜 0
箝 0
箞 0
箟 0
箠 0
管 0
箢 0
箣 0
箤 0
箥 0
箦 0
箧 0
箨 0
箩 0
箪 0
箫 0
箬 0
箭 0
箮 0
箯 0
箰 0
箱 0
箲 0
箳 0
箴 0
箶 0
箷 0
箸 0
箹 0
箺 0
箻 0
箼 0
箽 0
箾 0
箿 0
節 0
篁 0
篂 0
篃 0
範 0
篅 0
篆 0
篇 0
篈 0
築 0
篊 0
篋 0
篌 0
篎 0
篏 0
篐 0
篑 0
篒 0
篓 0
篔 0
篕 0
篖 0
篗 0
篘 0
篙 0
篚 0
篛 0
篜 0
篝 0
篞 0
篟 0
篠 0
篡 0
篢 0
篣 0
篤 0
篥 0
篦 0
篧 0
篨 0
篩 0
篪 0
篫 0
篬 0
篭 0
篮 0
篯 0
篰 0
篱 0
篲 0
篳 0
篴 0
篵 0
篶 0
篷 0
篸 0
篹 0
篺 0
篻 0
篼 0
篽 0
篾 0
篿 0
簀 0
簁 0
簃 0
簄 0
簆 0
簇 0
簈 0
簉 0
簊 0
簋 0
簌 0
簍 0
簎 0
簏 0
簐 0
簑 0
簒 0
簓 0
簔 0
簕 0
簖 0
簗 0
簘 0
簙 0
簚 0
簜 0
簝 0
簞 0
簟 0
簠 0
簡 0
簣 0
簤 0
簥 0
簦 0
簧 0
簨 0
簩 0
簪 0
簫 0
簬 0
簭 0
簮 0
簯 0
簰 0
簱 0
簲 0
簳 0
簴 0
簵 0
簶 0
簷 0
簸 0
簹 0
簺 0
簻 0
簼 0
簽 0
簾 0
簿 0
籀 0
籁 0
籂 0
籃 0
籆 0
籇 0
籈 0
籉 0
籊 0
籋 0
籌 0
籍 0
籎 0
籏 0
籐 0
籑 0
籒 0
籓 0
籔 0
籕 0
籖 0
籗 0
籘 0
籙 0
籚 0
籛 0
籜 0
籝 0
籞 0
籟 0
籠 0
籡 0
籢 0
籣 0
籤 0
籥 0
籦 0
籧 0
籨 0
籩 0
籪 0
籫 0
籬 0
籭 0
籮 0
籯 0
籰 0
籱 0
籲 0
米 0
籴 0
籵 0
籶 0
籷 0
籸 0
籹 0
籺 0
类 0
籼 0
籽 0
籾 0
籿 0
粀 0
粁 0
粂 0
粃 0
粄 0
粅 0
粆 0
粇 0
粈 0
粉 0
粊 0
粋 0
粌 0
粍 0
粎 0
粏 0
粐 0
粑 0
粒 0
粓 0
粔 0
粕 0
粖 0
粗 0
粘 0
粙 0
粚 0
粛 0
粜 0
粝 0
粞 0
粟 0
粠 0
粡 0
粢 0
粣 0
粤 0
粥 0
粦 0
粧 0
粨 0
粩 0
粪 0
粫 0
粬 0
粭 0
粮 0
粯 0
粰 0
粱 0
粲 0
粳 0
粴 0
粵 0
粶 0
粷 0
粸 0
粹 0
粺 0
粻 0
粼 0
粽 0
精 0
粿 0
糀 0
糁 0
糂 0
糃 0
糄 0
糅 0
糆 0
糇 0
糈 0
糉 0
糊 0
糋 0
糌 0
糍 0
糎 0
糏 0
糑 0
糒 0
糓 0
糔 0
糕 0
糖 0
糗 0
糘 0
糙 0
糚 0
糛 0
糜 0
糝 0
糞 0
糟 0
糠 0
糡 0
糢 0
糣 0
糥 0
糦 0
糧 0
糨 0
糪 0
糫 0
糬 0
糭 0
糮 0
糯 0
糰 0
糱 0
糲 0
糳 0
糴 0
糵 0
糶 0
糷 0
糸 0
糹 0
糺 0
系 0
糼 0
糽 0
糾 0
糿 0
紀 0
紁 0
紂 0
紃 0
約 0
紅 0
紆 0
紇 0
紈 0
紉 0
紊 0
紋 0
紌 0
納 0
紎 0
紏 0
紐 0
紑 0
紒 0
紓 0
純 0
紕 0
紖 0
紗 0
紘 0
紙 0
級 0
紛 0
紜 0
紝 0
紞 0
紟 0
素 0
紡 0
索 0
紣 0
紤 0
紥 0
紦 0
紧 0
紨 0
紩 0
紪 0
紫 0
紬 0
紭 0
紮 0
累 0
細 0
紱 0
紲 0
紳 0
紴 0
紵 0
紶 0
紷 0
紸 0
紹 0
紺 0
紻 0
紼 0
紽 0
紾 0
紿 0
絀 0
絁 0
終 0
絃 0
組 0
絅 0
絆 0
絇 0
絈 0
絉 0
絊 0
絋 0
経 0
絍 0
絎 0
絏 0
結 0
絑 0
絒 0
絓 0
絔 0
絕 0
絖 0
絗 0
絘 0
絙 0
絚 0
絛 0
絜 0
絝 0
絞 0
絟 0
絠 0
絡 0
絢 0
絣 0
絤 0
給 0
絧 0
絨 0
絩 0
絪 0
絫 0
絬 0
絭 0
絮 0
絯 0
絰 0
統 0
絲 0
絳 0
絴 0
絵 0
絶 0
絷 0
絸 0
絹 0
絺 0
絻 0
絼 0
絽 0
絾 0
絿 0
綀 0
綁 0
綂 0
綃 0
綄 0
綅 0
綆 0
綈 0
綉 0
綊 0
綋 0
綌 0
綍 0
綎 0
綏 0
綐 0
綑 0
綒 0
經 0
綔 0
綕 0
綖 0
綗 0
綘 0
継 0
続 0
綛 0
綜 0
綝 0
綞 0
綟 0
綠 0
綡 0
綢 0
綣 0
綤 0
綥 0
綦 0
綧 0
綨 0
綩 0
綪 0
綫 0
綬 0
維 0
綮 0
綯 0
綰 0
綱 0
網 0
綳 0
綴 0
綵 0
綶 0
綷 0
綸 0
綹 0
綺 0
綻 0
綼 0
綽 0
綾 0
綿 0
緁 0
緂 0
緃 0
緄 0
緅 0
緆 0
緇 0
緈 0
緉 0
緊 0
緋 0
緌 0
緍 0
緎 0
総 0
緐 0
緑 0
緒 0
緓 0
緕 0
緖 0
緗 0
緘 0
緙 0
線 0
緛 0
緜 0
緝 0
緞 0
緟 0
締 0
緡 0
緢 0
緣 0
緤 0
緥 0
緦 0
緧 0
編 0
緩 0
緪 0
緫 0
緬 0
緭 0
緯 0
緰 0
緱 0
緲 0
緳 0
練 0
緵 0
緶 0
緷 0
緹 0
緺 0
緻 0
緼 0
緽 0
緾 0
緿 0
縀 0
縁 0
縂 0
縃 0
縄 0
縅 0
縆 0
縇 0
縈 0
縉 0
縊 0
縋 0
縌 0
縏 0
縐 0
縑 0
縓 0
縔 0
縕 0
縖 0
縗 0
縘 0
縙 0
縚 0
縛 0
縜 0
縝 0
縞 0
縟 0
縠 0
縡 0
縢 0
縣 0
縤 0
縥 0
縦 0
縧 0
縨 0
縩 0
縪 0
縫 0
縭 0
縮 0
縯 0
縰 0
縱 0
縲 0
縳 0
縴 0
縵 0
縶 0
縷 0
縸 0
縹 0
縺 0
縻 0
縼 0
總 0
績 0
縿 0
繀 0
繁 0
繃 0
繄 0
繅 0
繆 0
繇 0
繈 0
繉 0
繊 0
繋 0
繌 0
繍 0
繎 0
繐 0
繑 0
繒 0
繓 0
織 0
繕 0
繖 0
繗 0
繘 0
繙 0
繚 0
繛 0
繜 0
繝 0
繞 0
繟 0
繠 0
繡 0
繢 0
繣 0
繤 0
繥 0
繦 0
繧 0
繨 0
繩 0
繪 0
繫 0
繬 0
繭 0
繮 0
繯 0
繰 0
繱 0
繲 0
繳 0
繴 0
繵 0
繶 0
繷 0
繸 0
繹 0
繺 0
繻 0
繼 0
繽 0
繾 0
繿 0
纀 0
纁 0
纂 0
纃 0
纄 0
纅 0
纆 0
纇 0
纈 0
纉 0
纊 0
纋 0
續 0
纍 0
纎 0
纏 0
纐 0
纑 0
纒 0
纓 0
纔 0
纕 0
纖 0
纘 0
纙 0
纚 0
纛 0
纜 0
纝 0
纞 0
纟 0
纠 0
纡 0
红 0
纣 0
纤 0
纥 0
约 0
级 0
纨 0
纩 0
纪 0
纫 0
纬 0
纭 0
纮 0
纯 0
纰 0
纱 0
纲 0
纳 0
纴 0
纵 0
纶 0
纷 0
纸 0
纹 0
纺 0
纻 0
纼 0
纽 0
纾 0
线 0
绀 0
绁 0
绂 0
练 0
组 0
绅 0
细 0
织 0
终 0
绉 0
绊 0
绋 0
绌 0
绍 0
绎 0
经 0
绐 0
绑 0
绒 0
结 0
绔 0
绕 0
绖 0
绗 0
绘 0
给 0
绚 0
绛 0
络 0
绝 0
绞 0
统 0
绠 0
绡 0
绢 0
绣 0
绤 0
绥 0
绦 0
继 0
绨 0
绩 0
绪 0
绫 0
绬 0
续 0
绮 0
绯 0
绰 0
绱 0
绲 0
绳 0
维 0
绵 0
绶 0
绷 0
绸 0
绹 0
绺 0
绻 0
综 0
绽 0
绾 0
绿 0
缀 0
缁 0
缂 0
缃 0
缄 0
缅 0
缆 0
缇 0
缈 0
缉 0
缊 0
缋 0
缌 0
缍 0
缎 0
缏 0
缐 0
缑 0
缒 0
缓 0
缔 0
缕 0
编 0
缗 0
缘 0
缙 0
缚 0
缛 0
缜 0
缝 0
缞 0
缟 0
缠 0
缡 0
缢 0
缣 0
缤 0
缥 0
缦 0
缧 0
缨 0
缩 0
缪 0
缫 0
缬 0
缭 0
缮 0
缯 0
缰 0
缱 0
缲 0
缳 0
缴 0
缵 0
缶 0
缷 0
缸 0
缹 0
缺 0
缻 0
缼 0
缽 0
缾 0
缿 0
罀 0
罁 0
罂 0
罃 0
罄 0
罅 0
罇 0
罈 0
罉 0
罊 0
罋 0
罌 0
罍 0
罎 0
罏 0
罐 0
网 0
罒 0
罓 0
罔 0
罕 0
罖 0
罗 0
罘 0
罙 0
罚 0
罛 0
罜 0
罝 0
罞 0
罟 0
罠 0
罡 0
罢 0
罣 0
罥 0
罦 0
罧 0
罨 0
罩 0
罪 0
罫 0
罬 0
罭 0
置 0
罯 0
罰 0
罱 0
署 0
罳 0
罴 0
罵 0
罶 0
罷 0
罸 0
罹 0
罺 0
罻 0
罼 0
罽 0
罾 0
罿 0
羀 0
羁 0
羂 0
羃 0
羄 0
羅 0
羆 0
羇 0
羈 0
羉 0
羊 0
羋 0
羌 0
羍 0
美 0
羏 0
羐 0
羑 0
羒 0
羓 0
羔 0
羕 0
羖 0
羗 0
羘 0
羙 0
羚 0
羛 0
羜 0
羝 0
羞 0
羟 0
羠 0
羡 0
羢 0
羣 0
群 0
羥 0
羦 0
羧 0
羨 0
義 0
羪 0
羫 0
羬 0
羭 0
羮 0
羯 0
羰 0
羱 0
羲 0
羳 0
羴 0
羵 0
羶 0
羷 0
羸 0
羹 0
羺 0
羻 0
羼 0
羽 0
羾 0
羿 0
翀 0
翁 0
翂 0
翃 0
翄 0
翅 0
翆 0
翇 0
翈 0
翊 0
翋 0
翌 0
翍 0
翎 0
翏 0
翐 0
翑 0
習 0
翓 0
翔 0
翕 0
翖 0
翗 0
翘 0
翙 0
翚 0
翛 0
翜 0
翝 0
翞 0
翟 0
翠 0
翡 0
翢 0
翣 0
翤 0
翥 0
翦 0
翧 0
翨 0
翩 0
翪 0
翫 0
翬 0
翭 0
翮 0
翯 0
翰 0
翱 0
翲 0
翳 0
翴 0
翵 0
翶 0
翷 0
翸 0
翹 0
翺 0
翻 0
翼 0
翽 0
翾 0
翿 0
耀 0
老 0
耂 0
考 0
耄 0
者 0
耆 0
耇 0
耈 0
耉 0
耊 0
耋 0
而 0
耍 0
耎 0
耏 0
耐 0
耑 0
耒 0
耓 0
耔 0
耕 0
耖 0
耗 0
耘 0
耙 0
耚 0
耛 0
耜 0
耝 0
耞 0
耟 0
耠 0
耡 0
耢 0
耣 0
耤 0
耥 0
耦 0
耧 0
耨 0
耩 0
耪 0
耫 0
耬 0
耭 0
耮 0
耯 0
耰 0
耱 0
耲 0
耳 0
耴 0
耵 0
耶 0
耷 0
耸 0
耹 0
耺 0
耻 0
耼 0
耽 0
耾 0
耿 0
聁 0
聂 0
聃 0
聄 0
聅 0
聆 0
聇 0
聈 0
聉 0
聊 0
聋 0
职 0
聍 0
聎 0
聏 0
聐 0
聑 0
聒 0
聓 0
联 0
聕 0
聖 0
聗 0
聘 0
聚 0
聛 0
聜 0
聝 0
聞 0
聟 0
聠 0
聡 0
聢 0
聣 0
聤 0
聥 0
聦 0
聧 0
聨 0
聩 0
聪 0
聫 0
聬 0
聭 0
聮 0
聯 0
聰 0
聱 0
聲 0
聳 0
聴 0
聵 0
聶 0
職 0
聸 0
聹 0
聻 0
聼 0
聽 0
聾 0
聿 0
肀 0
肁 0
肂 0
肃 0
肄 0
肅 0
肆 0
肇 0
肈 0
肉 0
肊 0
肋 0
肌 0
肍 0
肎 0
肏 0
肐 0
肑 0
肒 0
肓 0
肔 0
肕 0
肖 0
肗 0
肘 0
肙 0
肚 0
肛 0
肜 0
肝 0
肞 0
肟 0
肠 0
股 0
肢 0
肣 0
肤 0
肥 0
肦 0
肧 0
肨 0
肩 0
肪 0
肫 0
肬 0
肭 0
肮 0
肯 0
肰 0
肱 0
育 0
肳 0
肴 0
肵 0
肶 0
肷 0
肸 0
肹 0
肺 0
肻 0
肼 0
肽 0
肾 0
肿 0
胀 0
胁 0
胂 0
胃 0
胄 0
胅 0
胆 0
胇 0
胈 0
胉 0
胊 0
胋 0
背 0
胍 0
胎 0
胏 0
胐 0
胑 0
胒 0
胓 0
胔 0
胕 0
胖 0
胗 0
胘 0
胙 0
胚 0
胛 0
胜 0
胝 0
胞 0
胟 0
胠 0
胡 0
胢 0
胣 0
胤 0
胥 0
胦 0
胧 0
胨 0
胩 0
胪 0
胫 0
胬 0
胭 0
胮 0
胯 0
胰 0
胱 0
胲 0
胳 0
胴 0
胵 0
胶 0
胷 0
胸 0
胹 0
胺 0
胻 0
胼 0
能 0
胾 0
胿 0
脀 0
脁 0
脂 0
脃 0
脄 0
脅 0
脆 0
脇 0
脈 0
脉 0
脊 0
脋 0
脌 0
脍 0
脎 0
脏 0
脐 0
脑 0
脒 0
脓 0
脔 0
脕 0
脖 0
脗 0
脘 0
脙 0
脚 0
脛 0
脜 0
脝 0
脞 0
脟 0
脠 0
脡 0
脢 0
脣 0
脤 0
脥 0
脦 0
脧 0
脨 0
脩 0
脪 0
脫 0
脬 0
脭 0
脮 0
脯 0
脰 0
脱 0
脲 0
脳 0
脵 0
脶 0
脷 0
脸 0
脹 0
脺 0
脻 0
脼 0
脽 0
脾 0
脿 0
腀 0
腁 0
腂 0
腃 0
腄 0
腅 0
腆 0
腇 0
腈 0
腉 0
腊 0
腋 0
腌 0
腍 0
腎 0
腏 0
腐 0
腑 0
腒 0
腓 0
腔 0
腕 0
腖 0
腗 0
腘 0
腙 0
腚 0
腛 0
腜 0
腝 0
腞 0
腟 0
腠 0
腡 0
腢 0
腣 0
腤 0
腥 0
腦 0
腧 0
腨 0
腩 0
腫 0
腬 0
腭 0
腮 0
腯 0
腰 0
腱 0
腲 0
腳 0
腴 0
腵 0
腶 0
腷 0
腸 0
腹 0
腺 0
腻 0
腼 0
腽 0
腾 0
腿 0
膀 0
膁 0
膂 0
膃 0
膄 0
膅 0
膆 0
膇 0
膈 0
膉 0
膊 0
膋 0
膌 0
膍 0
膎 0
膏 0
膐 0
膑 0
膒 0
膓 0
膔 0
膕 0
膖 0
膗 0
膘 0
膙 0
膚 0
膛 0
膜 0
膝 0
膞 0
膟 0
膠 0
膡 0
膢 0
膣 0
膤 0
膥 0
膦 0
膧 0
膨 0
膩 0
膪 0
膫 0
膬 0
膭 0
膮 0
膯 0
膰 0
膱 0
膲 0
膳 0
膴 0
膵 0
膶 0
膷 0
膸 0
膹 0
膺 0
膻 0
膼 0
膽 0
膾 0
膿 0
臀 0
臁 0
臂 0
臃 0
臄 0
臅 0
臆 0
臇 0
臈 0
臉 0
臊 0
臋 0
臌 0
臍 0
臎 0
臏 0
臐 0
臑 0
臒 0
臓 0
臔 0
臕 0
臖 0
臗 0
臘 0
臙 0
臚 0
臛 0
臜 0
臝 0
臞 0
臟 0
臠 0
臡 0
臢 0
臣 0
臤 0
臥 0
臦 0
臧 0
臨 0
臩 0
自 0
臫 0
臬 0
臭 0
臮 0
臯 0
臱 0
臲 0
至 0
致 0
臵 0
臶 0
臷 0
臸 0
臹 0
臺 0
臻 0
臼 0
臽 0
臾 0
臿 0
舀 0
舁 0
舂 0
舃 0
舄 0
舅 0
舆 0
與 0
興 0
舉 0
舊 0
舋 0
舌 0
舍 0
舎 0
舏 0
舐 0
舑 0
舒 0
舓 0
舔 0
舕 0
舖 0
舗 0
舘 0
舙 0
舚 0
舛 0
舜 0
舝 0
舞 0
舟 0
舠 0
舡 0
舢 0
舣 0
舤 0
舥 0
舦 0
舧 0
舨 0
舩 0
航 0
舫 0
般 0
舭 0
舮 0
舯 0
舰 0
舱 0
舲 0
舳 0
舴 0
舵 0
舶 0
舷 0
舸 0
船 0
舺 0
舻 0
舼 0
舽 0
舾 0
舿 0
艀 0
艁 0
艂 0
艃 0
艄 0
艅 0
艆 0
艇 0
艈 0
艉 0
艊 0
艋 0
艌 0
艍 0
艎 0
艏 0
艐 0
艑 0
艒 0
艓 0
艔 0
艕 0
艖 0
艗 0
艘 0
艙 0
艚 0
艛 0
艜 0
艝 0
艞 0
艟 0
艠 0
艡 0
艢 0
艣 0
艤 0
艥 0
艦 0
艨 0
艩 0
艪 0
艫 0
艬 0
艭 0
艮 0
良 0
艰 0
艱 0
色 0
艳 0
艴 0
艵 0
艶 0
艷 0
艸 0
艹 0
艺 0
艻 0
艼 0
艽 0
艾 0
艿 0
芀 0
芁 0
节 0
芃 0
芄 0
芅 0
芆 0
芇 0
芈 0
芉 0
芊 0
芋 0
芌 0
芍 0
芎 0
芏 0
芐 0
芑 0
芒 0
芓 0
芔 0
芕 0
芖 0
芗 0
芘 0
芙 0
芚 0
芛 0
芜 0
芝 0
芞 0
芟 0
芠 0
芡 0
芢 0
芣 0
芤 0
芥 0
芦 0
芧 0
芨 0
芩 0
芪 0
芫 0
芬 0
芭 0
芮 0
芯 0
芰 0
花 0
芲 0
芳 0
芴 0
芵 0
芶 0
芷 0
芸 0
芹 0
芺 0
芻 0
芼 0
芽 0
芾 0
芿 0
苀 0
苁 0
苂 0
苃 0
苄 0
苅 0
苆 0
苇 0
苈 0
苉 0
苊 0
苋 0
苌 0
苍 0
苎 0
苏 0
苐 0
苑 0
苒 0
苓 0
苔 0
苕 0
苖 0
苗 0
苘 0
苙 0
苚 0
苛 0
苜 0
苝 0
苞 0
苟 0
苠 0
苡 0
苢 0
苣 0
苤 0
若 0
苦 0
苧 0
苨 0
苩 0
苪 0
苫 0
苬 0
苭 0
苮 0
苯 0
苰 0
英 0
苲 0
苳 0
苴 0
苵 0
苶 0
苷 0
苸 0
苹 0
苺 0
苻 0
苼 0
苽 0
苾 0
苿 0
茀 0
茁 0
茂 0
范 0
茄 0
茅 0
茆 0
茇 0
茈 0
茉 0
茊 0
茋 0
茌 0
茍 0
茎 0
茏 0
茐 0
茑 0
茒 0
茓 0
茔 0
茕 0
茖 0
茗 0
茘 0
茙 0
茚 0
茛 0
茜 0
茝 0
茞 0
茟 0
茠 0
茡 0
茢 0
茣 0
茤 0
茥 0
茦 0
茧 0
茨 0
茩 0
茪 0
茫 0
茬 0
茭 0
茮 0
茯 0
茱 0
茲 0
茳 0
茴 0
茵 0
茶 0
茷 0
茸 0
茹 0
茺 0
茻 0
茼 0
茽 0
茾 0
茿 0
荀 0
荁 0
荂 0
荃 0
荄 0
荅 0
荆 0
荇 0
荈 0
草 0
荊 0
荋 0
荌 0
荍 0
荎 0
荏 0
荐 0
荑 0
荒 0
荓 0
荔 0
荕 0
荖 0
荗 0
荘 0
荙 0
荚 0
荛 0
荜 0
荝 0
荞 0
荟 0
荠 0
荡 0
荢 0
荣 0
荤 0
荥 0
荦 0
荧 0
荨 0
荩 0
荪 0
荫 0
荬 0
荭 0
荮 0
药 0
荰 0
荱 0
荲 0
荳 0
荴 0
荵 0
荶 0
荷 0
荸 0
荹 0
荺 0
荻 0
荼 0
荽 0
荾 0
荿 0
莀 0
莁 0
莂 0
莃 0
莄 0
莅 0
莆 0
莇 0
莈 0
莉 0
莊 0
莋 0
莌 0
莍 0
莎 0
莏 0
莐 0
莑 0
莒 0
莓 0
莔 0
莕 0
莖 0
莗 0
莘 0
莙 0
莚 0
莛 0
莜 0
莝 0
莞 0
莟 0
莠 0
莡 0
莢 0
莣 0
莤 0
莥 0
莦 0
莧 0
莨 0
莩 0
莪 0
莫 0
莬 0
莭 0
莮 0
莯 0
莰 0
莱 0
莲 0
莳 0
莴 0
莵 0
莶 0
获 0
莸 0
莹 0
莺 0
莻 0
莼 0
莽 0
莾 0
莿 0
菀 0
菁 0
菂 0
菃 0
菄 0
菅 0
菆 0
菇 0
菈 0
菉 0
菊 0
菋 0
菌 0
菍 0
菎 0
菏 0
菐 0
菑 0
菒 0
菓 0
菔 0
菕 0
菖 0
菗 0
菘 0
菙 0
菚 0
菛 0
菜 0
菝 0
菞 0
菟 0
菠 0
菡 0
菢 0
菣 0
菤 0
菥 0
菦 0
菧 0
菨 0
菩 0
菪 0
菫 0
菬 0
菭 0
菮 0
華 0
菰 0
菱 0
菲 0
菳 0
菴 0
菵 0
菶 0
菷 0
菸 0
菹 0
菺 0
菻 0
菼 0
菽 0
菾 0
菿 0
萀 0
萁 0
萂 0
萃 0
萄 0
萅 0
萆 0
萇 0
萈 0
萉 0
萊 0
萋 0
萌 0
萍 0
萎 0
萏 0
萐 0
萑 0
萒 0
萓 0
萔 0
萕 0
萖 0
萘 0
萙 0
萚 0
萛 0
萜 0
萝 0
萞 0
萟 0
萠 0
萡 0
萢 0
萣 0
萤 0
营 0
萦 0
萧 0
萨 0
萩 0
萪 0
萫 0
萬 0
萭 0
萮 0
萯 0
萰 0
萱 0
萲 0
萳 0
萴 0
萵 0
萶 0
萷 0
萸 0
萹 0
萻 0
萼 0
落 0
萾 0
萿 0
葀 0
葁 0
葂 0
葃 0
葄 0
葅 0
葆 0
葇 0
葈 0
葉 0
葊 0
葋 0
葌 0
葍 0
葎 0
葏 0
葐 0
葑 0
葒 0
葓 0
葔 0
葕 0
葖 0
著 0
葘 0
葙 0
葚 0
葛 0
葜 0
葝 0
葞 0
葟 0
葠 0
葡 0
葢 0
董 0
葥 0
葦 0
葧 0
葨 0
葩 0
葪 0
葫 0
葬 0
葭 0
葮 0
葯 0
葰 0
葱 0
葲 0
葳 0
葴 0
葵 0
葶 0
葷 0
葸 0
葹 0
葺 0
葻 0
葼 0
葽 0
葾 0
葿 0
蒀 0
蒁 0
蒂 0
蒃 0
蒄 0
蒅 0
蒆 0
蒇 0
蒈 0
蒉 0
蒊 0
蒋 0
蒌 0
蒍 0
蒎 0
蒏 0
蒐 0
蒑 0
蒒 0
蒓 0
蒔 0
蒕 0
蒖 0
蒗 0
蒘 0
蒙 0
蒚 0
蒛 0
蒜 0
蒝 0
蒞 0
蒟 0
蒠 0
蒡 0
蒢 0
蒣 0
蒤 0
蒥 0
蒦 0
蒧 0
蒨 0
蒩 0
蒪 0
蒫 0
蒬 0
蒭 0
蒮 0
蒯 0
蒰 0
蒱 0
蒲 0
蒳 0
蒴 0
蒵 0
蒶 0
蒷 0
蒸 0
蒹 0
蒺 0
蒻 0
蒼 0
蒽 0
蒾 0
蒿 0
蓀 0
蓁 0
蓂 0
蓃 0
蓄 0
蓅 0
蓆 0
蓇 0
蓈 0
蓉 0
蓊 0
蓋 0
蓌 0
蓍 0
蓎 0
蓏 0
蓐 0
蓑 0
蓒 0
蓓 0
蓔 0
蓕 0
蓖 0
蓗 0
蓘 0
蓙 0
蓚 0
蓛 0
蓜 0
蓝 0
蓞 0
蓟 0
蓠 0
蓡 0
蓢 0
蓣 0
蓤 0
蓥 0
蓦 0
蓧 0
蓨 0
蓩 0
蓪 0
蓫 0
蓬 0
蓭 0
蓮 0
蓯 0
蓰 0
蓱 0
蓲 0
蓳 0
蓴 0
蓵 0
蓶 0
蓷 0
蓸 0
蓹 0
蓺 0
蓻 0
蓼 0
蓽 0
蓾 0
蓿 0
蔀 0
蔁 0
蔂 0
蔃 0
蔄 0
蔅 0
蔆 0
蔇 0
蔈 0
蔉 0
蔊 0
蔋 0
蔌 0
蔍 0
蔎 0
蔏 0
蔑 0
蔒 0
蔓 0
蔔 0
蔕 0
蔖 0
蔗 0
蔘 0
蔙 0
蔚 0
蔛 0
蔜 0
蔝 0
蔞 0
蔟 0
蔠 0
蔡 0
蔢 0
蔣 0
蔤 0
蔥 0
蔦 0
蔧 0
蔨 0
蔩 0
蔪 0
蔫 0
蔬 0
蔭 0
蔮 0
蔯 0
蔰 0
蔱 0
蔲 0
蔳 0
蔴 0
蔵 0
蔶 0
蔷 0
蔸 0
蔹 0
蔺 0
蔻 0
蔼 0
蔽 0
蔾 0
蔿 0
蕀 0
蕁 0
蕂 0
蕃 0
蕄 0
蕅 0
蕆 0
蕇 0
蕈 0
蕉 0
蕊 0
蕋 0
蕌 0
蕍 0
蕎 0
蕏 0
蕐 0
蕑 0
蕒 0
蕓 0
蕔 0
蕕 0
蕖 0
蕗 0
蕘 0
蕙 0
蕚 0
蕛 0
蕜 0
蕝 0
蕞 0
蕟 0
蕠 0
蕡 0
蕢 0
蕣 0
蕤 0
蕥 0
蕦 0
蕧 0
蕨 0
蕩 0
蕪 0
蕫 0
蕬 0
蕭 0
蕮 0
蕯 0
蕰 0
蕱 0
蕲 0
蕳 0
蕴 0
蕵 0
蕶 0
蕷 0
蕸 0
蕹 0
蕺 0
蕻 0
蕼 0
蕾 0
蕿 0
薀 0
薁 0
薃 0
薄 0
薅 0
薆 0
薇 0
薈 0
薉 0
薊 0
薋 0
薌 0
薍 0
薎 0
薏 0
薐 0
薑 0
薒 0
薓 0
薔 0
薕 0
薖 0
薗 0
薘 0
薙 0
薚 0
薛 0
薜 0
薝 0
薞 0
薟 0
薠 0
薡 0
薢 0
薣 0
薤 0
薥 0
薦 0
薧 0
薨 0
薩 0
薪 0
薫 0
薬 0
薭 0
薮 0
薯 0
薰 0
薱 0
薲 0
薳 0
薴 0
薵 0
薶 0
薷 0
薸 0
薹 0
薺 0
薻 0
薼 0
薽 0
薾 0
薿 0
藁 0
藂 0
藃 0
藄 0
藅 0
藇 0
藈 0
藉 0
藊 0
藋 0
藌 0
藍 0
藎 0
藏 0
藐 0
藑 0
藒 0
藓 0
藔 0
藕 0
藖 0
藗 0
藘 0
藙 0
藚 0
藛 0
藜 0
藝 0
藞 0
藟 0
藠 0
藡 0
藢 0
藣 0
藤 0
藥 0
藦 0
藧 0
藨 0
藩 0
藪 0
藫 0
藭 0
藮 0
藯 0
藰 0
藱 0
藲 0
藳 0
藴 0
藵 0
藶 0
藷 0
藸 0
藹 0
藺 0
藻 0
藼 0
藽 0
藾 0
藿 0
蘀 0
蘁 0
蘂 0
蘄 0
蘅 0
蘆 0
蘇 0
蘈 0
蘉 0
蘊 0
蘋 0
蘍 0
蘎 0
蘏 0
蘐 0
蘑 0
蘒 0
蘓 0
蘔 0
蘕 0
蘖 0
蘗 0
蘘 0
蘙 0
蘚 0
蘛 0
蘜 0
蘝 0
蘞 0
蘠 0
蘡 0
蘢 0
蘤 0
蘥 0
蘦 0
蘧 0
蘩 0
蘪 0
蘫 0
蘬 0
蘭 0
蘮 0
蘯 0
蘰 0
蘱 0
蘲 0
蘳 0
蘴 0
蘵 0
蘶 0
蘷 0
蘸 0
蘹 0
蘺 0
蘻 0
蘼 0
蘽 0
蘾 0
蘿 0
虀 0
虁 0
虂 0
虃 0
虄 0
虅 0
虆 0
虇 0
虈 0
虉 0
虊 0
虋 0
虌 0
虍 0
虎 0
虏 0
虐 0
虑 0
虒 0
虓 0
虔 0
處 0
虖 0
虗 0
虘 0
虙 0
虚 0
虛 0
虜 0
虝 0
虞 0
號 0
虠 0
虡 0
虢 0
虣 0
虤 0
虥 0
虦 0
虧 0
虨 0
虩 0
虪 0
虫 0
虬 0
虭 0
虮 0
虯 0
虰 0
虱 0
虲 0
虳 0
虴 0
虵 0
虶 0
虷 0
虸 0
虹 0
虺 0
虻 0
虼 0
虽 0
虾 0
虿 0
蚀 0
蚁 0
蚂 0
蚃 0
蚄 0
蚅 0
蚆 0
蚇 0
蚈 0
蚉 0
蚊 0
蚋 0
蚌 0
蚍 0
蚎 0
蚏 0
蚐 0
蚑 0
蚒 0
蚓 0
蚔 0
蚕 0
蚖 0
蚗 0
蚘 0
蚙 0
蚚 0
蚛 0
蚜 0
蚝 0
蚞 0
蚟 0
蚠 0
蚡 0
蚢 0
蚣 0
蚤 0
蚥 0
蚦 0
蚧 0
蚨 0
蚩 0
蚪 0
蚫 0
蚬 0
蚭 0
蚮 0
蚯 0
蚰 0
蚱 0
蚲 0
蚳 0
蚴 0
蚵 0
蚶 0
蚷 0
蚸 0
蚹 0
蚺 0
蚻 0
蚼 0
蚽 0
蚾 0
蚿 0
蛀 0
蛁 0
蛂 0
蛃 0
蛄 0
蛅 0
蛆 0
蛇 0
蛈 0
蛉 0
蛊 0
蛋 0
蛌 0
蛍 0
蛎 0
蛏 0
蛐 0
蛑 0
蛒 0
蛓 0
蛔 0
蛕 0
蛖 0
蛗 0
蛘 0
蛙 0
蛚 0
蛛 0
蛜 0
蛝 0
蛞 0
蛟 0
蛠 0
蛡 0
蛢 0
蛣 0
蛤 0
蛥 0
蛦 0
蛧 0
蛨 0
蛩 0
蛫 0
蛬 0
蛭 0
蛮 0
蛯 0
蛰 0
蛱 0
蛲 0
蛳 0
蛴 0
蛵 0
蛶 0
蛷 0
蛸 0
蛹 0
蛺 0
蛻 0
蛼 0
蛽 0
蛾 0
蛿 0
蜀 0
蜂 0
蜃 0
蜄 0
蜅 0
蜆 0
蜇 0
蜈 0
蜉 0
蜊 0
蜋 0
蜌 0
蜍 0
蜎 0
蜏 0
蜐 0
蜑 0
蜒 0
蜓 0
蜔 0
蜕 0
蜖 0
蜗 0
蜘 0
蜙 0
蜚 0
蜛 0
蜜 0
蜝 0
蜞 0
蜟 0
蜠 0
蜡 0
蜢 0
蜣 0
蜤 0
蜥 0
蜦 0
蜧 0
蜨 0
蜩 0
蜪 0
蜫 0
蜭 0
蜮 0
蜯 0
蜰 0
蜱 0
蜲 0
蜳 0
蜴 0
蜵 0
蜶 0
蜷 0
蜸 0
蜹 0
蜺 0
蜻 0
蜼 0
蜽 0
蜾 0
蜿 0
蝀 0
蝁 0
蝂 0
蝃 0
蝄 0
蝅 0
蝆 0
蝇 0
蝈 0
蝉 0
蝊 0
蝋 0
蝌 0
蝍 0
蝎 0
蝏 0
蝐 0
蝑 0
蝒 0
蝓 0
蝔 0
蝕 0
蝖 0
蝗 0
蝘 0
蝙 0
蝚 0
蝛 0
蝜 0
蝝 0
蝞 0
蝟 0
蝠 0
蝡 0
蝢 0
蝣 0
蝤 0
蝥 0
蝦 0
蝧 0
蝨 0
蝩 0
蝪 0
蝫 0
蝬 0
蝭 0
蝮 0
蝯 0
蝰 0
蝱 0
蝲 0
蝳 0
蝴 0
蝵 0
蝶 0
蝷 0
蝸 0
蝹 0
蝺 0
蝻 0
蝼 0
蝽 0
蝾 0
蝿 0
螀 0
螁 0
螂 0
螃 0
螄 0
螅 0
螆 0
螇 0
螈 0
螉 0
螊 0
螋 0
螌 0
融 0
螎 0
螏 0
螐 0
螑 0
螒 0
螓 0
螔 0
螕 0
螖 0
螗 0
螘 0
螙 0
螚 0
螛 0
螜 0
螝 0
螞 0
螟 0
螠 0
螡 0
螢 0
螣 0
螤 0
螥 0
螦 0
螧 0
螨 0
螩 0
螪 0
螫 0
螬 0
螭 0
螮 0
螯 0
螰 0
螱 0
螲 0
螳 0
螴 0
螵 0
螶 0
螷 0
螸 0
螹 0
螺 0
螻 0
螼 0
螽 0
螾 0
螿 0
蟀 0
蟁 0
蟂 0
蟃 0
蟄 0
蟅 0
蟆 0
蟇 0
蟈 0
蟉 0
蟊 0
蟋 0
蟌 0
蟍 0
蟎 0
蟏 0
蟐 0
蟑 0
蟒 0
蟓 0
蟔 0
蟕 0
蟖 0
蟗 0
蟙 0
蟚 0
蟛 0
蟜 0
蟝 0
蟞 0
蟟 0
蟠 0
蟡 0
蟢 0
蟣 0
蟤 0
蟥 0
蟦 0
蟧 0
蟨 0
蟩 0
蟪 0
蟫 0
蟬 0
蟭 0
蟮 0
蟯 0
蟰 0
蟱 0
蟲 0
蟳 0
蟴 0
蟵 0
蟶 0
蟷 0
蟸 0
蟹 0
蟺 0
蟻 0
蟼 0
蟽 0
蟾 0
蟿 0
蠁 0
蠂 0
蠃 0
蠄 0
蠅 0
蠆 0
蠇 0
蠈 0
蠉 0
蠊 0
蠋 0
蠌 0
蠍 0
蠎 0
蠏 0
蠐 0
蠑 0
蠒 0
蠓 0
蠔 0
蠕 0
蠖 0
蠗 0
蠘 0
蠙 0
蠚 0
蠛 0
蠜 0
蠝 0
蠞 0
蠟 0
蠠 0
蠡 0
蠢 0
蠣 0
蠤 0
蠥 0
蠦 0
蠧 0
蠨 0
蠩 0
蠪 0
蠫 0
蠭 0
蠮 0
蠯 0
蠰 0
蠱 0
蠲 0
蠳 0
蠴 0
蠵 0
蠶 0
蠷 0
蠸 0
蠹 0
蠺 0
蠻 0
蠼 0
蠽 0
蠿 0
血 0
衁 0
衂 0
衃 0
衄 0
衅 0
衆 0
衇 0
衈 0
衉 0
衊 0
衋 0
行 0
衍 0
衎 0
衏 0
衐 0
衑 0
衒 0
術 0
衔 0
衕 0
衖 0
街 0
衘 0
衙 0
衚 0
衛 0
衜 0
衝 0
衞 0
衟 0
衠 0
衡 0
衢 0
衣 0
衤 0
补 0
衦 0
衧 0
表 0
衩 0
衪 0
衫 0
衬 0
衭 0
衮 0
衯 0
衰 0
衱 0
衲 0
衳 0
衴 0
衵 0
衶 0
衷 0
衸 0
衹 0
衺 0
衻 0
衼 0
衽 0
衾 0
衿 0
袀 0
袁 0
袂 0
袃 0
袄 0
袅 0
袆 0
袇 0
袈 0
袉 0
袊 0
袋 0
袌 0
袍 0
袎 0
袏 0
袐 0
袑 0
袒 0
袓 0
袔 0
袕 0
袖 0
袗 0
袘 0
袙 0
袚 0
袛 0
袜 0
袝 0
袞 0
袟 0
袠 0
袡 0
袢 0
袣 0
袤 0
袥 0
袦 0
袧 0
袨 0
袩 0
袪 0
被 0
袬 0
袭 0
袮 0
袯 0
袰 0
袱 0
袲 0
袳 0
袴 0
袵 0
袶 0
袷 0
袸 0
袹 0
袺 0
袻 0
袼 0
袽 0
袾 0
袿 0
裀 0
裁 0
裂 0
裃 0
裄 0
装 0
裆 0
裇 0
裈 0
裉 0
裊 0
裋 0
裌 0
裍 0
裎 0
裏 0
裐 0
裑 0
裒 0
裓 0
裔 0
裕 0
裖 0
裗 0
裘 0
裙 0
裚 0
裛 0
補 0
裝 0
裞 0
裟 0
裠 0
裡 0
裢 0
裣 0
裤 0
裥 0
裦 0
裧 0
裨 0
裩 0
裪 0
裫 0
裬 0
裭 0
裮 0
裯 0
裰 0
裱 0
裲 0
裳 0
裴 0
裵 0
裶 0
裷 0
裸 0
裹 0
裺 0
裻 0
裼 0
製 0
裾 0
裿 0
褀 0
褁 0
褂 0
褃 0
褄 0
褅 0
褆 0
複 0
褈 0
褉 0
褊 0
褋 0
褌 0
褍 0
褎 0
褏 0
褐 0
褑 0
褒 0
褓 0
褔 0
褕 0
褖 0
褗 0
褘 0
褙 0
褚 0
褛 0
褜 0
褝 0
褞 0
褟 0
褠 0
褡 0
褢 0
褣 0
褥 0
褦 0
褧 0
褨 0
褩 0
褪 0
褫 0
褬 0
褭 0
褯 0
褰 0
褱 0
褲 0
褳 0
褴 0
褵 0
褶 0
褷 0
褸 0
褹 0
褺 0
褻 0
褼 0
褽 0
褾 0
褿 0
襀 0
襁 0
襂 0
襃 0
襄 0
襅 0
襆 0
襇 0
襈 0
襉 0
襊 0
襋 0
襌 0
襍 0
襎 0
襏 0
襐 0
襑 0
襒 0
襓 0
襔 0
襕 0
襖 0
襗 0
襘 0
襙 0
襚 0
襛 0
襜 0
襝 0
襞 0
襟 0
襠 0
襡 0
襢 0
襣 0
襤 0
襥 0
襦 0
襧 0
襨 0
襩 0
襪 0
襫 0
襬 0
襭 0
襮 0
襯 0
襱 0
襲 0
襳 0
襴 0
襵 0
襶 0
襷 0
襸 0
襹 0
襺 0
襻 0
襼 0
襽 0
襾 0
西 0
覀 0
要 0
覂 0
覃 0
覄 0
覅 0
覆 0
覇 0
覈 0
覉 0
覊 0
見 0
覌 0
覍 0
覎 0
規 0
覐 0
覑 0
覒 0
覓 0
覔 0
覕 0
視 0
覗 0
覘 0
覙 0
覚 0
覛 0
覜 0
覝 0
覞 0
覡 0
覣 0
覤 0
覥 0
覦 0
覧 0
覩 0
親 0
覫 0
覬 0
覭 0
覯 0
覰 0
覱 0
覲 0
観 0
覴 0
覵 0
覶 0
覷 0
覸 0
覺 0
覻 0
覼 0
覽 0
覾 0
覿 0
觀 0
见 0
观 0
觃 0
规 0
觅 0
视 0
觇 0
览 0
觉 0
觊 0
觋 0
觌 0
觍 0
觎 0
觏 0
觐 0
觑 0
角 0
觓 0
觔 0
觕 0
觖 0
觗 0
觘 0
觙 0
觚 0
觛 0
觜 0
觝 0
觞 0
觟 0
觠 0
觡 0
觢 0
解 0
觤 0
觥 0
触 0
觧 0
觨 0
觩 0
觪 0
觫 0
觬 0
觭 0
觮 0
觯 0
觰 0
觱 0
觲 0
觳 0
觴 0
觵 0
觶 0
觷 0
觸 0
觹 0
觺 0
觻 0
觼 0
觽 0
觾 0
觿 0
言 0
訁 0
訂 0
訃 0
訄 0
訅 0
訆 0
訇 0
計 0
訉 0
訊 0
訋 0
訌 0
討 0
訏 0
訐 0
訑 0
訒 0
訓 0
訔 0
訕 0
訖 0
託 0
記 0
訙 0
訚 0
訛 0
訝 0
訞 0
訟 0
訠 0
訡 0
訢 0
訣 0
訤 0
訥 0
訦 0
訧 0
訩 0
訪 0
訫 0
訬 0
設 0
訮 0
訯 0
訰 0
許 0
訲 0
訳 0
訴 0
訵 0
訶 0
訷 0
訸 0
訹 0
診 0
註 0
証 0
訽 0
訾 0
訿 0
詀 0
詁 0
詂 0
詃 0
詄 0
詅 0
詆 0
詇 0
詈 0
詉 0
詋 0
詌 0
詍 0
詎 0
詏 0
詐 0
詑 0
詒 0
詓 0
詔 0
評 0
詖 0
詗 0
詘 0
詙 0
詚 0
詛 0
詜 0
詝 0
詞 0
詟 0
詠 0
詡 0
詢 0
詣 0
詤 0
詥 0
試 0
詧 0
詨 0
詩 0
詪 0
詫 0
詬 0
詭 0
詮 0
詰 0
話 0
該 0
詳 0
詴 0
詵 0
詶 0
詷 0
詸 0
詹 0
詺 0
詻 0
詼 0
詽 0
詾 0
詿 0
誀 0
誁 0
誂 0
誃 0
誄 0
誅 0
誆 0
誇 0
誈 0
誉 0
誊 0
誋 0
誌 0
認 0
誎 0
誏 0
誐 0
誑 0
誒 0
誓 0
誔 0
誕 0
誖 0
誗 0
誘 0
誙 0
誚 0
誛 0
誜 0
誝 0
語 0
誟 0
誠 0
誡 0
誢 0
誣 0
誤 0
誥 0
誦 0
誧 0
誨 0
誩 0
說 0
説 0
読 0
誮 0
誯 0
誰 0
誱 0
課 0
誴 0
誵 0
誶 0
誷 0
誸 0
誹 0
誺 0
誻 0
誼 0
誽 0
誾 0
調 0
諀 0
諁 0
諂 0
諃 0
諄 0
諅 0
諆 0
談 0
諈 0
諉 0
諊 0
請 0
諌 0
諍 0
諎 0
諏 0
諐 0
諑 0
諒 0
諓 0
諔 0
諕 0
論 0
諗 0
諘 0
諙 0
諚 0
諛 0
諜 0
諝 0
諞 0
諟 0
諠 0
諡 0
諢 0
諤 0
諦 0
諧 0
諨 0
諩 0
諪 0
諫 0
諬 0
諭 0
諮 0
諰 0
諱 0
諲 0
諳 0
諴 0
諵 0
諶 0
諷 0
諸 0
諹 0
諺 0
諻 0
諼 0
諽 0
諾 0
諿 0
謀 0
謁 0
謂 0
謃 0
謄 0
謅 0
謇 0
謈 0
謊 0
謋 0
謌 0
謍 0
謎 0
謏 0
謐 0
謑 0
謒 0
謓 0
謔 0
謕 0
謖 0
謗 0
謘 0
謙 0
謚 0
講 0
謜 0
謝 0
謞 0
謟 0
謠 0
謡 0
謢 0
謣 0
謤 0
謥 0
謦 0
謨 0
謩 0
謪 0
謫 0
謬 0
謮 0
謯 0
謰 0
謱 0
謲 0
謳 0
謴 0
謵 0
謶 0
謷 0
謸 0
謹 0
謺 0
謻 0
謼 0
謾 0
謿 0
譀 0
譁 0
譃 0
譄 0
譅 0
譆 0
譇 0
證 0
譊 0
譋 0
譌 0
譍 0
譎 0
譏 0
譐 0
譒 0
譓 0
譔 0
譕 0
譖 0
譗 0
識 0
譙 0
譚 0
譛 0
譜 0
譝 0
譞 0
譟 0
譠 0
譡 0
譢 0
譣 0
譤 0
譥 0
警 0
譧 0
譨 0
譩 0
譪 0
譫 0
譬 0
譭 0
譮 0
譯 0
議 0
譱 0
譲 0
譳 0
譴 0
譵 0
譶 0
護 0
譸 0
譹 0
譺 0
譻 0
譼 0
譽 0
譾 0
譿 0
讀 0
讁 0
讃 0
讄 0
讅 0
讆 0
讇 0
讉 0
變 0
讋 0
讌 0
讍 0
讎 0
讏 0
讐 0
讑 0
讒 0
讓 0
讔 0
讕 0
讖 0
讗 0
讘 0
讙 0
讚 0
讛 0
讜 0
讝 0
讞 0
讟 0
讠 0
计 0
订 0
讣 0
认 0
讥 0
讦 0
讧 0
讨 0
让 0
讪 0
讫 0
讬 0
训 0
议 0
讯 0
记 0
讱 0
讲 0
讳 0
讴 0
讵 0
讶 0
讷 0
许 0
讹 0
论 0
讻 0
讼 0
讽 0
设 0
访 0
诀 0
证 0
诂 0
诃 0
评 0
诅 0
识 0
诇 0
诈 0
诉 0
诊 0
诋 0
诌 0
词 0
诎 0
诏 0
诐 0
译 0
诒 0
诓 0
诔 0
试 0
诖 0
诗 0
诘 0
诙 0
诚 0
诛 0
诜 0
话 0
诞 0
诟 0
诠 0
诡 0
询 0
诣 0
诤 0
该 0
详 0
诧 0
诨 0
诩 0
诪 0
诫 0
诬 0
语 0
诮 0
误 0
诰 0
诱 0
诲 0
诳 0
说 0
诵 0
诶 0
请 0
诸 0
诹 0
诺 0
读 0
诼 0
诽 0
课 0
诿 0
谀 0
谁 0
谂 0
调 0
谄 0
谅 0
谆 0
谇 0
谈 0
谉 0
谊 0
谋 0
谌 0
谍 0
谎 0
谏 0
谐 0
谑 0
谒 0
谓 0
谔 0
谕 0
谖 0
谗 0
谘 0
谙 0
谚 0
谛 0
谜 0
谝 0
谞 0
谟 0
谠 0
谡 0
谢 0
谣 0
谤 0
谥 0
谦 0
谧 0
谨 0
谩 0
谪 0
谫 0
谬 0
谭 0
谮 0
谯 0
谰 0
谱 0
谲 0
谳 0
谴 0
谵 0
谶 0
谷 0
谸 0
谹 0
谺 0
谻 0
谼 0
谽 0
谾 0
谿 0
豀 0
豁 0
豂 0
豃 0
豄 0
豅 0
豆 0
豇 0
豈 0
豉 0
豊 0
豋 0
豌 0
豍 0
豎 0
豏 0
豐 0
豑 0
豒 0
豓 0
豔 0
豕 0
豖 0
豗 0
豘 0
豙 0
豚 0
豛 0
豜 0
豝 0
豞 0
豟 0
豠 0
象 0
豢 0
豣 0
豤 0
豥 0
豦 0
豧 0
豨 0
豩 0
豪 0
豫 0
豬 0
豭 0
豮 0
豯 0
豰 0
豱 0
豲 0
豳 0
豴 0
豵 0
豶 0
豷 0
豸 0
豹 0
豺 0
豻 0
豼 0
豽 0
豾 0
豿 0
貀 0
貁 0
貂 0
貃 0
貄 0
貅 0
貆 0
貇 0
貈 0
貉 0
貊 0
貋 0
貌 0
貍 0
貎 0
貏 0
貐 0
貑 0
貒 0
貓 0
貔 0
貕 0
貖 0
貗 0
貘 0
貙 0
貚 0
貛 0
貜 0
貝 0
貞 0
貟 0
負 0
財 0
貢 0
貣 0
貤 0
貥 0
貦 0
貧 0
貨 0
販 0
貪 0
貫 0
責 0
貭 0
貮 0
貯 0
貰 0
貱 0
貲 0
貳 0
貴 0
貵 0
貶 0
買 0
貸 0
貹 0
貺 0
費 0
貼 0
貽 0
貾 0
貿 0
賀 0
賁 0
賂 0
賃 0
賄 0
賅 0
賆 0
資 0
賈 0
賉 0
賊 0
賋 0
賌 0
賍 0
賎 0
賏 0
賐 0
賑 0
賒 0
賓 0
賔 0
賕 0
賖 0
賗 0
賘 0
賙 0
賚 0
賛 0
賜 0
賝 0
賞 0
賟 0
賠 0
賡 0
賢 0
賣 0
賤 0
賥 0
賦 0
賧 0
賨 0
賩 0
質 0
賫 0
賬 0
賭 0
賮 0
賯 0
賰 0
賱 0
賲 0
賳 0
賴 0
賵 0
賶 0
賷 0
賸 0
賹 0
賺 0
賻 0
購 0
賽 0
賾 0
賿 0
贀 0
贁 0
贄 0
贅 0
贆 0
贇 0
贈 0
贊 0
贋 0
贌 0
贍 0
贎 0
贏 0
贐 0
贑 0
贒 0
贓 0
贔 0
贕 0
贖 0
贗 0
贘 0
贙 0
贛 0
贜 0
贝 0
贞 0
负 0
贠 0
贡 0
财 0
责 0
贤 0
败 0
账 0
货 0
质 0
贩 0
贪 0
贫 0
贬 0
购 0
贮 0
贯 0
贰 0
贱 0
贲 0
贳 0
贴 0
贵 0
贶 0
贷 0
贸 0
费 0
贺 0
贻 0
贼 0
贽 0
贾 0
贿 0
赀 0
赁 0
赂 0
赃 0
资 0
赅 0
赆 0
赇 0
赈 0
赉 0
赊 0
赋 0
赌 0
赍 0
赎 0
赏 0
赐 0
赑 0
赒 0
赓 0
赔 0
赕 0
赖 0
赗 0
赘 0
赙 0
赚 0
赛 0
赜 0
赝 0
赞 0
赟 0
赠 0
赡 0
赢 0
赣 0
赤 0
赥 0
赦 0
赧 0
赨 0
赩 0
赪 0
赫 0
赬 0
赭 0
赮 0
赯 0
走 0
赱 0
赲 0
赳 0
赴 0
赵 0
赶 0
起 0
赸 0
赹 0
赺 0
赻 0
赼 0
赽 0
赾 0
赿 0
趀 0
趁 0
趂 0
趃 0
趄 0
超 0
趆 0
趇 0
趈 0
趉 0
越 0
趋 0
趌 0
趍 0
趎 0
趏 0
趐 0
趑 0
趒 0
趓 0
趔 0
趕 0
趖 0
趗 0
趘 0
趙 0
趚 0
趛 0
趜 0
趝 0
趞 0
趟 0
趠 0
趡 0
趢 0
趣 0
趤 0
趦 0
趧 0
趨 0
趩 0
趪 0
趫 0
趬 0
趭 0
趮 0
趯 0
趱 0
趲 0
足 0
趴 0
趵 0
趶 0
趷 0
趸 0
趹 0
趺 0
趻 0
趼 0
趽 0
趾 0
趿 0
跀 0
跁 0
跂 0
跃 0
跄 0
跅 0
跆 0
跇 0
跈 0
跉 0
跊 0
跋 0
跌 0
跍 0
跎 0
跏 0
跐 0
跑 0
跒 0
跓 0
跔 0
跕 0
跖 0
跗 0
跘 0
跙 0
跚 0
跛 0
跜 0
距 0
跞 0
跟 0
跠 0
跡 0
跢 0
跣 0
跤 0
跥 0
跦 0
跧 0
跨 0
跩 0
跪 0
跫 0
跬 0
跭 0
跮 0
路 0
跰 0
跱 0
跲 0
跳 0
跴 0
践 0
跶 0
跷 0
跸 0
跹 0
跺 0
跻 0
跼 0
跽 0
跾 0
跿 0
踀 0
踁 0
踂 0
踃 0
踄 0
踅 0
踆 0
踇 0
踈 0
踉 0
踊 0
踋 0
踌 0
踍 0
踎 0
踏 0
踐 0
踑 0
踒 0
踓 0
踔 0
踕 0
踖 0
踗 0
踘 0
踙 0
踚 0
踛 0
踜 0
踝 0
踞 0
踟 0
踠 0
踡 0
踢 0
踣 0
踤 0
踥 0
踦 0
踧 0
踨 0
踩 0
踪 0
踫 0
踬 0
踭 0
踮 0
踯 0
踰 0
踱 0
踲 0
踳 0
踴 0
踵 0
踶 0
踷 0
踸 0
踹 0
踺 0
踻 0
踼 0
踽 0
踾 0
踿 0
蹀 0
蹁 0
蹂 0
蹃 0
蹄 0
蹅 0
蹆 0
蹇 0
蹈 0
蹉 0
蹊 0
蹋 0
蹌 0
蹍 0
蹎 0
蹏 0
蹐 0
蹑 0
蹒 0
蹓 0
蹔 0
蹕 0
蹖 0
蹗 0
蹘 0
蹙 0
蹚 0
蹛 0
蹜 0
蹝 0
蹞 0
蹟 0
蹠 0
蹡 0
蹢 0
蹣 0
蹤 0
蹥 0
蹦 0
蹧 0
蹨 0
蹩 0
蹪 0
蹫 0
蹬 0
蹭 0
蹮 0
蹯 0
蹰 0
蹱 0
蹲 0
蹳 0
蹴 0
蹵 0
蹶 0
蹷 0
蹸 0
蹹 0
蹺 0
蹻 0
蹼 0
蹽 0
蹾 0
蹿 0
躀 0
躁 0
躂 0
躃 0
躄 0
躅 0
躆 0
躇 0
躈 0
躉 0
躊 0
躋 0
躌 0
躍 0
躏 0
躐 0
躑 0
躒 0
躓 0
躔 0
躕 0
躖 0
躗 0
躘 0
躙 0
躚 0
躛 0
躜 0
躝 0
躞 0
躟 0
躠 0
躡 0
躢 0
躣 0
躤 0
躥 0
躦 0
躧 0
躩 0
躪 0
身 0
躬 0
躭 0
躮 0
躯 0
躰 0
躱 0
躲 0
躳 0
躴 0
躵 0
躶 0
躸 0
躹 0
躺 0
躻 0
躼 0
躽 0
躾 0
躿 0
軀 0
軁 0
軂 0
軃 0
軄 0
軆 0
軇 0
軈 0
車 0
軋 0
軌 0
軍 0
軎 0
軏 0
軐 0
軑 0
軒 0
軓 0
軔 0
軖 0
軘 0
軙 0
軚 0
軛 0
軜 0
軝 0
軞 0
軟 0
軠 0
転 0
軣 0
軥 0
軦 0
軧 0
軨 0
軩 0
軪 0
軫 0
軬 0
軭 0
軮 0
軯 0
軰 0
軱 0
軲 0
軳 0
軴 0
軵 0
軶 0
軷 0
軸 0
軹 0
軺 0
軻 0
軼 0
軽 0
軾 0
軿 0
輀 0
輁 0
輂 0
較 0
輄 0
輅 0
輆 0
輇 0
輈 0
載 0
輊 0
輋 0
輌 0
輍 0
輎 0
輏 0
輐 0
輑 0
輒 0
輓 0
輔 0
輕 0
輖 0
輗 0
輘 0
輙 0
輚 0
輛 0
輜 0
輝 0
輞 0
輟 0
輠 0
輡 0
輢 0
輣 0
輤 0
輥 0
輦 0
輧 0
輨 0
輩 0
輪 0
輫 0
輬 0
輭 0
輮 0
輯 0
輰 0
輱 0
輲 0
輳 0
輴 0
輵 0
輶 0
輷 0
輸 0
輹 0
輺 0
輻 0
輼 0
輾 0
輿 0
轀 0
轁 0
轂 0
轃 0
轄 0
轅 0
轆 0
轇 0
轈 0
轉 0
轊 0
轋 0
轌 0
轍 0
轎 0
轏 0
轐 0
轑 0
轒 0
轓 0
轔 0
轕 0
轖 0
轗 0
轘 0
轙 0
轚 0
轛 0
轜 0
轝 0
轞 0
轟 0
轠 0
轡 0
轢 0
轣 0
轤 0
轥 0
车 0
轧 0
轨 0
轩 0
轪 0
轫 0
转 0
轭 0
轮 0
软 0
轰 0
轱 0
轲 0
轳 0
轴 0
轵 0
轶 0
轷 0
轸 0
轹 0
轺 0
轻 0
轼 0
载 0
轾 0
轿 0
辀 0
辁 0
辂 0
较 0
辄 0
辅 0
辆 0
辇 0
辈 0
辉 0
辊 0
辋 0
辌 0
辍 0
辎 0
辏 0
辐 0
辑 0
辒 0
输 0
辔 0
辕 0
辖 0
辗 0
辘 0
辙 0
辚 0
辛 0
辜 0
辝 0
辞 0
辟 0
辠 0
辡 0
辢 0
辣 0
辤 0
辥 0
辦 0
辧 0
辨 0
辩 0
辪 0
辫 0
辬 0
辭 0
辮 0
辯 0
辰 0
辱 0
農 0
辳 0
辴 0
辵 0
辶 0
辷 0
辸 0
边 0
辺 0
辻 0
込 0
辽 0
达 0
辿 0
迀 0
迁 0
迂 0
迃 0
迄 0
迅 0
迆 0
过 0
迈 0
迉 0
迊 0
迋 0
迌 0
迍 0
迎 0
迏 0
运 0
近 0
迒 0
迓 0
返 0
迕 0
迖 0
迗 0
还 0
这 0
迚 0
进 0
远 0
违 0
连 0
迟 0
迠 0
迡 0
迢 0
迣 0
迤 0
迥 0
迦 0
迧 0
迨 0
迩 0
迪 0
迫 0
迬 0
迭 0
迮 0
迯 0
述 0
迱 0
迲 0
迳 0
迴 0
迵 0
迷 0
迸 0
迹 0
迺 0
迻 0
迼 0
追 0
迾 0
迿 0
退 0
送 0
适 0
逃 0
逄 0
逅 0
逆 0
逇 0
逈 0
选 0
逊 0
逋 0
逌 0
逍 0
逎 0
透 0
逐 0
逑 0
递 0
逓 0
途 0
逕 0
逖 0
逗 0
逘 0
這 0
通 0
逛 0
逜 0
逝 0
逞 0
速 0
造 0
逡 0
逢 0
連 0
逤 0
逥 0
逦 0
逧 0
逨 0
逩 0
逪 0
逫 0
逬 0
逭 0
逮 0
逯 0
逰 0
週 0
進 0
逳 0
逴 0
逵 0
逶 0
逷 0
逸 0
逹 0
逺 0
逻 0
逼 0
逽 0
逾 0
逿 0
遀 0
遁 0
遂 0
遃 0
遄 0
遅 0
遆 0
遇 0
遈 0
遉 0
遊 0
運 0
遌 0
遍 0
過 0
遏 0
遐 0
遑 0
遒 0
道 0
達 0
違 0
遖 0
遗 0
遘 0
遙 0
遚 0
遛 0
遜 0
遝 0
遞 0
遟 0
遠 0
遡 0
遢 0
遣 0
遤 0
遥 0
遦 0
遧 0
遨 0
適 0
遪 0
遫 0
遬 0
遭 0
遮 0
遯 0
遰 0
遲 0
遳 0
遴 0
遵 0
遶 0
遷 0
選 0
遹 0
遺 0
遻 0
遼 0
遽 0
遾 0
避 0
邀 0
邁 0
邂 0
邃 0
還 0
邅 0
邆 0
邇 0
邈 0
邉 0
邊 0
邋 0
邌 0
邍 0
邎 0
邏 0
邐 0
邑 0
邓 0
邔 0
邕 0
邖 0
邗 0
邘 0
邙 0
邚 0
邛 0
邜 0
邝 0
邞 0
邟 0
邠 0
邡 0
邢 0
那 0
邤 0
邥 0
邦 0
邧 0
邨 0
邩 0
邪 0
邫 0
邬 0
邮 0
邯 0
邰 0
邱 0
邲 0
邳 0
邴 0
邵 0
邶 0
邸 0
邹 0
邺 0
邻 0
邼 0
邽 0
邾 0
邿 0
郀 0
郁 0
郂 0
郃 0
郄 0
郅 0
郆 0
郇 0
郈 0
郉 0
郊 0
郋 0
郌 0
郍 0
郎 0
郏 0
郐 0
郑 0
郒 0
郓 0
郔 0
郕 0
郖 0
郗 0
郘 0
郙 0
郚 0
郛 0
郜 0
郝 0
郞 0
郟 0
郠 0
郡 0
郢 0
郣 0
郤 0
郥 0
郦 0
郧 0
部 0
郩 0
郪 0
郫 0
郭 0
郮 0
郯 0
郰 0
郱 0
郲 0
郳 0
郴 0
郵 0
郶 0
郷 0
郸 0
郹 0
郺 0
郻 0
郼 0
都 0
郾 0
郿 0
鄀 0
鄁 0
鄂 0
鄃 0
鄄 0
鄅 0
鄆 0
鄇 0
鄈 0
鄉 0
鄊 0
鄋 0
鄌 0
鄍 0
鄎 0
鄏 0
鄐 0
鄑 0
鄒 0
鄓 0
鄔 0
鄕 0
鄖 0
鄗 0
鄘 0
鄙 0
鄚 0
鄛 0
鄜 0
鄝 0
鄞 0
鄟 0
鄠 0
鄡 0
鄢 0
鄣 0
鄤 0
鄥 0
鄦 0
鄧 0
鄨 0
鄩 0
鄪 0
鄫 0
鄬 0
鄭 0
鄮 0
鄯 0
鄰 0
鄱 0
鄲 0
鄳 0
鄴 0
鄵 0
鄶 0
鄷 0
鄸 0
鄹 0
鄺 0
鄼 0
鄽 0
鄾 0
鄿 0
酀 0
酁 0
酂 0
酃 0
酄 0
酅 0
酆 0
酇 0
酈 0
酉 0
酊 0
酋 0
酌 0
配 0
酎 0
酏 0
酐 0
酑 0
酒 0
酓 0
酔 0
酕 0
酖 0
酗 0
酘 0
酙 0
酚 0
酛 0
酜 0
酝 0
酞 0
酟 0
酠 0
酡 0
酢 0
酣 0
酤 0
酥 0
酦 0
酧 0
酨 0
酩 0
酪 0
酫 0
酬 0
酭 0
酮 0
酯 0
酰 0
酱 0
酲 0
酳 0
酴 0
酵 0
酶 0
酷 0
酸 0
酹 0
酺 0
酻 0
酼 0
酽 0
酾 0
酿 0
醀 0
醁 0
醂 0
醃 0
醄 0
醅 0
醆 0
醇 0
醈 0
醉 0
醊 0
醋 0
醌 0
醍 0
醎 0
醏 0
醐 0
醑 0
醒 0
醓 0
醔 0
醕 0
醖 0
醗 0
醘 0
醙 0
醚 0
醛 0
醜 0
醝 0
醞 0
醟 0
醠 0
醡 0
醢 0
醣 0
醤 0
醥 0
醦 0
醧 0
醨 0
醩 0
醪 0
醫 0
醬 0
醭 0
醮 0
醯 0
醰 0
醱 0
醲 0
醳 0
醴 0
醵 0
醶 0
醷 0
醸 0
醹 0
醺 0
醻 0
醼 0
醽 0
醾 0
醿 0
釀 0
釁 0
釂 0
釃 0
釄 0
釅 0
釆 0
采 0
釈 0
釉 0
释 0
釋 0
里 0
重 0
野 0
量 0
釐 0
金 0
釒 0
釓 0
釔 0
釕 0
釖 0
釗 0
釘 0
釙 0
釚 0
釛 0
釜 0
針 0
釞 0
釟 0
釠 0
釡 0
釢 0
釣 0
釤 0
釥 0
釦 0
釧 0
釨 0
釩 0
釪 0
釫 0
釬 0
釭 0
釮 0
釯 0
釰 0
釱 0
釲 0
釳 0
釴 0
釵 0
釶 0
釷 0
釸 0
釹 0
釺 0
釻 0
釼 0
釽 0
釾 0
釿 0
鈀 0
鈁 0
鈂 0
鈃 0
鈄 0
鈅 0
鈆 0
鈇 0
鈈 0
鈉 0
鈊 0
鈋 0
鈌 0
鈍 0
鈎 0
鈏 0
鈐 0
鈑 0
鈒 0
鈓 0
鈔 0
鈕 0
鈖 0
鈗 0
鈘 0
鈙 0
鈚 0
鈛 0
鈜 0
鈝 0
鈞 0
鈟 0
鈡 0
鈢 0
鈣 0
鈤 0
鈥 0
鈦 0
鈧 0
鈨 0
鈩 0
鈪 0
鈫 0
鈬 0
鈭 0
鈮 0
鈰 0
鈱 0
鈳 0
鈴 0
鈵 0
鈶 0
鈷 0
鈸 0
鈹 0
鈺 0
鈻 0
鈼 0
鈽 0
鈾 0
鈿 0
鉀 0
鉁 0
鉂 0
鉃 0
鉄 0
鉅 0
鉆 0
鉇 0
鉈 0
鉉 0
鉊 0
鉋 0
鉌 0
鉍 0
鉎 0
鉏 0
鉐 0
鉑 0
鉒 0
鉓 0
鉕 0
鉖 0
鉗 0
鉘 0
鉙 0
鉚 0
鉛 0
鉜 0
鉝 0
鉞 0
鉟 0
鉠 0
鉡 0
鉢 0
鉣 0
鉤 0
鉥 0
鉦 0
鉧 0
鉨 0
鉩 0
鉪 0
鉫 0
鉬 0
鉭 0
鉮 0
鉯 0
鉰 0
鉱 0
鉲 0
鉳 0
鉴 0
鉵 0
鉶 0
鉷 0
鉸 0
鉹 0
鉺 0
鉻 0
鉼 0
鉽 0
鉾 0
鉿 0
銀 0
銂 0
銃 0
銄 0
銅 0
銆 0
銇 0
銈 0
銉 0
銊 0
銋 0
銌 0
銍 0
銎 0
銏 0
銐 0
銑 0
銒 0
銓 0
銔 0
銕 0
銖 0
銗 0
銘 0
銙 0
銚 0
銛 0
銜 0
銝 0
銞 0
銠 0
銡 0
銢 0
銣 0
銤 0
銥 0
銦 0
銧 0
銨 0
銩 0
銪 0
銫 0
銬 0
銭 0
銮 0
銯 0
銰 0
銱 0
銲 0
銳 0
銴 0
銵 0
銶 0
銷 0
銸 0
銹 0
銺 0
銻 0
銼 0
銽 0
銾 0
銿 0
鋀 0
鋁 0
鋂 0
鋃 0
鋄 0
鋅 0
鋆 0
鋇 0
鋈 0
鋉 0
鋊 0
鋋 0
鋌 0
鋍 0
鋎 0
鋏 0
鋐 0
鋑 0
鋒 0
鋓 0
鋔 0
鋕 0
鋖 0
鋗 0
鋘 0
鋙 0
鋛 0
鋜 0
鋝 0
鋞 0
鋟 0
鋠 0
鋡 0
鋢 0
鋣 0
鋤 0
鋥 0
鋦 0
鋧 0
鋨 0
鋩 0
鋪 0
鋫 0
鋬 0
鋭 0
鋮 0
鋯 0
鋰 0
鋱 0
鋲 0
鋳 0
鋴 0
鋵 0
鋶 0
鋷 0
鋸 0
鋹 0
鋺 0
鋻 0
鋼 0
鋽 0
鋾 0
鋿 0
錀 0
錁 0
錂 0
錃 0
錄 0
錅 0
錆 0
錇 0
錉 0
錊 0
錋 0
錌 0
錍 0
錎 0
錏 0
錐 0
錑 0
錒 0
錓 0
錔 0
錕 0
錖 0
錗 0
錘 0
錙 0
錚 0
錛 0
錝 0
錞 0
錟 0
錠 0
錡 0
錢 0
錣 0
錤 0
錦 0
錧 0
錨 0
錩 0
錪 0
錫 0
錬 0
錭 0
錮 0
錯 0
錰 0
錱 0
録 0
錳 0
錴 0
錵 0
錶 0
錷 0
錸 0
錹 0
錺 0
錻 0
錼 0
錾 0
錿 0
鍀 0
鍁 0
鍂 0
鍃 0
鍄 0
鍅 0
鍆 0
鍇 0
鍈 0
鍉 0
鍊 0
鍋 0
鍌 0
鍍 0
鍎 0
鍏 0
鍐 0
鍑 0
鍒 0
鍓 0
鍔 0
鍕 0
鍖 0
鍗 0
鍘 0
鍙 0
鍚 0
鍛 0
鍜 0
鍝 0
鍞 0
鍟 0
鍠 0
鍡 0
鍢 0
鍣 0
鍤 0
鍥 0
鍦 0
鍧 0
鍨 0
鍩 0
鍪 0
鍫 0
鍬 0
鍭 0
鍮 0
鍯 0
鍰 0
鍱 0
鍲 0
鍳 0
鍴 0
鍵 0
鍶 0
鍷 0
鍸 0
鍹 0
鍺 0
鍻 0
鍼 0
鍽 0
鍾 0
鍿 0
鎀 0
鎁 0
鎂 0
鎃 0
鎄 0
鎅 0
鎆 0
鎇 0
鎉 0
鎊 0
鎋 0
鎌 0
鎎 0
鎏 0
鎐 0
鎑 0
鎒 0
鎓 0
鎔 0
鎕 0
鎖 0
鎗 0
鎘 0
鎙 0
鎚 0
鎛 0
鎜 0
鎝 0
鎞 0
鎟 0
鎠 0
鎡 0
鎢 0
鎣 0
鎤 0
鎦 0
鎧 0
鎨 0
鎩 0
鎪 0
鎫 0
鎬 0
鎭 0
鎮 0
鎯 0
鎰 0
鎱 0
鎲 0
鎳 0
鎴 0
鎵 0
鎶 0
鎷 0
鎸 0
鎹 0
鎺 0
鎻 0
鎼 0
鎽 0
鎾 0
鎿 0
鏀 0
鏁 0
鏂 0
鏃 0
鏄 0
鏅 0
鏆 0
鏇 0
鏈 0
鏊 0
鏋 0
鏌 0
鏍 0
鏏 0
鏐 0
鏑 0
鏒 0
鏓 0
鏔 0
鏕 0
鏖 0
鏗 0
鏘 0
鏙 0
鏚 0
鏛 0
鏜 0
鏝 0
鏞 0
鏟 0
鏠 0
鏡 0
鏢 0
鏣 0
鏤 0
鏦 0
鏧 0
鏨 0
鏩 0
鏪 0
鏫 0
鏬 0
鏭 0
鏮 0
鏯 0
鏱 0
鏲 0
鏳 0
鏴 0
鏵 0
鏶 0
鏷 0
鏸 0
鏹 0
鏺 0
鏻 0
鏼 0
鏽 0
鏿 0
鐀 0
鐁 0
鐃 0
鐄 0
鐅 0
鐆 0
鐇 0
鐈 0
鐉 0
鐊 0
鐋 0
鐌 0
鐍 0
鐎 0
鐏 0
鐐 0
鐑 0
鐒 0
鐓 0
鐔 0
鐕 0
鐖 0
鐗 0
鐘 0
鐙 0
鐚 0
鐛 0
鐜 0
鐝 0
鐞 0
鐟 0
鐠 0
鐡 0
鐢 0
鐣 0
鐤 0
鐥 0
鐦 0
鐧 0
鐨 0
鐩 0
鐪 0
鐫 0
鐬 0
鐭 0
鐮 0
鐰 0
鐱 0
鐲 0
鐳 0
鐴 0
鐵 0
鐶 0
鐷 0
鐸 0
鐹 0
鐺 0
鐻 0
鐼 0
鐽 0
鐾 0
鐿 0
鑀 0
鑁 0
鑂 0
鑃 0
鑄 0
鑅 0
鑆 0
鑇 0
鑈 0
鑉 0
鑊 0
鑋 0
鑌 0
鑍 0
鑎 0
鑏 0
鑐 0
鑑 0
鑒 0
鑓 0
鑔 0
鑕 0
鑖 0
鑗 0
鑘 0
鑙 0
鑚 0
鑛 0
鑜 0
鑝 0
鑞 0
鑟 0
鑠 0
鑡 0
鑢 0
鑣 0
鑤 0
鑥 0
鑧 0
鑨 0
鑩 0
鑪 0
鑫 0
鑬 0
鑭 0
鑮 0
鑯 0
鑰 0
鑱 0
鑲 0
鑳 0
鑴 0
鑵 0
鑶 0
鑷 0
鑸 0
鑹 0
鑺 0
鑻 0
鑼 0
鑽 0
鑾 0
鑿 0
钀 0
钁 0
钂 0
钃 0
钄 0
钅 0
钆 0
钇 0
针 0
钉 0
钊 0
钋 0
钌 0
钍 0
钎 0
钏 0
钐 0
钑 0
钒 0
钓 0
钔 0
钕 0
钖 0
钗 0
钘 0
钙 0
钚 0
钛 0
钜 0
钝 0
钞 0
钟 0
钠 0
钡 0
钢 0
钣 0
钤 0
钥 0
钦 0
钧 0
钨 0
钩 0
钪 0
钫 0
钬 0
钭 0
钮 0
钯 0
钰 0
钱 0
钲 0
钳 0
钴 0
钵 0
钶 0
钷 0
钸 0
钹 0
钺 0
钻 0
钼 0
钽 0
钾 0
钿 0
铀 0
铁 0
铂 0
铃 0
铄 0
铅 0
铆 0
铇 0
铈 0
铉 0
铊 0
铋 0
铌 0
铍 0
铎 0
铏 0
铐 0
铑 0
铒 0
铓 0
铔 0
铕 0
铖 0
铗 0
铘 0
铙 0
铚 0
铛 0
铜 0
铝 0
铞 0
铟 0
铠 0
铡 0
铢 0
铣 0
铤 0
铥 0
铦 0
铧 0
铨 0
铩 0
铪 0
铫 0
铬 0
铭 0
铮 0
铯 0
铰 0
铱 0
铲 0
铳 0
铴 0
铵 0
银 0
铷 0
铸 0
铹 0
铺 0
铻 0
铼 0
铽 0
链 0
铿 0
销 0
锁 0
锂 0
锃 0
锄 0
锅 0
锆 0
锇 0
锈 0
锉 0
锊 0
锋 0
锌 0
锍 0
锎 0
锏 0
锐 0
锑 0
锒 0
锓 0
锔 0
锕 0
锖 0
锗 0
锘 0
错 0
锚 0
锛 0
锜 0
锝 0
锞 0
锟 0
锠 0
锡 0
锢 0
锣 0
锤 0
锥 0
锦 0
锧 0
锨 0
锩 0
锪 0
锫 0
锬 0
锭 0
键 0
锯 0
锰 0
锱 0
锲 0
锳 0
锴 0
锵 0
锶 0
锷 0
锸 0
锹 0
锺 0
锻 0
锼 0
锽 0
锾 0
锿 0
镀 0
镁 0
镂 0
镃 0
镄 0
镅 0
镆 0
镇 0
镈 0
镉 0
镊 0
镋 0
镌 0
镍 0
镎 0
镏 0
镐 0
镑 0
镒 0
镓 0
镔 0
镕 0
镖 0
镗 0
镘 0
镙 0
镚 0
镛 0
镜 0
镝 0
镞 0
镟 0
镠 0
镡 0
镢 0
镣 0
镤 0
镥 0
镦 0
镧 0
镨 0
镩 0
镪 0
镫 0
镬 0
镭 0
镮 0
镯 0
镰 0
镱 0
镲 0
镳 0
镴 0
镵 0
镶 0
長 0
镸 0
镹 0
镺 0
镻 0
镼 0
镽 0
镾 0
长 0
門 0
閁 0
閂 0
閃 0
閄 0
閅 0
閆 0
閇 0
閈 0
閉 0
閊 0
開 0
閌 0
閎 0
閏 0
閑 0
閒 0
間 0
閔 0
閕 0
閖 0
閗 0
閘 0
閙 0
閚 0
閛 0
閜 0
閞 0
閟 0
閠 0
閡 0
関 0
閣 0
閤 0
閥 0
閦 0
閧 0
閨 0
閩 0
閪 0
閫 0
閬 0
閭 0
閮 0
閯 0
閰 0
閱 0
閲 0
閳 0
閴 0
閵 0
閶 0
閷 0
閸 0
閹 0
閺 0
閻 0
閼 0
閽 0
閾 0
閿 0
闀 0
闁 0
闂 0
闃 0
闄 0
闅 0
闆 0
闇 0
闈 0
闉 0
闊 0
闋 0
闌 0
闍 0
闎 0
闏 0
闐 0
闑 0
闒 0
闓 0
闔 0
闕 0
闖 0
闗 0
闘 0
闚 0
闛 0
關 0
闝 0
闞 0
闟 0
闠 0
闡 0
闢 0
闣 0
闤 0
闥 0
闦 0
闧 0
门 0
闩 0
闪 0
闫 0
闬 0
闭 0
问 0
闯 0
闰 0
闱 0
闲 0
闳 0
间 0
闵 0
闶 0
闷 0
闸 0
闹 0
闺 0
闻 0
闼 0
闽 0
闾 0
闿 0
阀 0
阁 0
阂 0
阃 0
阄 0
阅 0
阆 0
阇 0
阈 0
阉 0
阊 0
阋 0
阌 0
阍 0
阎 0
阏 0
阐 0
阑 0
阒 0
阓 0
阔 0
阕 0
阖 0
阗 0
阘 0
阙 0
阚 0
阛 0
阜 0
阝 0
阞 0
队 0
阠 0
阡 0
阢 0
阣 0
阤 0
阥 0
阦 0
阧 0
阨 0
阩 0
阪 0
阫 0
阬 0
阭 0
阮 0
阯 0
阰 0
阱 0
防 0
阳 0
阴 0
阵 0
阶 0
阷 0
阸 0
阹 0
阺 0
阻 0
阼 0
阽 0
阾 0
阿 0
陀 0
陁 0
陂 0
陃 0
附 0
际 0
陆 0
陇 0
陈 0
陉 0
陊 0
陋 0
陌 0
降 0
陎 0
陏 0
限 0
陑 0
陓 0
陔 0
陕 0
陖 0
陗 0
陘 0
陙 0
陚 0
陛 0
陜 0
陝 0
陞 0
陟 0
陠 0
陡 0
院 0
陣 0
除 0
陥 0
陦 0
陧 0
陨 0
险 0
陪 0
陫 0
陬 0
陭 0
陮 0
陯 0
陰 0
陱 0
陲 0
陳 0
陴 0
陵 0
陶 0
陷 0
陸 0
陹 0
険 0
陻 0
陼 0
陽 0
陾 0
陿 0
隀 0
隁 0
隂 0
隃 0
隄 0
隅 0
隆 0
隇 0
隈 0
隉 0
隊 0
隋 0
隌 0
隍 0
階 0
随 0
隐 0
隑 0
隒 0
隓 0
隔 0
隕 0
隖 0
隗 0
隘 0
隙 0
隚 0
際 0
障 0
隝 0
隞 0
隟 0
隠 0
隡 0
隢 0
隣 0
隤 0
隥 0
隦 0
隧 0
隨 0
隩 0
險 0
隫 0
隬 0
隭 0
隮 0
隰 0
隱 0
隲 0
隳 0
隴 0
隵 0
隶 0
隷 0
隸 0
隹 0
隺 0
隻 0
隼 0
隽 0
难 0
隿 0
雀 0
雁 0
雂 0
雃 0
雄 0
雅 0
集 0
雇 0
雈 0
雉 0
雊 0
雋 0
雌 0
雍 0
雎 0
雏 0
雐 0
雑 0
雒 0
雓 0
雔 0
雕 0
雖 0
雗 0
雘 0
雙 0
雚 0
雛 0
雜 0
雝 0
雞 0
雟 0
雠 0
雡 0
離 0
難 0
雤 0
雥 0
雦 0
雧 0
雨 0
雩 0
雪 0
雫 0
雬 0
雭 0
雮 0
雯 0
雰 0
雱 0
雲 0
雳 0
雴 0
雵 0
零 0
雷 0
雸 0
雹 0
雺 0
電 0
雼 0
雽 0
雾 0
雿 0
需 0
霁 0
霂 0
霄 0
霅 0
霆 0
震 0
霈 0
霉 0
霊 0
霋 0
霍 0
霎 0
霏 0
霐 0
霑 0
霒 0
霓 0
霔 0
霕 0
霖 0
霗 0
霘 0
霙 0
霚 0
霛 0
霜 0
霝 0
霞 0
霟 0
霠 0
霡 0
霢 0
霣 0
霤 0
霥 0
霦 0
霧 0
霨 0
霩 0
霪 0
霫 0
霬 0
霭 0
霮 0
霯 0
霰 0
霱 0
露 0
霳 0
霴 0
霵 0
霶 0
霷 0
霸 0
霹 0
霺 0
霻 0
霼 0
霽 0
霾 0
霿 0
靀 0
靁 0
靂 0
靃 0
靄 0
靅 0
靆 0
靇 0
靈 0
靉 0
靊 0
靋 0
靌 0
靍 0
靎 0
靏 0
靐 0
靑 0
青 0
靓 0
靔 0
靕 0
靖 0
靗 0
靘 0
静 0
靚 0
靛 0
靜 0
靝 0
非 0
靟 0
靠 0
靡 0
面 0
靣 0
靤 0
靥 0
靦 0
靧 0
靨 0
革 0
靪 0
靫 0
靬 0
靭 0
靮 0
靯 0
靰 0
靱 0
靲 0
靳 0
靴 0
靵 0
靶 0
靷 0
靸 0
靹 0
靺 0
靻 0
靼 0
靽 0
靾 0
靿 0
鞀 0
鞁 0
鞂 0
鞃 0
鞄 0
鞅 0
鞆 0
鞇 0
鞈 0
鞉 0
鞊 0
鞋 0
鞌 0
鞍 0
鞎 0
鞏 0
鞐 0
鞑 0
鞒 0
鞓 0
鞔 0
鞕 0
鞖 0
鞗 0
鞘 0
鞙 0
鞚 0
鞜 0
鞞 0
鞟 0
鞠 0
鞡 0
鞢 0
鞣 0
鞤 0
鞥 0
鞦 0
鞧 0
鞨 0
鞩 0
鞪 0
鞫 0
鞬 0
鞭 0
鞮 0
鞯 0
鞰 0
鞱 0
鞲 0
鞳 0
鞴 0
鞵 0
鞶 0
鞷 0
鞸 0
鞹 0
鞺 0
鞻 0
鞼 0
鞽 0
鞾 0
鞿 0
韀 0
韁 0
韂 0
韃 0
韄 0
韅 0
韆 0
韇 0
韈 0
韉 0
韊 0
韋 0
韌 0
韍 0
韎 0
韏 0
韐 0
韑 0
韒 0
韓 0
韔 0
韕 0
韖 0
韗 0
韘 0
韙 0
韛 0
韜 0
韝 0
韞 0
韟 0
韠 0
韡 0
韣 0
韤 0
韥 0
韦 0
韧 0
韨 0
韩 0
韪 0
韫 0
韬 0
韭 0
韮 0
韯 0
韰 0
韱 0
韲 0
音 0
韴 0
韵 0
韶 0
韷 0
韸 0
韹 0
韺 0
韻 0
韼 0
韽 0
韾 0
響 0
頀 0
頁 0
頂 0
頃 0
頄 0
項 0
順 0
頇 0
須 0
頉 0
頊 0
頋 0
頌 0
頍 0
頎 0
頏 0
預 0
頑 0
頒 0
頓 0
頔 0
頕 0
頖 0
頗 0
領 0
頙 0
頚 0
頜 0
頝 0
頞 0
頟 0
頠 0
頡 0
頢 0
頣 0
頤 0
頥 0
頦 0
頧 0
頨 0
頩 0
頪 0
頫 0
頬 0
頭 0
頮 0
頯 0
頰 0
頱 0
頲 0
頳 0
頴 0
頵 0
頶 0
頷 0
頸 0
頹 0
頺 0
頻 0
頼 0
頽 0
頾 0
頿 0
顀 0
顁 0
顄 0
顅 0
顆 0
顇 0
顈 0
顉 0
顊 0
顋 0
題 0
額 0
顎 0
顏 0
顐 0
顑 0
顒 0
顓 0
顔 0
顕 0
顖 0
顗 0
願 0
顙 0
顚 0
顛 0
顜 0
顝 0
類 0
顟 0
顠 0
顡 0
顢 0
顣 0
顤 0
顥 0
顦 0
顧 0
顨 0
顩 0
顫 0
顬 0
顭 0
顯 0
顰 0
顱 0
顲 0
顳 0
顴 0
页 0
顶 0
顷 0
顸 0
项 0
顺 0
须 0
顼 0
顽 0
顾 0
顿 0
颀 0
颁 0
颂 0
颃 0
预 0
颅 0
领 0
颇 0
颈 0
颉 0
颊 0
颋 0
颌 0
颍 0
颎 0
颏 0
颐 0
频 0
颒 0
颓 0
颔 0
颕 0
颖 0
颗 0
题 0
颙 0
颚 0
颛 0
颜 0
额 0
颞 0
颟 0
颠 0
颡 0
颢 0
颣 0
颤 0
颥 0
颦 0
颧 0
風 0
颩 0
颪 0
颫 0
颬 0
颭 0
颮 0
颯 0
颰 0
颱 0
颲 0
颳 0
颴 0
颵 0
颶 0
颷 0
颸 0
颹 0
颺 0
颻 0
颼 0
颽 0
颾 0
颿 0
飀 0
飁 0
飂 0
飃 0
飄 0
飅 0
飆 0
飇 0
飈 0
飉 0
飊 0
飋 0
飌 0
飍 0
风 0
飏 0
飐 0
飑 0
飒 0
飓 0
飔 0
飕 0
飖 0
飗 0
飘 0
飙 0
飚 0
飛 0
飜 0
飝 0
飞 0
食 0
飠 0
飡 0
飢 0
飣 0
飤 0
飥 0
飧 0
飨 0
飩 0
飪 0
飫 0
飬 0
飭 0
飮 0
飯 0
飰 0
飱 0
飲 0
飳 0
飴 0
飵 0
飶 0
飷 0
飸 0
飹 0
飺 0
飻 0
飼 0
飽 0
飾 0
飿 0
餀 0
餁 0
餂 0
餃 0
餄 0
餅 0
餆 0
餇 0
餈 0
餉 0
養 0
餋 0
餌 0
餍 0
餎 0
餏 0
餐 0
餑 0
餒 0
餓 0
餔 0
餕 0
餖 0
餗 0
餘 0
餙 0
餚 0
餛 0
餜 0
餝 0
餞 0
餟 0
餠 0
餡 0
餢 0
餣 0
餤 0
餥 0
餦 0
餧 0
館 0
餩 0
餪 0
餫 0
餬 0
餭 0
餮 0
餯 0
餰 0
餱 0
餲 0
餳 0
餴 0
餵 0
餶 0
餷 0
餸 0
餹 0
餺 0
餻 0
餼 0
餽 0
餾 0
餿 0
饀 0
饁 0
饂 0
饃 0
饄 0
饅 0
饆 0
饈 0
饉 0
饊 0
饋 0
饌 0
饍 0
饎 0
饏 0
饐 0
饑 0
饒 0
饓 0
饔 0
饕 0
饖 0
饗 0
饘 0
饙 0
饚 0
饛 0
饜 0
饝 0
饞 0
饟 0
饠 0
饡 0
饢 0
饣 0
饤 0
饥 0
饦 0
饧 0
饨 0
饩 0
饪 0
饫 0
饬 0
饭 0
饮 0
饯 0
饰 0
饱 0
饲 0
饳 0
饴 0
饵 0
饶 0
饷 0
饸 0
饹 0
饺 0
饻 0
饼 0
饽 0
饾 0
饿 0
馀 0
馁 0
馂 0
馃 0
馄 0
馅 0
馆 0
馇 0
馈 0
馉 0
馊 0
馋 0
馌 0
馍 0
馎 0
馏 0
馐 0
馑 0
馒 0
馓 0
馔 0
馕 0
首 0
馗 0
馘 0
香 0
馚 0
馛 0
馜 0
馝 0
馞 0
馟 0
馠 0
馡 0
馢 0
馣 0
馤 0
馥 0
馦 0
馧 0
馨 0
馪 0
馫 0
馬 0
馭 0
馮 0
馯 0
馰 0
馱 0
馲 0
馳 0
馴 0
馵 0
馶 0
馷 0
馸 0
馹 0
馺 0
馻 0
馼 0
馽 0
馾 0
馿 0
駀 0
駁 0
駂 0
駃 0
駄 0
駅 0
駆 0
駇 0
駈 0
駉 0
駊 0
駋 0
駌 0
駍 0
駏 0
駐 0
駑 0
駒 0
駓 0
駔 0
駕 0
駖 0
駗 0
駘 0
駙 0
駛 0
駜 0
駝 0
駞 0
駟 0
駠 0
駡 0
駢 0
駣 0
駤 0
駥 0
駦 0
駨 0
駩 0
駪 0
駬 0
駭 0
駮 0
駯 0
駰 0
駱 0
駲 0
駳 0
駴 0
駵 0
駷 0
駸 0
駹 0
駺 0
駻 0
駼 0
駽 0
駾 0
駿 0
騀 0
騁 0
騂 0
騃 0
騄 0
騅 0
騆 0
騈 0
騉 0
騊 0
騋 0
騌 0
騍 0
騎 0
騏 0
騐 0
騑 0
騒 0
験 0
騔 0
騕 0
騖 0
騗 0
騘 0
騙 0
騚 0
騛 0
騜 0
騞 0
騟 0
騠 0
騡 0
騢 0
騣 0
騤 0
騥 0
騦 0
騧 0
騨 0
騩 0
騪 0
騫 0
騬 0
騭 0
騮 0
騯 0
騰 0
騱 0
騲 0
騳 0
騴 0
騵 0
騶 0
騷 0
騸 0
騹 0
騺 0
騻 0
騽 0
騾 0
騿 0
驀 0
驁 0
驂 0
驃 0
驄 0
驅 0
驆 0
驈 0
驉 0
驊 0
驌 0
驍 0
驎 0
驏 0
驐 0
驑 0
驒 0
驓 0
驔 0
驕 0
驖 0
驗 0
驘 0
驙 0
驚 0
驛 0
驜 0
驝 0
驞 0
驟 0
驠 0
驡 0
驢 0
驣 0
驤 0
驥 0
驦 0
驧 0
驩 0
驪 0
驫 0
马 0
驭 0
驮 0
驯 0
驰 0
驱 0
驲 0
驳 0
驴 0
驵 0
驶 0
驷 0
驸 0
驹 0
驺 0
驻 0
驼 0
驽 0
驾 0
驿 0
骀 0
骁 0
骂 0
骃 0
骄 0
骅 0
骆 0
骇 0
骈 0
骉 0
骊 0
骋 0
验 0
骍 0
骎 0
骏 0
骐 0
骑 0
骒 0
骓 0
骔 0
骕 0
骖 0
骗 0
骘 0
骙 0
骚 0
骛 0
骜 0
骝 0
骞 0
骟 0
骠 0
骡 0
骢 0
骣 0
骤 0
骥 0
骦 0
骧 0
骨 0
骩 0
骫 0
骭 0
骮 0
骯 0
骰 0
骱 0
骲 0
骳 0
骴 0
骵 0
骶 0
骷 0
骸 0
骹 0
骺 0
骻 0
骼 0
骽 0
骾 0
骿 0
髀 0
髁 0
髂 0
髃 0
髄 0
髅 0
髆 0
髇 0
髈 0
髉 0
髊 0
髋 0
髌 0
髍 0
髎 0
髏 0
髐 0
髑 0
髒 0
髓 0
體 0
髕 0
髖 0
髗 0
高 0
髙 0
髚 0
髛 0
髜 0
髝 0
髞 0
髟 0
髠 0
髡 0
髢 0
髣 0
髤 0
髥 0
髦 0
髧 0
髨 0
髩 0
髪 0
髫 0
髬 0
髭 0
髮 0
髯 0
髰 0
髱 0
髲 0
髳 0
髴 0
髵 0
髶 0
髷 0
髸 0
髹 0
髺 0
髻 0
髼 0
髽 0
髾 0
髿 0
鬀 0
鬁 0
鬂 0
鬃 0
鬄 0
鬅 0
鬆 0
鬇 0
鬈 0
鬉 0
鬊 0
鬋 0
鬌 0
鬍 0
鬎 0
鬏 0
鬐 0
鬑 0
鬒 0
鬓 0
鬔 0
鬕 0
鬖 0
鬗 0
鬘 0
鬙 0
鬚 0
鬛 0
鬜 0
鬝 0
鬞 0
鬟 0
鬠 0
鬡 0
鬢 0
鬣 0
鬤 0
鬥 0
鬦 0
鬧 0
鬨 0
鬩 0
鬪 0
鬫 0
鬬 0
鬭 0
鬮 0
鬯 0
鬰 0
鬱 0
鬲 0
鬳 0
鬴 0
鬵 0
鬶 0
鬷 0
鬸 0
鬹 0
鬺 0
鬻 0
鬼 0
鬽 0
鬾 0
鬿 0
魀 0
魁 0
魂 0
魃 0
魄 0
魅 0
魆 0
魇 0
魈 0
魉 0
魊 0
魋 0
魌 0
魍 0
魎 0
魏 0
魐 0
魑 0
魒 0
魓 0
魔 0
魕 0
魖 0
魗 0
魘 0
魙 0
魚 0
魛 0
魜 0
魝 0
魞 0
魟 0
魠 0
魡 0
魢 0
魣 0
魤 0
魥 0
魦 0
魧 0
魨 0
魩 0
魫 0
魬 0
魭 0
魮 0
魯 0
魰 0
魱 0
魲 0
魳 0
魴 0
魶 0
魷 0
魸 0
魹 0
魺 0
魻 0
魼 0
魽 0
魾 0
魿 0
鮀 0
鮁 0
鮂 0
鮃 0
鮄 0
鮅 0
鮆 0
鮇 0
鮈 0
鮉 0
鮊 0
鮋 0
鮌 0
鮍 0
鮎 0
鮏 0
鮐 0
鮑 0
鮒 0
鮓 0
鮔 0
鮕 0
鮖 0
鮗 0
鮘 0
鮙 0
鮚 0
鮜 0
鮝 0
鮞 0
鮟 0
鮠 0
鮡 0
鮢 0
鮣 0
鮤 0
鮥 0
鮦 0
鮧 0
鮨 0
鮩 0
鮪 0
鮫 0
鮬 0
鮭 0
鮮 0
鮯 0
鮰 0
鮱 0
鮲 0
鮴 0
鮶 0
鮷 0
鮸 0
鮹 0
鮻 0
鮼 0
鮽 0
鮾 0
鮿 0
鯀 0
鯁 0
鯃 0
鯅 0
鯆 0
鯇 0
鯈 0
鯉 0
鯊 0
鯋 0
鯎 0
鯏 0
鯑 0
鯒 0
鯓 0
鯔 0
鯕 0
鯖 0
鯗 0
鯘 0
鯙 0
鯚 0
鯛 0
鯜 0
鯝 0
鯟 0
鯠 0
鯡 0
鯢 0
鯣 0
鯤 0
鯥 0
鯦 0
鯧 0
鯨 0
鯩 0
鯪 0
鯫 0
鯭 0
鯮 0
鯯 0
鯰 0
鯱 0
鯲 0
鯳 0
鯵 0
鯶 0
鯷 0
鯸 0
鯹 0
鯺 0
鯻 0
鯼 0
鯽 0
鯾 0
鯿 0
鰀 0
鰁 0
鰂 0
鰃 0
鰄 0
鰅 0
鰆 0
鰇 0
鰈 0
鰉 0
鰊 0
鰋 0
鰌 0
鰍 0
鰎 0
鰏 0
鰐 0
鰒 0
鰓 0
鰔 0
鰕 0
鰖 0
鰗 0
鰘 0
鰙 0
鰚 0
鰛 0
鰜 0
鰝 0
鰟 0
鰠 0
鰡 0
鰢 0
鰣 0
鰤 0
鰥 0
鰧 0
鰨 0
鰩 0
鰪 0
鰫 0
鰬 0
鰭 0
鰮 0
鰯 0
鰰 0
鰱 0
鰲 0
鰳 0
鰴 0
鰵 0
鰶 0
鰷 0
鰸 0
鰹 0
鰺 0
鰻 0
鰼 0
鰽 0
鰾 0
鰿 0
鱀 0
鱁 0
鱂 0
鱃 0
鱄 0
鱅 0
鱆 0
鱇 0
鱈 0
鱉 0
鱊 0
鱋 0
鱌 0
鱍 0
鱎 0
鱏 0
鱐 0
鱑 0
鱒 0
鱓 0
鱔 0
鱕 0
鱖 0
鱗 0
鱘 0
鱙 0
鱚 0
鱛 0
鱜 0
鱝 0
鱞 0
鱟 0
鱠 0
鱡 0
鱢 0
鱣 0
鱤 0
鱥 0
鱦 0
鱧 0
鱨 0
鱩 0
鱪 0
鱫 0
鱬 0
鱭 0
鱮 0
鱯 0
鱰 0
鱱 0
鱲 0
鱳 0
鱴 0
鱵 0
鱶 0
鱷 0
鱸 0
鱹 0
鱺 0
鱻 0
鱼 0
鱽 0
鱾 0
鱿 0
鲀 0
鲁 0
鲂 0
鲃 0
鲄 0
鲅 0
鲆 0
鲇 0
鲈 0
鲉 0
鲊 0
鲋 0
鲌 0
鲍 0
鲎 0
鲏 0
鲐 0
鲑 0
鲒 0
鲓 0
鲔 0
鲕 0
鲖 0
鲗 0
鲘 0
鲙 0
鲚 0
鲛 0
鲜 0
鲝 0
鲞 0
鲟 0
鲠 0
鲡 0
鲢 0
鲣 0
鲤 0
鲥 0
鲦 0
鲧 0
鲨 0
鲩 0
鲪 0
鲫 0
鲬 0
鲭 0
鲮 0
鲯 0
鲰 0
鲱 0
鲲 0
鲳 0
鲴 0
鲵 0
鲶 0
鲷 0
鲸 0
鲹 0
鲺 0
鲻 0
鲼 0
鲽 0
鲾 0
鲿 0
鳀 0
鳁 0
鳂 0
鳃 0
鳄 0
鳅 0
鳆 0
鳇 0
鳈 0
鳉 0
鳊 0
鳋 0
鳌 0
鳍 0
鳎 0
鳏 0
鳐 0
鳑 0
鳒 0
鳓 0
鳔 0
鳕 0
鳖 0
鳗 0
鳘 0
鳙 0
鳚 0
鳛 0
鳜 0
鳝 0
鳞 0
鳟 0
鳠 0
鳡 0
鳢 0
鳣 0
鳤 0
鳥 0
鳦 0
鳧 0
鳩 0
鳪 0
鳫 0
鳬 0
鳭 0
鳮 0
鳯 0
鳰 0
鳱 0
鳲 0
鳳 0
鳴 0
鳵 0
鳶 0
鳷 0
鳸 0
鳹 0
鳺 0
鳻 0
鳽 0
鳾 0
鳿 0
鴀 0
鴁 0
鴂 0
鴃 0
鴄 0
鴅 0
鴆 0
鴇 0
鴈 0
鴉 0
鴊 0
鴋 0
鴌 0
鴎 0
鴏 0
鴐 0
鴑 0
鴒 0
鴓 0
鴔 0
鴕 0
鴖 0
鴗 0
鴘 0
鴙 0
鴚 0
鴛 0
鴜 0
鴝 0
鴞 0
鴟 0
鴠 0
鴡 0
鴢 0
鴣 0
鴤 0
鴥 0
鴦 0
鴧 0
鴨 0
鴩 0
鴪 0
鴫 0
鴬 0
鴭 0
鴮 0
鴯 0
鴰 0
鴲 0
鴳 0
鴴 0
鴵 0
鴶 0
鴷 0
鴸 0
鴹 0
鴺 0
鴻 0
鴼 0
鴽 0
鴾 0
鴿 0
鵀 0
鵁 0
鵂 0
鵃 0
鵄 0
鵅 0
鵆 0
鵉 0
鵊 0
鵋 0
鵌 0
鵍 0
鵎 0
鵏 0
鵐 0
鵑 0
鵒 0
鵓 0
鵔 0
鵕 0
鵖 0
鵗 0
鵘 0
鵙 0
鵚 0
鵜 0
鵝 0
鵞 0
鵟 0
鵠 0
鵡 0
鵢 0
鵣 0
鵤 0
鵦 0
鵧 0
鵨 0
鵩 0
鵪 0
鵫 0
鵬 0
鵭 0
鵮 0
鵯 0
鵰 0
鵱 0
鵲 0
鵳 0
鵴 0
鵵 0
鵶 0
鵷 0
鵸 0
鵹 0
鵺 0
鵻 0
鵼 0
鵽 0
鵾 0
鵿 0
鶀 0
鶁 0
鶂 0
鶃 0
鶄 0
鶅 0
鶆 0
鶇 0
鶈 0
鶉 0
鶊 0
鶋 0
鶍 0
鶎 0
鶏 0
鶐 0
鶑 0
鶒 0
鶓 0
鶕 0
鶖 0
鶗 0
鶘 0
鶚 0
鶛 0
鶜 0
鶝 0
鶞 0
鶠 0
鶡 0
鶢 0
鶣 0
鶤 0
鶥 0
鶧 0
鶨 0
鶩 0
鶪 0
鶫 0
鶬 0
鶮 0
鶯 0
鶱 0
鶲 0
鶳 0
鶴 0
鶵 0
鶶 0
鶷 0
鶸 0
鶹 0
鶺 0
鶻 0
鶼 0
鶽 0
鶾 0
鶿 0
鷀 0
鷁 0
鷂 0
鷃 0
鷄 0
鷅 0
鷆 0
鷇 0
鷈 0
鷉 0
鷊 0
鷋 0
鷍 0
鷎 0
鷏 0
鷑 0
鷒 0
鷓 0
鷕 0
鷖 0
鷗 0
鷘 0
鷙 0
鷚 0
鷛 0
鷜 0
鷝 0
鷞 0
鷟 0
鷡 0
鷢 0
鷤 0
鷥 0
鷦 0
鷧 0
鷨 0
鷩 0
鷪 0
鷫 0
鷬 0
鷭 0
鷮 0
鷯 0
鷰 0
鷱 0
鷲 0
鷳 0
鷴 0
鷵 0
鷶 0
鷸 0
鷹 0
鷺 0
鷻 0
鷽 0
鷾 0
鷿 0
鸀 0
鸁 0
鸂 0
鸃 0
鸅 0
鸆 0
鸇 0
鸈 0
鸉 0
鸊 0
鸌 0
鸍 0
鸎 0
鸏 0
鸐 0
鸑 0
鸒 0
鸓 0
鸔 0
鸕 0
鸖 0
鸗 0
鸘 0
鸙 0
鸚 0
鸛 0
鸜 0
鸝 0
鸞 0
鸟 0
鸠 0
鸡 0
鸢 0
鸣 0
鸤 0
鸥 0
鸦 0
鸧 0
鸨 0
鸩 0
鸪 0
鸫 0
鸬 0
鸭 0
鸮 0
鸯 0
鸰 0
鸱 0
鸲 0
鸳 0
鸴 0
鸵 0
鸶 0
鸷 0
鸸 0
鸹 0
鸺 0
鸻 0
鸼 0
鸽 0
鸾 0
鸿 0
鹀 0
鹁 0
鹂 0
鹃 0
鹄 0
鹅 0
鹆 0
鹇 0
鹈 0
鹉 0
鹊 0
鹋 0
鹌 0
鹍 0
鹎 0
鹏 0
鹐 0
鹑 0
鹒 0
鹓 0
鹔 0
鹕 0
鹖 0
鹗 0
鹘 0
鹙 0
鹚 0
鹛 0
鹜 0
鹝 0
鹞 0
鹟 0
鹠 0
鹡 0
鹢 0
鹣 0
鹤 0
鹥 0
鹦 0
鹧 0
鹨 0
鹩 0
鹪 0
鹫 0
鹬 0
鹭 0
鹮 0
鹯 0
鹰 0
鹱 0
鹲 0
鹳 0
鹴 0
鹵 0
鹶 0
鹷 0
鹸 0
鹹 0
鹺 0
鹻 0
鹼 0
鹽 0
鹾 0
鹿 0
麀 0
麁 0
麂 0
麃 0
麄 0
麅 0
麆 0
麇 0
麈 0
麉 0
麊 0
麋 0
麌 0
麍 0
麎 0
麏 0
麐 0
麑 0
麒 0
麓 0
麔 0
麕 0
麖 0
麗 0
麘 0
麙 0
麚 0
麛 0
麜 0
麝 0
麞 0
麟 0
麠 0
麡 0
麢 0
麣 0
麤 0
麥 0
麦 0
麧 0
麨 0
麩 0
麪 0
麫 0
麭 0
麮 0
麯 0
麰 0
麱 0
麳 0
麴 0
麵 0
麶 0
麷 0
麸 0
麹 0
麺 0
麻 0
麼 0
麽 0
麾 0
麿 0
黀 0
黁 0
黂 0
黃 0
黄 0
黅 0
黆 0
黇 0
黈 0
黉 0
黊 0
黌 0
黍 0
黎 0
黏 0
黐 0
黑 0
黒 0
黓 0
黔 0
黕 0
黖 0
黗 0
默 0
黙 0
黚 0
黛 0
黜 0
黝 0
點 0
黟 0
黠 0
黡 0
黢 0
黣 0
黤 0
黥 0
黦 0
黧 0
黨 0
黩 0
黪 0
黫 0
黬 0
黭 0
黮 0
黯 0
黰 0
黱 0
黲 0
黳 0
黴 0
黵 0
黶 0
黷 0
黸 0
黹 0
黺 0
黻 0
黼 0
黽 0
黾 0
黿 0
鼀 0
鼁 0
鼂 0
鼃 0
鼄 0
鼅 0
鼆 0
鼇 0
鼈 0
鼉 0
鼊 0
鼋 0
鼌 0
鼍 0
鼎 0
鼏 0
鼐 0
鼑 0
鼒 0
鼓 0
鼔 0
鼕 0
鼖 0
鼗 0
鼘 0
鼙 0
鼚 0
鼛 0
鼜 0
鼝 0
鼞 0
鼟 0
鼠 0
鼡 0
鼢 0
鼣 0
鼤 0
鼥 0
鼦 0
鼧 0
鼩 0
鼪 0
鼫 0
鼬 0
鼭 0
鼮 0
鼯 0
鼰 0
鼱 0
鼲 0
鼳 0
鼴 0
鼵 0
鼶 0
鼷 0
鼸 0
鼹 0
鼺 0
鼻 0
鼼 0
鼽 0
鼾 0
鼿 0
齀 0
齁 0
齂 0
齃 0
齄 0
齅 0
齆 0
齇 0
齈 0
齉 0
齊 0
齋 0
齌 0
齍 0
齎 0
齏 0
齐 0
齑 0
齒 0
齓 0
齔 0
齕 0
齖 0
齗 0
齘 0
齙 0
齚 0
齛 0
齜 0
齝 0
齞 0
齟 0
齠 0
齡 0
齢 0
齣 0
齤 0
齥 0
齦 0
齧 0
齨 0
齪 0
齫 0
齬 0
齭 0
齮 0
齯 0
齰 0
齱 0
齲 0
齳 0
齵 0
齶 0
齷 0
齸 0
齹 0
齺 0
齻 0
齼 0
齽 0
齾 0
齿 0
龀 0
龁 0
龂 0
龃 0
龄 0
龅 0
龆 0
龇 0
龈 0
龉 0
龊 0
龋 0
龌 0
龍 0
龎 0
龏 0
龐 0
龑 0
龔 0
龕 0
龖 0
龗 0
龘 0
龙 0
龚 0
龛 0
龜 0
龝 0
龞 0
龟 0
龠 0
龡 0
龢 0
龣 0
龤 0
龥 0
龰 0
龹 0
龺 0
龻 0
鿃 0
鿍 0
鿎 0
鿏 0
鿔 0
鿕 0
鿞 0
鿠 0
鿫 0
鿬 0
鿿 0
ꀋ 0
ꀒ 0
ꁈ 0
ꂤ 0
ꂵ 0
ꂷ 0
ꃄ 0
ꃅ 0
ꄡ 0
ꄬ 0
ꄿ 0
ꆃ 0
ꆈ 0
ꆨ 0
ꆪ 0
ꇁ 0
ꇊ 0
ꇖ 0
ꇗ 0
ꈎ 0
ꈐ 0
ꈵ 0
ꈿ 0
ꉙ 0
ꉳ 0
ꉸ 0
ꉼ 0
ꊖ 0
ꊨ 0
ꊰ 0
ꋍ 0
ꌅ 0
ꌕ 0
ꌠ 0
ꍓ 0
ꎖ 0
ꎭ 0
ꏂ 0
ꏃ 0
ꏅ 0
ꏦ 0
ꐎ 0
꒰ 0
꒱ 0
ꓗ 0
ꓚ 0
ꓛ 0
ꓝ 0
ꓟ 0
ꓠ 0
ꓡ 0
ꓢ 0
ꓪ 0
ꓫ 0
ꓬ 0
ꓲ 0
ꓳ 0
ꓴ 0
ꓵ 0
ꓸ 0
ꓼ 0
ꓽ 0
꓾ 0
꓿ 0
꘍ 0
꘎ 0
꘏ 0
Ꙁ 0
ꙁ 0
ꙃ 0
ꙅ 0
Ꙇ 0
ꙇ 0
Ꙉ 0
ꙉ 0
Ꙏ 0
ꙏ 0
Ꙑ 0
ꙑ 0
ꙓ 0
ꙕ 0
Ꙗ 0
ꙗ 0
Ꙟ 0
ꙟ 0
Ꙡ 0
ꙡ 0
Ꙣ 0
ꙣ 0
Ꙥ 0
ꙥ 0
Ꙧ 0
ꙧ 0
Ꙩ 0
ꙩ 0
Ꙫ 0
ꙫ 0
Ꙭ 0
ꙭ 0
ꙮ 0
꙰ 0
꙱ 0
꙲ 0
꙳ 0
꙾ 0
Ꚁ 0
ꚁ 0
Ꚃ 0
ꚃ 0
Ꚅ 0
ꚅ 0
Ꚉ 0
ꚉ 0
Ꚋ 0
ꚋ 0
Ꚍ 0
ꚍ 0
Ꚏ 0
ꚏ 0
Ꚑ 0
ꚑ 0
Ꚗ 0
ꚗ 0
Ꚙ 0
ꚙ 0
Ꚛ 0
ꚛ 0
꛲ 0
꛳ 0
꛴ 0
꛵ 0
꛶ 0
꛷ 0
꜀ 0
꜁ 0
꜂ 0
꜃ 0
꜄ 0
꜅ 0
꜆ 0
꜇ 0
꜓ 0
ꜛ 0
ꜜ 0
ꜣ 0
ꜥ 0
ꜩ 0
ꜫ 0
ꜭ 0
ꝏ 0
Ꝛ 0
ꞅ 0
ꞎ 0
Ꞓ 0
Ʞ 0
ꞵ 0
ꠁ 0
ꠇ 0
ꠊ 0
ꠍ 0
ꠐ 0
ꠘ 0
ꠟ 0
ꠣ 0
ꠤ 0
꡴ 0
꡵ 0
꡶ 0
꡷ 0
꣎ 0
꣏ 0
꣸ 0
꣹ 0
꣺ 0
꣼ 0
꤮ 0
꤯ 0
꥟ 0
ꦑ 0
ꦗ 0
ꦠ 0
ꦢ 0
ꦥ 0
ꦩ 0
ꦪ 0
ꦭ 0
ꦮ 0
ꦯ 0
ꦱ 0
ꦲ 0
ꦴ 0
ꦺ 0
ꦿ 0
꧀ 0
꧁ 0
꧂ 0
꧃ 0
꧄ 0
꧅ 0
꧆ 0
꧇ 0
꧈ 0
꧉ 0
꧊ 0
꧋ 0
꧌ 0
꧍ 0
꧞ 0
꧟ 0
ꨈ 0
ꨝ 0
ꨰ 0
ꩉ 0
꩜ 0
꩝ 0
꩞ 0
꩟ 0
꫞ 0
꫟ 0
꫰ 0
꫱ 0
ꭓ 0
꯫ 0
﨎 0
﨏 0
﨑 0
﨔 0
﨡 0
﨣 0
﨤 0
﨧 0
﨨 0
﨩 0
ﬀ 0
ﬁ 0
ﬂ 0
ﬃ 0
ﬄ 0
ﬅ 0
ﬆ 0
ﭼ 0
ﮪ 0
ﮭ 0
ﮮ 0
ﯩ 0
﴾ 0
﴿ 0
ﷲ 0
ﷺ 0
﷼ 0
︐ 0
︑ 0
︒ 0
︓ 0
︔ 0
︕ 0
︖ 0
︗ 0
︘ 0
︙ 0
︰ 0
︱ 0
︲ 0
︳ 0
︴ 0
︵ 0
︶ 0
︷ 0
︸ 0
︹ 0
︺ 0
︻ 0
︼ 0
︽ 0
︾ 0
︿ 0
﹀ 0
﹁ 0
﹂ 0
﹃ 0
﹄ 0
﹅ 0
﹆ 0
﹇ 0
﹈ 0
﹉ 0
﹊ 0
﹋ 0
﹌ 0
﹍ 0
﹎ 0
﹏ 0
﹐ 0
﹑ 0
﹒ 0
﹔ 0
﹕ 0
﹖ 0
﹗ 0
﹘ 0
﹙ 0
﹚ 0
﹛ 0
﹜ 0
﹝ 0
﹞ 0
﹟ 0
﹠ 0
﹡ 0
﹢ 0
﹣ 0
﹤ 0
﹥ 0
﹦ 0
﹨ 0
﹩ 0
﹪ 0
﹫ 0
ﹰ 0
ﺁ 0
ﺍ 0
ﺎ 0
ﺐ 0
ﺑ 0
ﺒ 0
ﺓ 0
ﺔ 0
ﺙ 0
ﺝ 0
ﺡ 0
ﺣ 0
ﺤ 0
ﺩ 0
ﺪ 0
ﺭ 0
ﺮ 0
ﻉ 0
ﻋ 0
ﻌ 0
ﻍ 0
ﻐ 0
ﻓ 0
ﻔ 0
ﻕ 0
ﻙ 0
ﻞ 0
ﻟ 0
ﻠ 0
ﻣ 0
ﻧ 0
ﻪ 0
ﻫ 0
ﻬ 0
ﻭ 0
ﻮ 0
ﻱ 0
ﻲ 0
ﻴ 0
ﻻ 0
＀ 0
！ 0
＂ 0
＃ 0
＄ 0
％ 0
＆ 0
＇ 0
（ 0
） 0
＊ 0
＋ 0
， 0
－ 0
． 0
／ 0
０ 0
１ 0
２ 0
３ 0
４ 0
５ 0
６ 0
７ 0
８ 0
９ 0
： 0
； 0
＜ 0
＝ 0
＞ 0
？ 0
＠ 0
Ａ 0
Ｂ 0
Ｃ 0
Ｄ 0
Ｅ 0
Ｆ 0
Ｇ 0
Ｈ 0
Ｉ 0
Ｊ 0
Ｋ 0
Ｌ 0
Ｍ 0
Ｎ 0
Ｏ 0
Ｐ 0
Ｑ 0
Ｒ 0
Ｓ 0
Ｔ 0
Ｕ 0
Ｖ 0
Ｗ 0
Ｘ 0
Ｙ 0
Ｚ 0
［ 0
＼ 0
］ 0
＾ 0
＿ 0
｀ 0
ａ 0
ｂ 0
ｃ 0
ｄ 0
ｅ 0
ｆ 0
ｇ 0
ｈ 0
ｉ 0
ｊ 0
ｋ 0
ｌ 0
ｍ 0
ｎ 0
ｏ 0
ｐ 0
ｑ 0
ｒ 0
ｓ 0
ｔ 0
ｕ 0
ｖ 0
ｗ 0
ｘ 0
ｙ 0
ｚ 0
｛ 0
｜ 0
｝ 0
～ 0
｟ 0
｠ 0
｡ 0
｢ 0
｣ 0
､ 0
･ 0
ｦ 0
ｧ 0
ｨ 0
ｪ 0
ｫ 0
ｬ 0
ｭ 0
ｯ 0
ｰ 0
ｱ 0
ｲ 0
ｳ 0
ｴ 0
ｵ 0
ｶ 0
ｷ 0
ｸ 0
ｹ 0
ｺ 0
ｻ 0
ｼ 0
ｽ 0
ｾ 0
ｿ 0
ﾀ 0
ﾁ 0
ﾂ 0
ﾃ 0
ﾄ 0
ﾅ 0
ﾆ 0
ﾈ 0
ﾉ 0
ﾊ 0
ﾋ 0
ﾌ 0
ﾍ 0
ﾎ 0
ﾏ 0
ﾐ 0
ﾑ 0
ﾒ 0
ﾓ 0
ﾔ 0
ﾕ 0
ﾗ 0
ﾘ 0
ﾙ 0
ﾚ 0
ﾛ 0
ﾜ 0
ﾝ 0
ﾞ 0
ﾟ 0
ￚ 0
￠ 0
￡ 0
￢ 0
￣ 0
￤ 0
￥ 0
￦ 0
￭ 0
￮ 0
￳ 0
￼ 0
𐀁 0
𐀄 0
𐀈 0
𐀏 0
𐀙 0
𐀣 0
𐀩 0
𐀫 0
𐀭 0
𐀯 0
𐀷 0
𐄀 0
𐄁 0
𐄂 0
𐇐 0
𐇑 0
𐇒 0
𐇓 0
𐇔 0
𐇕 0
𐇖 0
𐇗 0
𐇘 0
𐇙 0
𐇚 0
𐇛 0
𐇜 0
𐇝 0
𐇞 0
𐇟 0
𐇠 0
𐇡 0
𐇢 0
𐇣 0
𐇤 0
𐇥 0
𐇦 0
𐇧 0
𐇨 0
𐇩 0
𐇪 0
𐇫 0
𐇬 0
𐇭 0
𐇮 0
𐇯 0
𐇰 0
𐇱 0
𐇲 0
𐇳 0
𐇴 0
𐇵 0
𐇶 0
𐇷 0
𐇸 0
𐇹 0
𐇺 0
𐇻 0
𐇼 0
𐌀 0
𐌄 0
𐌉 0
𐌓 0
𐌕 0
𐌰 0
𐌳 0
𐌻 0
𐌼 0
𐌿 0
𐍈 0
𐎊 0
𐎌 0
𐎍 0
𐎗 0
𐎛 0
𐎟 0
𐎠 0
𐎡 0
𐎢 0
𐎣 0
𐎧 0
𐎩 0
𐎭 0
𐎰 0
𐎱 0
𐎴 0
𐎶 0
𐎹 0
𐎺 0
𐎼 0
𐎿 0
𐏁 0
𐏂 0
𐏃 0
𐏐 0
𐐷 0
𐓁 0
𐓂 0
𐓏 0
𐓘 0
𐓟 0
𐓣 0
𐓤 0
𐓯 0
𐓻 0
𐕯 0
𐡗 0
𐤀 0
𐤃 0
𐤄 0
𐤅 0
𐤇 0
𐤉 0
𐤌 0
𐤏 0
𐤟 0
𐤿 0
𐩐 0
𐩑 0
𐩒 0
𐩓 0
𐩔 0
𐩕 0
𐩖 0
𐩗 0
𐩘 0
𐩢 0
𐩣 0
𐩧 0
𐩨 0
𐩪 0
𐩬 0
𐩯 0
𐩱 0
𐩵 0
𐩶 0
𐩺 0
𐩽 0
𐩿 0
𐫰 0
𐫱 0
𐫲 0
𐫳 0
𐫴 0
𐫵 0
𐫶 0
𐬹 0
𐬺 0
𐬻 0
𐬼 0
𐬽 0
𐬾 0
𐬿 0
𐭀 0
𐭃 0
𐭉 0
𐭎 0
𐭐 0
𐭓 0
𐭕 0
𐭠 0
𐭢 0
𐭣 0
𐭥 0
𐭦 0
𐭧 0
𐭩 0
𐭪 0
𐭫 0
𐭬 0
𐭭 0
𐭮 0
𐭯 0
𐭱 0
𐭲 0
𐮙 0
𐮚 0
𐮛 0
𐮜 0
𐰇 0
𐰉 0
𐰍 0
𐰛 0
𐰜 0
𐰰 0
𐰲 0
𐰼 0
𐱃 0
𐱅 0
𐽕 0
𐽖 0
𐽗 0
𐽘 0
𐽙 0
𑁇 0
𑁈 0
𑁉 0
𑁊 0
𑁋 0
𑁌 0
𑁍 0
𑂻 0
𑂼 0
𑂾 0
𑂿 0
𑃀 0
𑃁 0
𑅀 0
𑅁 0
𑅂 0
𑅃 0
𑅴 0
𑅵 0
𑇅 0
𑇆 0
𑇇 0
𑇈 0
𑇍 0
𑇛 0
𑇝 0
𑇞 0
𑇟 0
𑈸 0
𑈹 0
𑈺 0
𑈻 0
𑈼 0
𑈽 0
𑊩 0
𑑋 0
𑑌 0
𑑍 0
𑑎 0
𑑏 0
𑑛 0
𑑝 0
𑓆 0
𑖕 0
𑖗 0
𑖦 0
𑖨 0
𑖪 0
𑖫 0
𑖮 0
𑖯 0
𑖰 0
𑖱 0
𑗁 0
𑗂 0
𑗃 0
𑗄 0
𑗅 0
𑗆 0
𑗇 0
𑗈 0
𑗉 0
𑗊 0
𑗋 0
𑗌 0
𑗍 0
𑗎 0
𑗏 0
𑗐 0
𑗑 0
𑗒 0
𑗓 0
𑗔 0
𑗕 0
𑗖 0
𑗗 0
𑙁 0
𑙂 0
𑙃 0
𑙠 0
𑙡 0
𑙢 0
𑙣 0
𑙤 0
𑙥 0
𑙦 0
𑙧 0
𑙨 0
𑙩 0
𑙪 0
𑙫 0
𑙬 0
𑜼 0
𑜽 0
𑜾 0
𑠻 0
𑨿 0
𑩀 0
𑩁 0
𑩂 0
𑩃 0
𑩄 0
𑩅 0
𑩆 0
𑪚 0
𑪛 0
𑪜 0
𑪞 0
𑪟 0
𑪠 0
𑪡 0
𑪢 0
𑱁 0
𑱂 0
𑱃 0
𑱄 0
𑱅 0
𑱰 0
𑱱 0
𑻷 0
𑻸 0
𒀯 0
𒀳 0
𒁺 0
𒂗 0
𒃷 0
𒄿 0
𒅋 0
𒅖 0
𒆕 0
𒆠 0
𒈪 0
𒈬 0
𒉌 0
𒉏 0
𒊏 0
𒌇 0
𒌑 0
𒑰 0
𒑱 0
𒑲 0
𒑳 0
𒑴 0
𓁹 0
𓂋 0
𓃣 0
𓃱 0
𓄿 0
𓅓 0
𓅱 0
𓆎 0
𓆑 0
𓆰 0
𓇋 0
𓇍 0
𓇽 0
𓈉 0
𓈖 0
𓊖 0
𓊪 0
𓊵 0
𓍘 0
𓎡 0
𓏏 0
𓏺 0
𖩮 0
𖩯 0
𖫵 0
𖬄 0
𖬌 0
𖬖 0
𖬝 0
𖬟 0
𖬣 0
𖬷 0
𖬸 0
𖬹 0
𖬺 0
𖬻 0
𖭄 0
𖺗 0
𖺘 0
𖺙 0
𖺚 0
𛀆 0
𛲟 0
𝄫 0
𝌀 0
𝐹 0
𝑃 0
𝑆 0
𝑈 0
𝑝 0
𝑥 0
𝑧 0
𝑮 0
𝓁 0
𝕄 0
𝕊 0
𝕡 0
𝖟 0
𝘋 0
𝘌 0
𝘏 0
𝘐 0
𝘓 0
𝘗 0
𝘛 0
𝘢 0
𝘤 0
𝘥 0
𝘦 0
𝘧 0
𝘨 0
𝘩 0
𝘪 0
𝘭 0
𝘮 0
𝘯 0
𝘰 0
𝘴 0
𝘵 0
𝘺 0
𝛂 0
𝛿 0
𝜋 0
𝝰 0
𝝱 0
𝪇 0
𝪈 0
𝪉 0
𝪊 0
𝪋 0
𞄀 0
𞄂 0
𞄄 0
𞄎 0
𞄐 0
𞄔 0
𞄚 0
𞄤 0
𞄦 0
𞄧 0
𞄩 0
𞄫 0
𞄬 0
𞄰 0
𞄱 0
𞄲 0
𞄳 0
𞠀 0
𞠁 0
𞠂 0
𞥞 0
𞥟 0
🆘 0
🇧 0
🇨 0
🇩 0
🇪 0
🇫 0
🇬 0
🇭 0
🇮 0
🇯 0
🇰 0
🇲 0
🇳 0
🇵 0
🇷 0
🇸 0
🇹 0
🇺 0
🇼 0
🇾 0
🈶 0
🈷 0
🌈 0
🌙 0
🌞 0
🌟 0
🌰 0
🌲 0
🌳 0
🌸 0
🌹 0
🌺 0
🌻 0
🍀 0
🍁 0
🍃 0
🍔 0
🍣 0
🍰 0
🍺 0
🎀 0
🎆 0
🎈 0
🎞 0
🎥 0
🎬 0
🎵 0
🎿 0
🏆 0
🏻 0
🏼 0
🏽 0
🏾 0
🏿 0
🐍 0
🐎 0
🐔 0
🐠 0
🐢 0
🐣 0
🐩 0
🐭 0
🐮 0
🐰 0
🐱 0
🐴 0
🐶 0
🐷 0
👀 0
👂 0
👃 0
👄 0
👅 0
👇 0
👈 0
👉 0
👋 0
👌 0
👏 0
👑 0
👗 0
👠 0
👡 0
👣 0
👧 0
👨 0
👩 0
👯 0
👺 0
👻 0
👿 0
💀 0
💄 0
💉 0
💋 0
💎 0
💐 0
💓 0
💙 0
💚 0
💝 0
💤 0
💧 0
💩 0
💪 0
💻 0
📅 0
📡 0
📢 0
📱 0
📺 0
📻 0
🔍 0
🔗 0
🔝 0
🔴 0
🔵 0
🖕 0
🖥 0
🗿 0
😁 0
😂 0
😃 0
😄 0
😇 0
😉 0
😊 0
😋 0
😌 0
😍 0
😎 0
😏 0
😐 0
😒 0
😓 0
😔 0
😖 0
😘 0
😚 0
😜 0
😝 0
😞 0
😟 0
😠 0
😡 0
😢 0
😣 0
😤 0
😥 0
😨 0
😩 0
😪 0
😫 0
😭 0
😰 0
😱 0
😲 0
😳 0
😴 0
😷 0
😹 0
🙈 0
🙋 0
🙏 0
🚀 0
🚗 0
🚫 0
🤣 0
🥰 0
🦁 0
🦋 0
🧂 0
𠀀 0
𠀑 0
𠀠 0
𠀤 0
𠀧 0
𠀾 0
𠁁 0
𠁞 0
𠁨 0
𠂇 0
𠂉 0
𠃉 0
𠃊 0
𠃋 0
𠃌 0
𠃍 0
𠃑 0
𠃵 0
𠄌 0
𠄎 0
𠄞 0
𠄩 0
𠄳 0
𠄼 0
𠅤 0
𠆢 0
𠆤 0
𠆭 0
𠆲 0
𠇇 0
𠇖 0
𠇶 0
𠇹 0
𠈅 0
𠉀 0
𠊎 0
𠊚 0
𠊪 0
𠊺 0
𠋆 0
𠌠 0
𠌯 0
𠍀 0
𠍇 0
𠍋 0
𠍲 0
𠍳 0
𠎀 0
𠐓 0
𠐔 0
𠐤 0
𠒇 0
𠔳 0
𠔻 0
𠕇 0
𠖫 0
𠗕 0
𠗟 0
𠘖 0
𠘨 0
𠙴 0
𠙶 0
𠚢 0
𠛅 0
𠛯 0
𠝹 0
𠞊 0
𠞰 0
𠟭 0
𠟼 0
𠡒 0
𠡠 0
𠢳 0
𠣬 0
𠤩 0
𠥀 0
𠦅 0
𠦌 0
𠦝 0
𠪱 0
𠪳 0
𠫊 0
𠫓 0
𠫤 0
𠫾 0
𠬝 0
𠬪 0
𠭯 0
𠮟 0
𠮶 0
𠮷 0
𠮾 0
𠮿 0
𠯆 0
𠯐 0
𠯟 0
𠯠 0
𠰢 0
𠰴 0
𠰷 0
𠱂 0
𠱓 0
𠱞 0
𠱸 0
𠱾 0
𠲍 0
𠲎 0
𠳲 0
𠳼 0
𠳿 0
𠴟 0
𠴲 0
𠵆 0
𠵇 0
𠵱 0
𠵼 0
𠶧 0
𠷈 0
𠷨 0
𠸍 0
𠸪 0
𠹌 0
𠺌 0
𠺕 0
𠺖 0
𠺘 0
𠺢 0
𠻇 0
𠻜 0
𠻠 0
𠻸 0
𠻹 0
𠼇 0
𠼞 0
𠼤 0
𠼪 0
𠽌 0
𠾴 0
𡁻 0
𡃁 0
𡃶 0
𡄣 0
𡄵 0
𡈼 0
𡈾 0
𡉚 0
𡉺 0
𡋣 0
𡋤 0
𡋧 0
𡋱 0
𡌵 0
𡍌 0
𡍲 0
𡎊 0
𡎚 0
𡎜 0
𡐓 0
𡐤 0
𡑞 0
𡑡 0
𡑤 0
𡑵 0
𡒄 0
𡒉 0
𡓁 0
𡓭 0
𡓱 0
𡔈 0
𡕀 0
𡕒 0
𡕧 0
𡖓 0
𡗦 0
𡗨 0
𡙇 0
𡚒 0
𡠄 0
𡠍 0
𡠟 0
𡡉 0
𡢃 0
𡣗 0
𡤕 0
𡥧 0
𡥵 0
𡦂 0
𡦹 0
𡧖 0
𡧽 0
𡨂 0
𡨃 0
𡨊 0
𡨢 0
𡨧 0
𡨸 0
𡨽 0
𡩀 0
𡩄 0
𡩈 0
𡩋 0
𡩏 0
𡩜 0
𡩡 0
𡩢 0
𡪠 0
𡪿 0
𡫁 0
𡫯 0
𡬐 0
𡭕 0
𡮐 0
𡮦 0
𡯁 0
𡰖 0
𡰢 0
𡰣 0
𡰥 0
𡰪 0
𡰳 0
𡱰 0
𡳅 0
𡳞 0
𡴶 0
𡴾 0
𡵻 0
𡶀 0
𡶛 0
𡶦 0
𡶲 0
𡶴 0
𡷗 0
𡸷 0
𡹘 0
𡹮 0
𡹾 0
𡺃 0
𡺄 0
𡺭 0
𡺯 0
𡺿 0
𡼹 0
𡽪 0
𡽫 0
𡽹 0
𡾊 0
𡾣 0
𡾼 0
𡿂 0
𡿨 0
𢀓 0
𢀖 0
𢀛 0
𢀿 0
𢁫 0
𢃇 0
𢃢 0
𢄂 0
𢄙 0
𢄺 0
𢆡 0
𢆥 0
𢆯 0
𢆶 0
𢇲 0
𢊄 0
𢋡 0
𢌛 0
𢍘 0
𢎘 0
𢐗 0
𢑥 0
𢒉 0
𢓨 0
𢔀 0
𢔶 0
𢕌 0
𢕟 0
𢖍 0
𢖥 0
𢘅 0
𢘆 0
𢘥 0
𢘿 0
𢙏 0
𢙐 0
𢙒 0
𢙓 0
𢚂 0
𢚝 0
𢜬 0
𢠁 0
𢢀 0
𢢝 0
𢢼 0
𢣐 0
𢣢 0
𢣴 0
𢤮 0
𢤱 0
𢥧 0
𢦏 0
𢧤 0
𢫆 0
𢫬 0
𢫾 0
𢬍 0
𢭀 0
𢯦 0
𢱟 0
𢱿 0
𢲵 0
𢳂 0
𢳚 0
𢴩 0
𢵄 0
𢶍 0
𢶏 0
𢶜 0
𢷋 0
𢹂 0
𢺋 0
𢼄 0
𢽲 0
𢽴 0
𢽾 0
𣁦 0
𣁳 0
𣁽 0
𣂺 0
𣃁 0
𣄃 0
𣅠 0
𣇐 0
𣇫 0
𣈥 0
𣈱 0
𣈴 0
𣉙 0
𣉿 0
𣊫 0
𣊬 0
𣋉 0
𣍇 0
𣍏 0
𣍐 0
𣍯 0
𣍰 0
𣎑 0
𣎴 0
𣎵 0
𣏌 0
𣏙 0
𣏞 0
𣏢 0
𣏴 0
𣐅 0
𣐕 0
𣐙 0
𣐤 0
𣐿 0
𣑚 0
𣑮 0
𣒃 0
𣒌 0
𣒱 0
𣒻 0
𣓞 0
𣓿 0
𣔌 0
𣔾 0
𣕃 0
𣕅 0
𣕲 0
𣗊 0
𣗋 0
𣗖 0
𣘁 0
𣘖 0
𣘴 0
𣙜 0
𣙼 0
𣚅 0
𣚏 0
𣚒 0
𣚚 0
𣚣 0
𣚦 0
𣚴 0
𣛣 0
𣛧 0
𣛮 0
𣜥 0
𣜬 0
𣝗 0
𣟄 0
𣡊 0
𣡌 0
𣣄 0
𣦻 0
𣨼 0
𣫏 0
𣬌 0
𣬠 0
𣬶 0
𣭈 0
𣭻 0
𣮤 0
𣰋 0
𣱝 0
𣱧 0
𣲗 0
𣲘 0
𣲤 0
𣲶 0
𣲷 0
𣲸 0
𣳫 0
𣴓 0
𣴖 0
𣴛 0
𣴣 0
𣵧 0
𣶏 0
𣶒 0
𣶩 0
𣶬 0
𣷭 0
𣸑 0
𣸣 0
𣸵 0
𣹟 0
𣹩 0
𣺺 0
𣺼 0
𣽤 0
𣽷 0
𣾢 0
𣾷 0
𣿅 0
𣿈 0
𣿭 0
𣿰 0
𤀹 0
𤂂 0
𤂬 0
𤄫 0
𤄷 0
𤅶 0
𤅷 0
𤆬 0
𤆵 0
𤆼 0
𤇃 0
𤇄 0
𤇜 0
𤇥 0
𤇭 0
𤇹 0
𤇼 0
𤈇 0
𤈜 0
𤈦 0
𤈶 0
𤉎 0
𤊐 0
𤊞 0
𤊟 0
𤊥 0
𤊨 0
𤊹 0
𤊻 0
𤋏 0
𤋮 0
𤌙 0
𤍘 0
𤎤 0
𤏳 0
𤏸 0
𤐤 0
𤑐 0
𤒩 0
𤒹 0
𤓂 0
𤓓 0
𤓪 0
𤓯 0
𤔡 0
𤕶 0
𤗶 0
𤘣 0
𤛎 0
𤝱 0
𤞃 0
𤞚 0
𤞤 0
𤞽 0
𤟤 0
𤟥 0
𤠣 0
𤢂 0
𤢗 0
𤣎 0
𤣥 0
𤣯 0
𤣰 0
𤣲 0
𤣹 0
𤣾 0
𤤁 0
𤤥 0
𤤦 0
𤤴 0
𤤺 0
𤤽 0
𤥒 0
𤥖 0
𤥢 0
𤥽 0
𤦀 0
𤦃 0
𤦎 0
𤦏 0
𤦲 0
𤧛 0
𤧣 0
𤨒 0
𤨠 0
𤩝 0
𤩪 0
𤩰 0
𤩹 0
𤩽 0
𤪉 0
𤪌 0
𤪙 0
𤪸 0
𤫉 0
𤬜 0
𤬪 0
𤭖 0
𤯔 0
𤰞 0
𤲅 0
𤴓 0
𤶊 0
𤷪 0
𤺧 0
𤽸 0
𤾀 0
𤾩 0
𤾫 0
𤿲 0
𥀖 0
𥃇 0
𥄳 0
𥆧 0
𥇍 0
𥇦 0
𥌓 0
𥍉 0
𥐟 0
𥐻 0
𥑮 0
𥒓 0
𥒖 0
𥒥 0
𥒦 0
𥔲 0
𥔿 0
𥕟 0
𥕢 0
𥖨 0
𥖩 0
𥗐 0
𥗝 0
𥗽 0
𥘥 0
𥙔 0
𥙫 0
𥙿 0
𥚃 0
𥚻 0
𥛰 0
𥜃 0
𥝱 0
𥞋 0
𥟍 0
𥠋 0
𥠢 0
𥡴 0
𥡷 0
𥣰 0
𥤱 0
𥦬 0
𥧌 0
𥩟 0
𥪰 0
𥫃 0
𥫣 0
𥫩 0
𥬞 0
𥬠 0
𥮾 0
𥴊 0
𥴨 0
𥸷 0
𥹆 0
𥹉 0
𥺊 0
𥺦 0
𥺪 0
𥻵 0
𥻹 0
𥾪 0
𥿝 0
𦀚 0
𦀰 0
𦀸 0
𦁄 0
𦃿 0
𦄿 0
𦅜 0
𦅫 0
𦇗 0
𦈉 0
𦈋 0
𦈌 0
𦈎 0
𦈏 0
𦈐 0
𦈑 0
𦈔 0
𦈚 0
𦈛 0
𦈝 0
𦈡 0
𦉢 0
𦉩 0
𦊚 0
𦍋 0
𦍌 0
𦐣 0
𦐥 0
𦐿 0
𦑘 0
𦒅 0
𦒎 0
𦒹 0
𦓿 0
𦔐 0
𦖛 0
𦖟 0
𦘗 0
𦘦 0
𦙍 0
𦙒 0
𦙶 0
𦛨 0
𦜐 0
𦜳 0
𦝼 0
𦠿 0
𦣻 0
𦤎 0
𦥑 0
𦧲 0
𦧺 0
𦨭 0
𦩍 0
𦪙 0
𦬨 0
𦭒 0
𦭜 0
𦭼 0
𦮙 0
𦰏 0
𦰡 0
𦱡 0
𦱢 0
𦱶 0
𦳋 0
𦳩 0
𦳲 0
𦵚 0
𦶜 0
𦶟 0
𦸉 0
𦹗 0
𦹛 0
𦺍 0
𦺻 0
𦻐 0
𦻙 0
𦻼 0
𦼖 0
𦾡 0
𦿏 0
𧀄 0
𧀲 0
𧁇 0
𧃍 0
𧃝 0
𧃲 0
𧆬 0
𧈢 0
𧈫 0
𧉚 0
𧉢 0
𧊀 0
𧊉 0
𧊒 0
𧊕 0
𧊲 0
𧌇 0
𧎜 0
𧎥 0
𧎾 0
𧏖 0
𧏗 0
𧏛 0
𧏡 0
𧏿 0
𧐴 0
𧐶 0
𧑏 0
𧑒 0
𧑙 0
𧒻 0
𧒽 0
𧓌 0
𧔊 0
𧔢 0
𧔥 0
𧖣 0
𧖽 0
𧗞 0
𧗠 0
𧗽 0
𧘹 0
𧙈 0
𧙗 0
𧙥 0
𧝁 0
𧝝 0
𧞔 0
𧟘 0
𧟰 0
𧢯 0
𧣌 0
𧤛 0
𧦦 0
𧦴 0
𧨳 0
𧩙 0
𧩡 0
𧪚 0
𧫻 0
𧬆 0
𧭈 0
𧮪 0
𧮫 0
𧯄 0
𧯢 0
𧯦 0
𧰵 0
𧴛 0
𧴭 0
𧵅 0
𧵏 0
𧶛 0
𧶠 0
𧶽 0
𧷡 0
𧷨 0
𧸘 0
𧹖 0
𧹗 0
𧹼 0
𧺯 0
𧽚 0
𧽻 0
𧿃 0
𧿆 0
𧿹 0
𨀁 0
𨀤 0
𨀴 0
𨁂 0
𨃚 0
𨃴 0
𨄫 0
𨅬 0
𨇆 0
𨇗 0
𨈓 0
𨉗 0
𨉹 0
𨊛 0
𨋄 0
𨋢 0
𨌥 0
𨌷 0
𨍭 0
𨏩 0
𨐅 0
𨐈 0
𨑨 0
𨑮 0
𨒂 0
𨕥 0
𨕱 0
𨙶 0
𨙷 0
𨙻 0
𨚗 0
𨚢 0
𨚲 0
𨜳 0
𨝥 0
𨞓 0
𨞚 0
𨠣 0
𨢇 0
𨣏 0
𨤎 0
𨤲 0
𨤸 0
𨥈 0
𨥌 0
𨥙 0
𨥤 0
𨦡 0
𨦫 0
𨧀 0
𨧆 0
𨧨 0
𨨏 0
𨨗 0
𨨞 0
𨨢 0
𨨣 0
𨪦 0
𨫃 0
𨫊 0
𨬐 0
𨬔 0
𨭆 0
𨭉 0
𨭎 0
𨭖 0
𨭘 0
𨮁 0
𨮞 0
𨮫 0
𨯵 0
𨰃 0
𨰎 0
𨰘 0
𨰜 0
𨰞 0
𨰥 0
𨰾 0
𨰿 0
𨱁 0
𨱂 0
𨱃 0
𨱄 0
𨱅 0
𨱆 0
𨱇 0
𨱈 0
𨱉 0
𨱋 0
𨱌 0
𨱍 0
𨱎 0
𨱏 0
𨱑 0
𨱒 0
𨱓 0
𨱔 0
𨲠 0
𨲢 0
𨳊 0
𨳍 0
𨳒 0
𨴱 0
𨶒 0
𨶙 0
𨸂 0
𨸃 0
𨸏 0
𨻧 0
𨻰 0
𨻻 0
𨻽 0
𨼪 0
𨽌 0
𨾿 0
𩀱 0
𩂍 0
𩃎 0
𩃙 0
𩃳 0
𩄍 0
𩄢 0
𩅦 0
𩅼 0
𩅽 0
𩆃 0
𩆜 0
𩆩 0
𩇐 0
𩇛 0
𩇯 0
𩈶 0
𩋤 0
𩎚 0
𩐅 0
𩑠 0
𩒛 0
𩓋 0
𩓥 0
𩔇 0
𩕏 0
𩕩 0
𩖃 0
𩖖 0
𩗬 0
𩗴 0
𩙣 0
𩙥 0
𩙪 0
𩙫 0
𩙻 0
𩙿 0
𩛿 0
𩜁 0
𩜱 0
𩜶 0
𩜼 0
𩟔 0
𩠌 0
𩡤 0
𩣑 0
𩣡 0
𩦸 0
𩧨 0
𩧪 0
𩧫 0
𩧯 0
𩧲 0
𩧴 0
𩧺 0
𩨀 0
𩨂 0
𩨄 0
𩨈 0
𩨊 0
𩫵 0
𩫻 0
𩫾 0
𩬆 0
𩭹 0
𩱈 0
𩲃 0
𩳁 0
𩵚 0
𩵦 0
𩶆 0
𩶉 0
𩶘 0
𩶚 0
𩶤 0
𩶯 0
𩷍 0
𩷓 0
𩷕 0
𩷶 0
𩹄 0
𩹇 0
𩹲 0
𩹷 0
𩹽 0
𩺬 0
𩺼 0
𩻸 0
𩼅 0
𩼣 0
𩽾 0
𩾀 0
𩾁 0
𩾃 0
𩾇 0
𩾌 0
𩿧 0
𪀘 0
𪁺 0
𪂡 0
𪃿 0
𪄳 0
𪆒 0
𪇱 0
𪇼 0
𪈮 0
𪈻 0
𪈿 0
𪉃 0
𪉆 0
𪉈 0
𪉊 0
𪉍 0
𪉑 0
𪉖 0
𪊨 0
𪎉 0
𪎊 0
𪎌 0
𪎭 0
𪏆 0
𪏙 0
𪔠 0
𪕌 0
𪕨 0
𪖈 0
𪗋 0
𪗾 0
𪘅 0
𪘲 0
𪘵 0
𪙴 0
𪙻 0
𪚥 0
𪜈 0
𪜳 0
𪞝 0
𪟝 0
𪠘 0
𪠳 0
𪠸 0
𪠽 0
𪡀 0
𪡃 0
𪡋 0
𪡏 0
𪡞 0
𪢕 0
𪢠 0
𪢮 0
𪢸 0
𪣆 0
𪣒 0
𪣻 0
𪤗 0
𪤚 0
𪥫 0
𪥰 0
𪥿 0
𪧀 0
𪧘 0
𪨗 0
𪨧 0
𪨶 0
𪨷 0
𪩎 0
𪩘 0
𪩸 0
𪪞 0
𪪼 0
𪫌 0
𪫺 0
𪬦 0
𪭢 0
𪭧 0
𪭵 0
𪭾 0
𪮖 0
𪮶 0
𪰶 0
𪱣 0
𪱥 0
𪱷 0
𪲎 0
𪲔 0
𪲛 0
𪲮 0
𪳍 0
𪴑 0
𪴙 0
𪵑 0
𪵣 0
𪵱 0
𪶄 0
𪷽 0
𪸕 0
𪸩 0
𪹚 0
𪹳 0
𪺭 0
𪺷 0
𪺽 0
𪻐 0
𪻨 0
𪻲 0
𪻶 0
𪻺 0
𪽈 0
𪽪 0
𪽷 0
𪾔 0
𪾢 0
𪾣 0
𪾦 0
𪾸 0
𪿫 0
𫁟 0
𫁡 0
𫁿 0
𫂃 0
𫂆 0
𫄙 0
𫄛 0
𫄟 0
𫄠 0
𫄡 0
𫄢 0
𫄤 0
𫄥 0
𫄧 0
𫄨 0
𫄫 0
𫄬 0
𫄭 0
𫄰 0
𫄱 0
𫄲 0
𫄳 0
𫄴 0
𫄶 0
𫄷 0
𫄸 0
𫄹 0
𫅗 0
𫆏 0
𫇛 0
𫇭 0
𫇴 0
𫇽 0
𫈉 0
𫈎 0
𫈟 0
𫈰 0
𫈵 0
𫉁 0
𫉄 0
𫊮 0
𫊸 0
𫊻 0
𫋇 0
𫋌 0
𫋷 0
𫋹 0
𫋻 0
𫌀 0
𫌇 0
𫌨 0
𫌪 0
𫌭 0
𫍙 0
𫍚 0
𫍛 0
𫍜 0
𫍡 0
𫍢 0
𫍣 0
𫍤 0
𫍥 0
𫍦 0
𫍧 0
𫍨 0
𫍩 0
𫍪 0
𫍬 0
𫍮 0
𫍯 0
𫍰 0
𫍱 0
𫍲 0
𫍳 0
𫍴 0
𫍵 0
𫍷 0
𫍸 0
𫍹 0
𫍻 0
𫍽 0
𫎆 0
𫎌 0
𫎦 0
𫎩 0
𫎫 0
𫎬 0
𫏃 0
𫏆 0
𫏋 0
𫏐 0
𫐄 0
𫐅 0
𫐆 0
𫐇 0
𫐈 0
𫐉 0
𫐊 0
𫐌 0
𫐎 0
𫐏 0
𫐐 0
𫐑 0
𫐒 0
𫐓 0
𫐕 0
𫐖 0
𫐗 0
𫐘 0
𫐙 0
𫐷 0
𫑘 0
𫑡 0
𫑷 0
𫒢 0
𫓥 0
𫓦 0
𫓧 0
𫓨 0
𫓩 0
𫓪 0
𫓬 0
𫓭 0
𫓯 0
𫓰 0
𫓱 0
𫓲 0
𫓴 0
𫓵 0
𫓶 0
𫓸 0
𫓹 0
𫓺 0
𫓻 0
𫓽 0
𫓾 0
𫔂 0
𫔄 0
𫔅 0
𫔇 0
𫔈 0
𫔊 0
𫔌 0
𫔍 0
𫔎 0
𫔔 0
𫔯 0
𫔰 0
𫔴 0
𫔶 0
𫕥 0
𫖃 0
𫖇 0
𫖒 0
𫖔 0
𫖮 0
𫖯 0
𫖳 0
𫖶 0
𫖹 0
𫗋 0
𫗠 0
𫗢 0
𫗥 0
𫗦 0
𫗧 0
𫗩 0
𫗪 0
𫗬 0
𫗮 0
𫗴 0
𫗵 0
𫘛 0
𫘜 0
𫘝 0
𫘞 0
𫘟 0
𫘠 0
𫘡 0
𫘣 0
𫘤 0
𫘥 0
𫘦 0
𫘧 0
𫘨 0
𫘩 0
𫘪 0
𫘫 0
𫘬 0
𫘭 0
𫘯 0
𫘰 0
𫘱 0
𫘽 0
𫙮 0
𫚈 0
𫚉 0
𫚊 0
𫚋 0
𫚌 0
𫚍 0
𫚑 0
𫚒 0
𫚓 0
𫚔 0
𫚕 0
𫚖 0
𫚗 0
𫚙 0
𫚛 0
𫚞 0
𫚡 0
𫚢 0
𫚣 0
𫚤 0
𫚥 0
𫚦 0
𫚧 0
𫚪 0
𫚫 0
𫚭 0
𫛚 0
𫛛 0
𫛜 0
𫛝 0
𫛞 0
𫛟 0
𫛡 0
𫛢 0
𫛤 0
𫛥 0
𫛦 0
𫛨 0
𫛩 0
𫛪 0
𫛫 0
𫛭 0
𫛯 0
𫛱 0
𫛳 0
𫛴 0
𫛵 0
𫛶 0
𫛷 0
𫛸 0
𫛽 0
𫜀 0
𫜁 0
𫜃 0
𫜄 0
𫜑 0
𫜪 0
𫜬 0
𫜭 0
𫜰 0
𫜲 0
𫝨 0
𫝩 0
𫝫 0
𫝬 0
𫝭 0
𫝮 0
𫞚 0
𫞠 0
𫞡 0
𫞥 0
𫞦 0
𫞨 0
𫞩 0
𫟃 0
𫟄 0
𫟅 0
𫟆 0
𫟞 0
𫟟 0
𫟠 0
𫟡 0
𫟲 0
𫟴 0
𫟵 0
𫟶 0
𫟷 0
𫟸 0
𫟹 0
𫟻 0
𫟼 0
𫟿 0
𫠁 0
𫠂 0
𫠅 0
𫠆 0
𫠋 0
𫠐 0
𫠒 0
𫠜 0
𫡰 0
𫧃 0
𫫇 0
𫲨 0
𫵾 0
𫾻 0
𬀩 0
𬃉 0
𬅠 0
𬇙 0
𬉺 0
𬊌 0
𬋞 0
𬌗 0
𬒗 0
𬓋 0
𬓑 0
𬘓 0
𬘩 0
𬜢 0
𬞟 0
𬟏 0
𬩽 0
𬬭 0
𬬻 0
𬭊 0
𬭎 0
𬭛 0
𬭩 0
𬭳 0
𬭶 0
𬭸 0
𬱟 0
𬲱 0
𬴊 0
𬶏 0
𬶐 0
𬶮 0
𬸦 0
𬺈 0
𬻷 0
𬼂 0
𬼷 0
𭁇 0
𭅃 0
𭍻 0
𭑊 0
𭑭 0
𭖂 0
𭚥 0
𭤪 0
𭥟 0
𭨡 0
𭫪 0
𭴊 0
𮄫 0
𮓠 0
𮡶 0
𮢅 0
𮥹 0
𰇠 0
𰉬 0
𰊊 0
𰊺 0
𰋀 0
𰗤 0
𰚼 0
𰡉 0
𰡓 0
𰥏 0
𰯼 0
𰻞 0
𰽽 0
##H 0
##O 0
##k 0
##W 0
##h 0
##y 0
##u 0
##a 0
##n 0
##s 0
##f 0
##e 0
##t 0
##4 0
##2 0
##1 0
##0 0
##9 0
##3 0
##i 0
##v 0
##r 0
##o 0
##L 0
##d 0
##8 0
##c 0
##p 0
##7 0
##5 0
##6 0
##い 0
##え 0
##は 0
##l 0
##q 0
##m 0
##z 0
##７ 0
##○ 0
##╮ 0
##g 0
##j 0
##I 0
##V 0
##b 0
##x 0
##E 0
##र 0
##ष 0
##w 0
##A 0
##S 0
##P 0
##C 0
##K 0
##M 0
##ʰ 0
##N 0
##D 0
##U 0
##T 0
##G 0
##е 0
##с 0
##я 0
##т 0
##к 0
##и 0
##ゃ 0
##け 0
##ん 0
##B 0
##R 0
##F 0
##J 0
##て 0
##ー 0
##ト 0
##ル 0
##Q 0
##Z 0
##Ｆ 0
##よ 0
##く 0
##に 0
##し 0
##Y 0
##ᅧ 0
##ᄒ 0
##ᅬ 0
##а 0
##щ 0
##н 0
##м 0
##च 0
##ㄋ 0
##ᅩ 0
##ᆽ 0
##ᄅ 0
##ᅵ 0
##ᆫ 0
##ᄋ 0
##ホ 0
##イ 0
##Ｈ 0
##Ａ 0
##υ 0
##σ 0
##ι 0
##π 0
##ο 0
##ς 0
##ˠ 0
##ɾ 0
##ː 0
##р 0
##о 0
##X 0
##ᅡ 0
##ᆼ 0
##る 0
##ク 0
##ラ 0
##シ 0
##ッ 0
##ы 0
##б 0
##Б 0
##л 0
##ю 0
##д 0
##ᆸ 0
##れ 0
##な 0
##た 0
##г 0
##お 0
##め 0
##つ 0
##ێ 0
##ن 0
##د 0
##ر 0
##ۆ 0
##こ 0
##と 0
##か 0
##ら 0
##ケ 0
##ム 0
##æ 0
##Η 0
##ま 0
##っ 0
##Ｑ 0
##０ 0
##８ 0
##ン 0
##キ 0
##テ 0
##を 0
##み 0
##ш 0
##ɡ 0
##ʌ 0
##● 0
##ュ 0
##ア 0
##う 0
##す 0
##ᄆ 0
##ᅮ 0
##ᆷ 0
##´ 0
##ｕ 0
##ｃ 0
##ｋ 0
##ð 0
##ロ 0
##コ 0
##の 0
##タ 0
##Ｅ 0
##Ｍ 0
##Ｐ 0
##マ 0
##و 0
##ل 0
##ي 0
##ة 0
##フ 0
##ハ 0
##ウ 0
##ス 0
##ツ 0
##ß 0
##ə 0
##Ð 0
##ョ 0
##ほ 0
##レ 0
##ャ 0
##カ 0
##ヤ 0
##ø 0
##τ 0
##ɔ 0
##ょ 0
##ち 0
##ᅢ 0
##ᄉ 0
##ε 0
##さ 0
##ゅ 0
##┅ 0
##１ 0
##６ 0
##き 0
##⑥ 0
##④ 0
##② 0
##① 0
##⑤ 0
##в 0
##↓ 0
##ろ 0
##ʃ 0
##ɛ 0
##ɪ 0
##þ 0
##わ 0
##э 0
##з 0
##і 0
##オ 0
##ᄀ 0
##ᅣ 0
##ァ 0
##ᆯ 0
##⑦ 0
##③ 0
##ˈ 0
##ʐ 0
##ʷ 0
##ᄇ 0
##ᄌ 0
##ר 0
##י 0
##פ 0
##ע 0
##ט 0
##ש 0
##ק 0
##क 0
##ा 0
##ว 0
##ค 0
##ณ 0
##เ 0
##อ 0
##ง 0
##３ 0
##５ 0
##り 0
##も 0
##２ 0
##ａ 0
##ェ 0
##đ 0
##ម 0
##ж 0
##￣ 0
##ા 0
##ર 0
##સ 0
##ી 0
##ц 0
##ᅪ 0
##ᄐ 0
##Ｓ 0
##Ｊ 0
##Ｙ 0
##そ 0
##า 0
##ร 0
##ก 0
##ษ 0
##あ 0
##や 0
##ネ 0
##ナ 0
##９ 0
##α 0
##ρ 0
##В 0
##ォ 0
##А 0
##Л 0
##И 0
##Н 0
##ъ 0
##４ 0
##ᅱ 0
##ь 0
##ᄃ 0
##ا 0
##س 0
##β 0
##へ 0
##リ 0
##ィ 0
##ч 0
##サ 0
##せ 0
##ノ 0
##エ 0
##Ｏ 0
##Ｃ 0
##ｓ 0
##у 0
##▼ 0
##ヘ 0
##ᆾ 0
##ᅴ 0
##ｘ 0
##ｗ 0
##ｔ 0
##＋ 0
##ｂ 0
##セ 0
##ʲ 0
##ɐ 0
##ヒ 0
##ミ 0
##ニ 0
##ᅦ 0
##ᅥ 0
##モ 0
##ぇ 0
##◇ 0
##◆ 0
##ە 0
##θ 0
##Ⓡ 0
##ｒ 0
##ｉ 0
##ｌ 0
##ｅ 0
##ぬ 0
##Ｄ 0
##Ｉ 0
##ూ 0
##ᨑ 0
##ᨙ 0
##ᨄ 0
##チ 0
##∞ 0
##∧ 0
##ಕ 0
##ಷ 0
##ಣ 0
##ו 0
##ふ 0
##Ｌ 0
##Ｂ 0
##ђ 0
##ｎ 0
##ゆ 0
##Σ 0
##Χ 0
##Υ 0
##Ε 0
##Ι 0
##ぃ 0
##む 0
##ʁ 0
##ｏ 0
##λ 0
##δ 0
##η 0
##ｐ 0
##ひ 0
##┬ 0
##│ 0
##ʾ 0
##ᄂ 0
##ᆨ 0
##ɒ 0
##ʿ 0
##ق 0
##ı 0
##ｄ 0
##ˋ 0
##˥ 0
##ｍ 0
##ล 0
##ย 0
##ม 0
##ต 0
##п 0
##χ 0
##Ｋ 0
##ɫ 0
##ŋ 0
##व 0
##त 0
##ω 0
##√ 0
##× 0
##Ω 0
##γ 0
##κ 0
##Ｇ 0
##Ｔ 0
##х 0
##ɦ 0
##С 0
##Ж 0
##Д 0
##њ 0
##Ⅱ 0
##ᵻ 0
##ส 0
##ไ 0
##ท 0
##ˇ 0
##ㄧ 0
##ㄡ 0
##ɑ 0
##ぉ 0
##េ 0
##ច 0
##ព 0
##⑸ 0
##⑻ 0
##ҡ 0
##ソ 0
##ᄎ 0
##ɣ 0
##ʊ 0
##ｙ 0
##ᄁ 0
##ल 0
##ヲ 0
##□ 0
##＜ 0
##ᅲ 0
##ो 0
##ग 0
##य 0
##ज 0
##ʔ 0
##ㄠ 0
##स 0
##ी 0
##द 0
##Т 0
##ⅱ 0
##ʼ 0
##ރ 0
##އ 0
##ތ 0
##ޅ 0
##ב 0
##メ 0
##ν 0
##ᄑ 0
##ᅳ 0
##µ 0
##ڠ 0
##œ 0
##ပ 0
##ြ 0
##င 0
##ㄣ 0
##─ 0
##┴ 0
##┐ 0
##ぁ 0
##א 0
##ל 0
##ی 0
##ت 0
##ک 0
##ہ 0
##م 0
##Ｕ 0
##⒏ 0
##ł 0
##⒋ 0
##ա 0
##յ 0
##ね 0
##★ 0
##ب 0
##ع 0
##ك 0
##ɽ 0
##ת 0
##Φ 0
##▽ 0
##ｖ 0
##° 0
##∠ 0
##❸ 0
##❶ 0
##ם 0
##ｈ 0
##ｇ 0
##￥ 0
##μ 0
##Ө 0
##＝ 0
##ظ 0
##ف 0
##ʻ 0
##ɻ 0
##Ｒ 0
##ゥ 0
##ᅯ 0
##น 0
##ヌ 0
##𐇧 0
##𐇣 0
##𐇛 0
##⒕ 0
##Ρ 0
##Ο 0
##ㄢ 0
##ᆻ 0
##ᆭ 0
##ה 0
##ր 0
##գ 0
##մ 0
##ն 0
##չ 0
##ց 0
##ɤ 0
##ᄏ 0
##☆ 0
##└ 0
##├ 0
##┼ 0
##┤ 0
##╭ 0
##┘ 0
##╯ 0
##ǝ 0
##ヨ 0
##П 0
##ى 0
##ز 0
##ۇ 0
##ေ 0
##က 0
##ာ 0
##း 0
##လ 0
##ˊ 0
##ㄓ 0
##կ 0
##տ 0
##ո 0
##ղ 0
##ւ 0
##թ 0
##ի 0
##ե 0
##দ 0
##া 0
##ワ 0
##º 0
##━ 0
##═ 0
##ѣ 0
##ห 0
##ด 0
##▲ 0
##╳ 0
##ه 0
##ʂ 0
##ผ 0
##ข 0
##ܠ 0
##ܝ 0
##ब 0
##∽ 0
##ᴇ 0
##⒗ 0
##😳 0
##Δ 0
##φ 0
##Ｎ 0
##ᅭ 0
##ط 0
##⁄ 0
##О 0
##บ 0
##ㄚ 0
##מ 0
##ן 0
##▂ 0
##ψ 0
##⒂ 0
##← 0
##↙ 0
##↘ 0
##→ 0
##ح 0
##ถ 0
##โ 0
##ศ 0
##พ 0
##ช 0
##㈡ 0
##ㄥ 0
##ս 0
##𝘤 0
##𝘰 0
##𝘯 0
##𝘮 0
##𝘺 0
##ª 0
##ص 0
##ি 0
##ল 0
##ক 0
##Е 0
##Ә 0
##І 0
##У 0
##ʎ 0
##ฒ 0
##¤ 0
##Ｖ 0
##ʒ 0
##ء 0
##ħ 0
##ˤ 0
##ใ 0
##Ｘ 0
##Π 0
##ะ 0
##म 0
##थ 0
##ျ 0
##မ 0
##စ 0
##⑧ 0
##⑨ 0
##┛ 0
##ཙ 0
##ག 0
##ぅ 0
##ः 0
##ʝ 0
##ⲁ 0
##ⲡ 0
##Ф 0
##ᄊ 0
##𒊏 0
##𒅋 0
##┏ 0
##┓ 0
##┃ 0
##Р 0
##К 0
##∇ 0
##Ｚ 0
##נ 0
##ד 0
##＞ 0
##♀ 0
##¨ 0
##Τ 0
##ང 0
##ɯ 0
##ฐ 0
##ธ 0
##จ 0
##┈ 0
##╃ 0
##ج 0
##┨ 0
##ф 0
##⊥ 0
##∥ 0
##Ѡ 0
##Ъ 0
##ங 0
##க 0
##ள 0
##ش 0
##Œ 0
##خ 0
##ｷ 0
##ﾝ 0
##ｿ 0
##ﾞ 0
##ｯ 0
##ｸ 0
##ﾓ 0
##ｽ 0
##ﾀ 0
##ｰ 0
##ۈ 0
##چ 0
##¢ 0
##ா 0
##ஞ 0
##ச 0
##ப 0
##ு 0
##ர 0
##ம 0
##ា 0
##ន 0
##⊙ 0
##ী 0
##አ 0
##ሕ 0
##ዛ 0
##ብ 0
##ᥣ 0
##ᥢ 0
##ᥰ 0
##М 0
##｜ 0
##ᥦ 0
##∶ 0
##ㄌ 0
##ɚ 0
##ट 0
##ᥨ 0
##ᥝ 0
##Ø 0
##ㄛ 0
##～ 0
##ि 0
##Γ 0
##ې 0
##𐇨 0
##𐇵 0
##𐇐 0
##ㄎ 0
##ܫ 0
##ܚ 0
##ܬ 0
##ܐ 0
##¦ 0
##® 0
##ſ 0
##ह 0
##ξ 0
##￡ 0
##￠ 0
##♂ 0
##≈ 0
##≡ 0
##∷ 0
##∮ 0
##∑ 0
##∈ 0
##ᠡ 0
##ᠴ 0
##ᠨ 0
##ㄇ 0
##ㄨ 0
##ᐦ 0
##ᐃ 0
##ᔭ 0
##ᐍ 0
##ᐏ 0
##ᐣ 0
##𐩨 0
##𐩱 0
##⒎ 0
##ˀ 0
##ܕ 0
##ᄍ 0
##प 0
##ј 0
##ㄏ 0
##ㄜ 0
##ث 0
##ח 0
##ಾ 0
##ಂ 0
##ಡ 0
##ು 0
##ರ 0
##ಗ 0
##｀ 0
##ɮ 0
##ذ 0
##≤ 0
##⒒ 0
##ম 0
##প 0
##Æ 0
##ɜ 0
##ำ 0
##Ц 0
##Э 0
##😒 0
##न 0
##ʀ 0
##ユ 0
##± 0
##བ 0
##ћ 0
##┌ 0
##ץ 0
##╘ 0
##╛ 0
##ᆹ 0
##ﾆ 0
##ﾊ 0
##ｻ 0
##ﾙ 0
##ऽ 0
##∗ 0
##դ 0
##ը 0
##غ 0
##Ш 0
##Х 0
##ᅨ 0
##║ 0
##┗ 0
##𐇗 0
##𐇜 0
##ა 0
##ោ 0
##ប 0
##រ 0
##ៈ 0
##ண 0
##ட 0
##ி 0
##ய 0
##ⅲ 0
##╢ 0
##ೂ 0
##ೕ 0
##ˌ 0
##⑷ 0
##Ⅵ 0
##ㄝ 0
##■ 0
##ﾄ 0
##ﾌ 0
##ﾟ 0
##گ 0
##△ 0
##ɬ 0
##ɟ 0
##Ⅲ 0
##၆ 0
##၉ 0
##छ 0
##ㄉ 0
##≥ 0
##꜀ 0
##＾ 0
##˙ 0
##ـ 0
##Ⅴ 0
##Ⅻ 0
##ʑ 0
##▅ 0
##⠕ 0
##⠂ 0
##⠛ 0
##⠫ 0
##⠁ 0
##⠀ 0
##⠞ 0
##⠲ 0
##⠹ 0
##⠍ 0
##⠦ 0
##⠒ 0
##რ 0
##ძ 0
##ო 0
##ლ 0
##ⁿ 0
##ስ 0
##ታ 0
##ን 0
##ቲ 0
##ኖ 0
##ᆮ 0
##❷ 0
##❹ 0
##❺ 0
##ㄤ 0
##ғ 0
##ে 0
##ট 0
##ဂ 0
##ض 0
##⽅ 0
##𐇷 0
##𐇲 0
##ᇂ 0
##ھ 0
##ན 0
##ｊ 0
##▁ 0
##ⱨ 0
##צ 0
##պ 0
##ٹ 0
##ז 0
##ⲓ 0
##ⲙ 0
##ϩ 0
##ｆ 0
##▌ 0
##উ 0
##ন 0
##ই 0
##ড 0
##ζ 0
##ો 0
##દ 0
##כ 0
##ס 0
##⿲ 0
##চ 0
##Ｗ 0
##ᇁ 0
##ㄘ 0
##য 0
##∴ 0
##ල 0
##ත 0
##ව 0
##ᠠ 0
##ㄊ 0
##ˉ 0
##ত 0
##ঃ 0
##স 0
##থ 0
##🍰 0
##ゎ 0
##ད 0
##㈤ 0
##⑺ 0
##㈠ 0
##㈥ 0
##⑵ 0
##㈣ 0
##々 0
##ᧂ 0
##⾏ 0
##Ⅶ 0
##╧ 0
##£ 0
##Ւ 0
##ស 0
##ទ 0
##ៅ 0
##យ 0
##វ 0
##ត 0
##ɲ 0
##ण 0
##ڈ 0
##ɳ 0
##ɖ 0
##ʳ 0
##〓 0
##﹥ 0
##😥 0
##વ 0
##ન 0
##જ 0
##ⱦ 0
##ㄩ 0
##ﾘ 0
##ｦ 0
##Α 0
##Ν 0
##З 0
##Я 0
##բ 0
##հ 0
##↑ 0
##ә 0
##ड 0
##Ⅳ 0
##ⲉ 0
##ⲛ 0
##ⲟ 0
##ⲩ 0
##ϯ 0
##ヽ 0
##แ 0
##ป 0
##ᄈ 0
##╋ 0
##Ч 0
##ڊ 0
##゜ 0
##ｶ 0
##ﾏ 0
##ᆰ 0
##ゝ 0
##ฤ 0
##𐇢 0
##ས 0
##┣ 0
##ⅹ 0
##ｚ 0
##┊ 0
##Ս 0
##Հ 0
##ɿ 0
##پ 0
##⊿ 0
##ƿ 0
##ʉ 0
##÷ 0
##∝ 0
##∨ 0
##∏ 0
##∪ 0
##∩ 0
##∵ 0
##≌ 0
##⌒ 0
##ɕ 0
##ㅂ 0
##ㅍ 0
##Ю 0
##ף 0
##კ 0
##ე 0
##დ 0
##ნ 0
##ი 0
##ാ 0
##ര 0
##സ 0
##ി 0
##റ 0
##ג 0
##ಭ 0
##ದ 0
##▉ 0
##ɞ 0
##ⱪ 0
##⒅ 0
##ᆺ 0
##ㆩ 0
##┾ 0
##ㄟ 0
##Λ 0
##Ɔ 0
##ⴽ 0
##ⴻ 0
##ⵏ 0
##வ 0
##Κ 0
##љ 0
##ध 0
##ں 0
##Ψ 0
##😍 0
##ல 0
##┳ 0
##๒ 0
##๓ 0
##▄ 0
##∣ 0
##መ 0
##ራ 0
##╲ 0
##ግ 0
##ญ 0
##ల 0
##ం 0
##ব 0
##র 0
##ར 0
##◎ 0
##ₐ 0
##ˢ 0
##ү 0
##ㄗ 0
##ㄙ 0
##თ 0
##ვ 0
##ბ 0
##⒌ 0
##Ⅰ 0
##ꂷ 0
##ꏂ 0
##ꌅ 0
##ཀ 0
##▔ 0
##ฟ 0
##ฬ 0
##ภ 0
##ণ 0
##ㄆ 0
##ƞ 0
##ʹ 0
##ᚢ 0
##ᛏ 0
##ᚨ 0
##ᚾ 0
##ᛁ 0
##ᛟ 0
##ᚹ 0
##█ 0
##ڭ 0
##క 0
##ట 0
##³ 0
##জ 0
##շ 0
##ന 0
##ത 0
##യ 0
##Θ 0
##▍ 0
##┫ 0
##Đ 0
##ᄄ 0
##∫ 0
##ং 0
##ゐ 0
##Β 0
##Ξ 0
##ʋ 0
##श 0
##ɨ 0
##ረ 0
##ሪ 0
##╩ 0
##╬ 0
##╰ 0
##ㆬ 0
##ఠ 0
##Ы 0
##ք 0
##Г 0
##ფ 0
##ხ 0
##ზ 0
##ს 0
##ʽ 0
##ດ 0
##ຕ 0
##ຍ 0
##ະ 0
##ன 0
##த 0
##ృ 0
##⒆ 0
##😄 0
##Ⅹ 0
##⑶ 0
##Ь 0
##¬ 0
##ည 0
##ထ 0
##သ 0
##တ 0
##န 0
##အ 0
##ရ 0
##Щ 0
##╱ 0
##ҷ 0
##ɰ 0
##㏑ 0
##ჯ 0
##ⵎ 0
##ⴷ 0
##ⴰ 0
##𐭉 0
##𐭓 0
##𐭃 0
##𐭕 0
##ѧ 0
##┦ 0
##ө 0
##າ 0
##ສ 0
##ບ 0
##ໂ 0
##ທ 0
##၂ 0
##၈ 0
##၇ 0
##ञ 0
##😘 0
##⒔ 0
##ཆ 0
##ⵓ 0
##ⵔ 0
##💉 0
##🙏 0
##ौ 0
##ង 0
##ក 0
##ជ 0
##ձ 0
##ɉ 0
##ټ 0
##╊ 0
##↖ 0
##↗ 0
##˩ 0
##⑩ 0
##փ 0
##խ 0
##ை 0
##Ⅺ 0
##ˑ 0
##ㆲ 0
##ヱ 0
##ㄔ 0
##ㄕ 0
##ㄖ 0
##🇸 0
##⁸ 0
##┄ 0
##ែ 0
##ອ 0
##𐎠 0
##𐎼 0
##𐎹 0
##𐎢 0
##𐏁 0
##▃ 0
##▆ 0
##ঙ 0
##ৰ 0
##ɹ 0
##घ 0
##མ 0
##℡ 0
##♫ 0
##╡ 0
##ދ 0
##ޕ 0
##ꊖ 0
##ꃅ 0
##ꈎ 0
##ꏅ 0
##ｲ 0
##ᥧ 0
##ꜜ 0
##∕ 0
##ˣ 0
##ʏ 0
##ခ 0
##լ 0
##վ 0
##ழ 0
##ई 0
##𝘧 0
##🍣 0
##ｑ 0
##⒚ 0
##ㅅ 0
##😱 0
##హ 0
##న 0
##ర 0
##ు 0
##⒊ 0
##⒉ 0
##ޝ 0
##ങ 0
##ക 0
##┷ 0
##ㄅ 0
##ᇀ 0
##ㆿ 0
##ᥫ 0
##ᥒ 0
##ᥱ 0
##∆ 0
##ռ 0
##ջ 0
##♪ 0
##⒍ 0
##⒐ 0
##⒑ 0
##ᖓ 0
##ᐅ 0
##ᓐ 0
##ゑ 0
##ჳ 0
##उ 0
##ᅫ 0
##ལ 0
##⒁ 0
##ⵍ 0
##ˡ 0
##ܘ 0
##ܪ 0
##ܡ 0
##ཅ 0
##⋯ 0
##ʱ 0
##ㄐ 0
##ර 0
##ෙ 0
##ෂ 0
##ඨ 0
##ා 0
##ධ 0
##ක 0
##ණ 0
##ය 0
##ញ 0
##ಮ 0
##ಯ 0
##ሬ 0
##ਰ 0
##ਿ 0
##ਮ 0
##ਦ 0
##⑫ 0
##ฉ 0
##ટ 0
##ນ 0
##ລ 0
##〇 0
##ဆ 0
##𖬟 0
##ẞ 0
##− 0
##ײ 0
##⑹ 0
##⑼ 0
##⑽ 0
##⒓ 0
##⒖ 0
##⒘ 0
##⒙ 0
##⒛ 0
##⑾ 0
##⑿ 0
##⒀ 0
##⒃ 0
##⒄ 0
##⒇ 0
##ㄞ 0
##ए 0
##© 0
##ເ 0
##ກ 0
##ठ 0
##ⵉ 0
##˨ 0
##˦ 0
##ჟ 0
##უ 0
##Ն 0
##Ծ 0
##Ե 0
##ះ 0
##ܦ 0
##ܟ 0
##゛ 0
##হ 0
##ঞ 0
##ۋ 0
##𐇻 0
##ᮝ 0
##ᵑ 0
##ঠ 0
##ஐ 0
##Ζ 0
##𐭯 0
##𐭠 0
##𐭧 0
##𐭲 0
##ງ 0
##ষ 0
##ヰ 0
##┽ 0
##య 0
##ణ 0
##ᥳ 0
##ˁ 0
##🌺 0
##ᆿ 0
##ｫ 0
##ﾗ 0
##ວ 0
##ມ 0
##ெ 0
##٢ 0
##٩ 0
##٨ 0
##ဟ 0
##ဝ 0
##ယ 0
##ↀ 0
##╀ 0
##┮ 0
##┞ 0
##┯ 0
##┰ 0
##┭ 0
##┍ 0
##┑ 0
##┠ 0
##┿ 0
##┱ 0
##▏ 0
##◢ 0
##ᆲ 0
##⼆ 0
##ਾ 0
##ਹ 0
##ਬ 0
##ល 0
##😭 0
##☺ 0
##¯ 0
##ᦎ 0
##ᧉ 0
##ᦆ 0
##ᦳ 0
##ᠢ 0
##ᠮ 0
##ᠳ 0
##ᠥ 0
##ᠷ 0
##ᠵ 0
##ನ 0
##ಪ 0
##ᑭ 0
##ᖅ 0
##ᑖ 0
##ᓗ 0
##ᒃ 0
##ꓲ 0
##ꓸ 0
##ঝ 0
##ⲏ 0
##¸ 0
##ৱ 0
##গ 0
##ႄ 0
##ڵ 0
##ந 0
##ே 0
##Þ 0
##𐇡 0
##គ 0
##ភ 0
##Μ 0
##ӏ 0
##🌲 0
##भ 0
##ဖ 0
##ၿ 0
##¥ 0
##ﾃ 0
##ｬ 0
##ﾋ 0
##ǁ 0
##▶ 0
##ໄ 0
##ຟ 0
##ܒ 0
##ㅇ 0
##ㅌ 0
##ซ 0
##ਤ 0
##ਸ 0
##ᆩ 0
##ƀ 0
##చ 0
##ప 0
##მ 0
##ஜ 0
##ㄈ 0
##ㄑ 0
##ಸ 0
##ಥ 0
##👉 0
##Ӏ 0
##ᩅ 0
##ᩃ 0
##ᩣ 0
##ᨵ 0
##ᨾ 0
##ஸ 0
##Ϲ 0
##ㄍ 0
##ூ 0
##ₓ 0
##ㄦ 0
##ㄒ 0
##ɝ 0
##ॉ 0
##㈢ 0
##㈦ 0
##𐇸 0
##⺌ 0
##ᠤ 0
##শ 0
##𓏺 0
##𓈖 0
##𓆎 0
##𓅓 0
##𓏏 0
##𓊖 0
##ޑ 0
##ಳ 0
##▎ 0
##⑴ 0
##ຣ 0
##ㄷ 0
##қ 0
##ƙ 0
##┝ 0
##𒁺 0
##𒈬 0
##ദ 0
##𖬣 0
##ཿ 0
##ѵ 0
##և 0
##ዕ 0
##๕ 0
##◡ 0
##╹ 0
##🇧 0
##ណ 0
##զ 0
##න 0
##ｱ 0
##ຄ 0
##ຫ 0
##ຽ 0
##ຈ 0
##લ 0
##℃ 0
##╚ 0
##╝ 0
##ღ 0
##⋚ 0
##╄ 0
##Վ 0
##ⵙ 0
##ⵃ 0
##ⵡ 0
##ⵢ 0
##ཞ 0
##ȣ 0
##ﬁ 0
##ܣ 0
##𐇼 0
##𐇖 0
##ڤ 0
##ᴀ 0
##ױ 0
##┉ 0
##ᓄ 0
##ᓱ 0
##ˆ 0
##ｾ 0
##ㆵ 0
##ך 0
##ற 0
##♥ 0
##የ 0
##ደ 0
##འ 0
##ㅎ 0
##😞 0
##＄ 0
##ฏ 0
##ѥ 0
##𐇮 0
##𐇩 0
##ક 0
##શ 0
##𐭦 0
##𐭣 0
##𐭪 0
##ｨ 0
##ᥴ 0
##≦ 0
##ㅊ 0
##Ɛ 0
##ཤ 0
##𐇱 0
##𐇦 0
##ꠤ 0
##ꠟ 0
##ꠐ 0
##😔 0
##ᅤ 0
##ᧅ 0
##ᦰ 0
##ᶇ 0
##ⱬ 0
##ݢ 0
##ཚ 0
##◤ 0
##ᡳ 0
##ᡠ 0
##ᡥ 0
##ᡵ 0
##𐇝 0
##ヶ 0
##ٽ 0
##ѡ 0
##𐭥 0
##𐭫 0
##𐭢 0
##𐭭 0
##ᡝ 0
##ƶ 0
##ප 0
##𐎣 0
##𐎴 0
##ꨰ 0
##ꨈ 0
##ꩉ 0
##⃝ 0
##ﾛ 0
##ᠣ 0
##ᡴ 0
##ᡨ 0
##ᠪ 0
##№ 0
##ይ 0
##ﻪ 0
##ﻣ 0
##ᥤ 0
##Ⅷ 0
##ճ 0
##ㅋ 0
##ං 0
##හ 0
##┻ 0
##ƹ 0
##ᶦ 0
##⌃ 0
##⌥ 0
##⇧ 0
##⇪ 0
##ҙ 0
##≧ 0
##ᥭ 0
##ᥘ 0
##ⵊ 0
##ට 0
##Ꭶ 0
##Ꭸ 0
##Ᏹ 0
##┆ 0
##ⵛ 0
##ឡ 0
##👠 0
##ƽ 0
##ཉ 0
##ㅈ 0
##ᵽ 0
##შ 0
##ਗ 0
##ੜ 0
##ଂ 0
##ଶ 0
##ㆴ 0
##ㆠ 0
##ㆦ 0
##﹢ 0
##Ə 0
##ཏ 0
##ཨ 0
##╟ 0
##ฎ 0
##ㆭ 0
##გ 0
##Ա 0
##𐌄 0
##ʕ 0
##ම 0
##ජ 0
##ද 0
##ɴ 0
##𐇺 0
##է 0
##〵 0
##ܢ 0
##₄ 0
##▇ 0
##ɥ 0
##🇳 0
##ው 0
##⿱ 0
##ಬ 0
##ㄫ 0
##ꓬ 0
##ꓽ 0
##ङ 0
##ｳ 0
##ｺ 0
##〒 0
##ฮ 0
##ਜ 0
##ੀ 0
##ভ 0
##ƚ 0
##┇ 0
##ﬂ 0
##స 0
##త 0
##𐇰 0
##ಲ 0
##ծ 0
##ﺤ 0
##ქ 0
##წ 0
##ﺮ 0
##ﻕ 0
##ŉ 0
##✔ 0
##⼀ 0
##ヵ 0
##ヮ 0
##∟ 0
##┖ 0
##┚ 0
##Ѣ 0
##ʈ 0
##🔍 0
##😪 0
##ܗ 0
##ᥥ 0
##🇾 0
##ꈐ 0
##వ 0
##ჭ 0
##ყ 0
##𐤃 0
##𐤌 0
##ᮛ 0
##𝑈 0
##Յ 0
##Դ 0
##𰻞 0
##𐓣 0
##⼯ 0
##♦ 0
##ᧆ 0
##🇷 0
##గ 0
##ස 0
##ǀ 0
##😂 0
##ㅁ 0
##⿰ 0
##ᒡ 0
##ᓘ 0
##ᑲ 0
##🚗 0
##ᨚ 0
##ᨓ 0
##ᦟ 0
##ᖃ 0
##ᑑ 0
##ᑦ 0
##ᑎ 0
##ᐊ 0
##अ 0
##ᆶ 0
##ڌ 0
##ꜣ 0
##ꆨ 0
##ꋍ 0
##ढ 0
##𐀁 0
##𐀫 0
##ਨ 0
##ਵ 0
##ਲ 0
##ꦿ 0
##ꦮ 0
##ꦗ 0
##ꦪ 0
##😁 0
##ហ 0
##❓ 0
##ϕ 0
##ር 0
##ነ 0
##ት 0
##ꙑ 0
##ឿ 0
##ខ 0
##ڬ 0
##ޔ 0
##ނ 0
##ގ 0
##⺗ 0
##𐇠 0
##ฑ 0
##𐎺 0
##𐎩 0
##ȼ 0
##ﻴ 0
##ﺍ 0
##ﺝ 0
##ʇ 0
##╓ 0
##╥ 0
##❤ 0
##ȷ 0
##є 0
##⒈ 0
##ধ 0
##㊣ 0
##ȥ 0
##╤ 0
##ฯ 0
##ұ 0
##ֆ 0
##ܙ 0
##🏻 0
##ጥ 0
##ሰ 0
##ሐ 0
##ᨈ 0
##ដ 0
##😌 0
##😇 0
##ǃ 0
##ើ 0
##ܩ 0
##డ 0
##బ 0
##ຳ 0
##≒ 0
##ᅰ 0
##ፍ 0
##ሄ 0
##ⲥ 0
##ⲧ 0
##ⲱ 0
##ཐ 0
##◥ 0
##ʅ 0
##⊇ 0
##ⲣ 0
##ⲗ 0
##ϸ 0
##ለ 0
##⾳ 0
##𝘩 0
##𝘦 0
##པ 0
##फ 0
##ያ 0
##ң 0
##ঘ 0
##ʧ 0
##🎥 0
##📺 0
##ህ 0
##ወ 0
##ቅ 0
##జ 0
##మ 0
##ద 0
##ƒ 0
##ﾎ 0
##ㅔ 0
##ტ 0
##ჲ 0
##ᨴ 0
##ᩱ 0
##ᩭ 0
##ꓴ 0
##খ 0
##┟ 0
##┡ 0
##┢ 0
##┲ 0
##╁ 0
##╂ 0
##ฆ 0
##ᵿ 0
##👈 0
##۹ 0
##۱ 0
##ҳ 0
##ܔ 0
##⺻ 0
##ធ 0
##ڑ 0
##օ 0
##ⵜ 0
##ㄱ 0
##😲 0
##▕ 0
##ɵ 0
##ꉸ 0
##ꉳ 0
##ꆃ 0
##ꁈ 0
##ꊨ 0
##ꏦ 0
##ꍓ 0
##⼈ 0
##𐓤 0
##𐓘 0
##𐓯 0
##ᧁ 0
##𐇓 0
##ɘ 0
##ꌠ 0
##ጋ 0
##ɶ 0
##ཡ 0
##ܥ 0
##ሥ 0
##ሓ 0
##ﾍ 0
##ළ 0
##ત 0
##ๆ 0
##इ 0
##ቡ 0
##ጊ 0
##ዳ 0
##ገ 0
##ድ 0
##♣ 0
##𞄄 0
##𞄰 0
##𞄩 0
##😊 0
##ਠ 0
##ਕ 0
##ਟ 0
##˶ 0
##ƍ 0
##ѫ 0
##𐇒 0
##⽹ 0
##ኢ 0
##ዮ 0
##ጵ 0
##ᆪ 0
##ɋ 0
##Ꮝ 0
##Ꮿ 0
##ሜ 0
##ƣ 0
##ཕ 0
##𒈪 0
##ɗ 0
##വ 0
##പ 0
##ം 0
##ㄭ 0
##⼗ 0
##ǂ 0
##ᐱ 0
##ᕐ 0
##ᔪ 0
##ฝ 0
##ϑ 0
##ല 0
##ബ 0
##ɭ 0
##ຮ 0
##𐎧 0
##𐎶 0
##𐎡 0
##џ 0
##𒀳 0
##𐇳 0
##၀ 0
##၁ 0
##Ħ 0
##▮ 0
##ᥩ 0
##😨 0
##ગ 0
##ཁ 0
##ㆯ 0
##ژ 0
##భ 0
##ⵣ 0
##ⴼ 0
##ҧ 0
##৬ 0
##Թ 0
##⼩ 0
##ㅜ 0
##ᥛ 0
##ሀ 0
##һ 0
##◐ 0
##┒ 0
##ዝ 0
##ܛ 0
##⾊ 0
##ᴍ 0
##ফ 0
##👧 0
##ⅰ 0
##ϟ 0
##⋅ 0
##𐀙 0
##𐀭 0
##∀ 0
##▓ 0
##ៀ 0
##ಜ 0
##Ǝ 0
##ⵄ 0
##Ռ 0
##Ի 0
##ᮔ 0
##᮪ 0
##ᮓ 0
##ឫ 0
##ᚱ 0
##ๅ 0
##ﾚ 0
##ĳ 0
##𝘵 0
##𝘴 0
##ཛ 0
##𒆠 0
##𒆕 0
##Ƭ 0
##² 0
##🇬 0
##ﮮ 0
##ః 0
##𑖰 0
##𑖮 0
##𑖯 0
##𑖨 0
##ஷ 0
##இ 0
##ᵝ 0
##ട 0
##ﻭ 0
##ﺎ 0
##ﮪ 0
##¹ 0
##ℓ 0
##អ 0
##ឃ 0
##ဥ 0
##🇨 0
##ও 0
##ዘ 0
##በ 0
##ባ 0
##ᕙ 0
##ᓪ 0
##ᓕ 0
##ཟ 0
##𝘢 0
##ᥲ 0
##ᶷ 0
##ৎ 0
##ｼ 0
##ʙ 0
##ⴳ 0
##ၢ 0
##๙ 0
##ﮭ 0
##ﻔ 0
##ﯩ 0
##ﻐ 0
##ސ 0
##މ 0
##ލ 0
##ฅ 0
##ކ 0
##ɓ 0
##ᤰ 0
##ᤌ 0
##ᤱ 0
##𐇕 0
##Ⅸ 0
##ⅳ 0
##ⅴ 0
##ⅵ 0
##ⅶ 0
##ⅷ 0
##ⅸ 0
##⌣ 0
##˘ 0
##ꓪ 0
##ꓼ 0
##װ 0
##ᑕ 0
##ᐢ 0
##ᑮ 0
##ﾜ 0
##ⓒ 0
##ꙗ 0
##๔ 0
##𓊪 0
##𓅱 0
##𓃣 0
##⽆ 0
##ㅙ 0
##ㅝ 0
##ㅞ 0
##ㅟ 0
##😩 0
##𐭮 0
##ƌ 0
##ᴗ 0
##ʘ 0
##ժ 0
##𐎿 0
##㌫ 0
##㌶ 0
##㍊ 0
##㍍ 0
##㍑ 0
##˧ 0
##┸ 0
##ʮ 0
##ৗ 0
##𝘨 0
##٧ 0
##ㆤ 0
##ৈ 0
##ቴ 0
##ⲅ 0
##ᓇ 0
##ᮞ 0
##ᩤ 0
##😢 0
##Ј 0
##✰ 0
##ख 0
##ሚ 0
##ᛠ 0
##╗ 0
##￢ 0
##⼤ 0
##⾯ 0
##✕ 0
##⁴ 0
##℉ 0
##ܓ 0
##झ 0
##㈧ 0
##㈨ 0
##㈩ 0
##꒰ 0
##♡ 0
##ꎖ 0
##ꉙ 0
##Є 0
##ཇ 0
##ತ 0
##ష 0
##ㅓ 0
##꜓ 0
##🇭 0
##๑ 0
##㎡ 0
##ے 0
##𓆑 0
##𓍘 0
##𓈉 0
##ɠ 0
##ᥖ 0
##ᥬ 0
##ᥑ 0
##ꐎ 0
##પ 0
##ଡ 0
##ା 0
##ማ 0
##😖 0
##ꙁ 0
##ખ 0
##ʯ 0
##┕ 0
##ⵖ 0
##ҹ 0
##ឪ 0
##𐎌 0
##𐎗 0
##𐎛 0
##𐎍 0
##㎏ 0
##𐇪 0
##𐇴 0
##𐇤 0
##ჱ 0
##ỻ 0
##𐏂 0
##𐎱 0
##╔ 0
##ຜ 0
##ڪ 0
##👏 0
##ㆶ 0
##ｵ 0
##〢 0
##〣 0
##〤 0
##〥 0
##〦 0
##〧 0
##〨 0
##〩 0
##உ 0
##ຂ 0
##ळ 0
##𐎰 0
##ⴱ 0
##𐩣 0
##𐩺 0
##𐩧 0
##څ 0
##🌙 0
##ꂵ 0
##ꇁ 0
##ꄿ 0
##ٱ 0
##〡 0
##⛄ 0
##ᠬ 0
##ᠭ 0
##¼ 0
##ဌ 0
##┥ 0
##𝘭 0
##𝘪 0
##🇵 0
##ဘ 0
##𐭐 0
##𐭀 0
##😣 0
##ც 0
##҉ 0
##ᵚ 0
##ⲭ 0
##ႃ 0
##ႈ 0
##ɏ 0
##😠 0
##ಶ 0
##ㆷ 0
##ᓂ 0
##ᔅ 0
##ﬀ 0
##𐇥 0
##ㅕ 0
##ㅛ 0
##ㅠ 0
##ㅣ 0
##ㅒ 0
##ㅖ 0
##ↄ 0
##ከ 0
##ɢ 0
##ഫ 0
##ል 0
##ವ 0
##ᒪ 0
##ᒋ 0
##ᐧ 0
##◯ 0
##ឋ 0
##ኲ 0
##Ƽ 0
##𐰇 0
##𐰛 0
##ಟ 0
##✿ 0
##ಹ 0
##𐇯 0
##𐇶 0
##ᆳ 0
##ᵛ 0
##ᚷ 0
##ᚩ 0
##ᚦ 0
##𒌇 0
##₃ 0
##✧ 0
##🇺 0
##𐀏 0
##ѹ 0
##👌 0
##ছ 0
##ᨣ 0
##ᨦ 0
##𐇘 0
##⁺ 0
##𖬝 0
##𐌉 0
##ਡ 0
##ಚ 0
##ቆ 0
##ﾅ 0
##პ 0
##😜 0
##⿻ 0
##ശ 0
##ᴅ 0
##ᆱ 0
##ਧ 0
##ਆ 0
##ਣ 0
##ꓳ 0
##ៃ 0
##𐭱 0
##𐭩 0
##😉 0
##ｧ 0
##ﾔ 0
##ါ 0
##ဇ 0
##﹦ 0
##𓊵 0
##ⵟ 0
##꜁ 0
##☁ 0
##മ 0
##ണ 0
##ŀ 0
##⿳ 0
##⿴ 0
##⿵ 0
##⿶ 0
##⿷ 0
##⿸ 0
##⿹ 0
##⿺ 0
##ሒ 0
##ꦲ 0
##ꦠ 0
##ƈ 0
##ބ 0
##Ђ 0
##😝 0
##ӈ 0
##ƭ 0
##𐩯 0
##𐩬 0
##𐩵 0
##ﾑ 0
##┙ 0
##┪ 0
##ዎ 0
##ዶ 0
##ፋ 0
##ŧ 0
##𐇚 0
##𐰉 0
##𐰍 0
##𐰲 0
##ᠰ 0
##ኽ 0
##ሱ 0
##ም 0
##እ 0
##१ 0
##🇪 0
##ැ 0
##◣ 0
##ꆪ 0
##ꃄ 0
##ꌕ 0
##ꄡ 0
##ጀ 0
##ಠ 0
##▋ 0
##ԓ 0
##㏒ 0
##㎜ 0
##㎝ 0
##㎞ 0
##㏄ 0
##㏎ 0
##㏕ 0
##Ꮃ 0
##Ꭹ 0
##ႁ 0
##ၼ 0
##⾺ 0
##Ո 0
##🐶 0
##ସ 0
##ନ 0
##ሞ 0
##ክ 0
##ᓯ 0
##⾰ 0
##𐓻 0
##𐓟 0
##ƻ 0
##ꠣ 0
##ꠘ 0
##ꠁ 0
##ꠊ 0
##Ꮄ 0
##Ꭿ 0
##Ꮜ 0
##Ꮕ 0
##ꓵ 0
##ڙ 0
##ڻ 0
##ހ 0
##╦ 0
##ౄ 0
##☟ 0
##ƅ 0
##⁵ 0
##ᨯ 0
##ᨰ 0
##ឯ 0
##ӕ 0
##ዋ 0
##ཊ 0
##📢 0
##💤 0
##ଲ 0
##େ 0
##ଵ 0
##ର 0
##ᵐ 0
##ዴ 0
##⋛ 0
##⋋ 0
##😫 0
##𮄫 0
##ʟ 0
##𞄤 0
##𞄳 0
##𞄬 0
##𞄐 0
##𞄦 0
##𞄲 0
##𞄎 0
##𞄫 0
##𞄚 0
##𞄧 0
##𞄔 0
##𞄱 0
##𞄀 0
##० 0
##७ 0
##२ 0
##๖ 0
##ˍ 0
##બ 0
##𐇭 0
##ܨ 0
##ƃ 0
##অ 0
##Ⓑ 0
##Ⓒ 0
##€ 0
##ƛ 0
##ﾂ 0
##► 0
##ꦺ 0
##ꦴ 0
##ꦑ 0
##➖ 0
##ള 0
##ඔ 0
##බ 0
##අ 0
##ශ 0
##Ր 0
##Պ 0
##Տ 0
##ҕ 0
##ᨅ 0
##ᨀ 0
##ᨔ 0
##ឌ 0
##▊ 0
##┧ 0
##ᴠ 0
##㎎ 0
##ƴ 0
##ᵋ 0
##ဒ 0
##┩ 0
##ବ 0
##җ 0
##ਉ 0
##𝝱 0
##˞ 0
##ﻮ 0
##ﻞ 0
##ヿ 0
##👩 0
##🌹 0
##🌻 0
##🍁 0
##ꦱ 0
##꧀ 0
##ꦢ 0
##ꦩ 0
##ꦥ 0
##ꦭ 0
##ᶴ 0
##ｴ 0
##ﾈ 0
##મ 0
##ዊ 0
##Բ 0
##Ղ 0
##🐢 0
##١ 0
##ພ 0
##ɺ 0
##আ 0
##ǥ 0
##ⱡ 0
##𒌑 0
##𒃷 0
##ና 0
##⍵ 0
##ኛ 0
##☞ 0
##𐌿 0
##𐌻 0
##𐌳 0
##𐌰 0
##⼿ 0
##ﻟ 0
##ﻌ 0
##ﺒ 0
##ﺭ 0
##ᠯ 0
##ਥ 0
##ቃ 0
##Ѯ 0
##╈ 0
##▨ 0
##♯ 0
##ㄴ 0
##😚 0
##ଙ 0
##ଗ 0
##ᵀ 0
##ᕆ 0
##🇼 0
##ﻧ 0
##ﺑ 0
##Ⅿ 0
##ґ 0
##ㄬ 0
##⽽ 0
##✪ 0
##⊂ 0
##💪 0
##𐇙 0
##🇹 0
##𐇬 0
##ɍ 0
##𑖗 0
##𑖕 0
##𑖫 0
##𑖱 0
##ㄪ 0
##ϐ 0
##ⵇ 0
##ƥ 0
##Ⓓ 0
##ഹ 0
##ꆈ 0
##ⵕ 0
##ᐸ 0
##ᐤ 0
##𐇹 0
##ߞ 0
##ߏ 0
##℅ 0
##╪ 0
##๐ 0
##ℝ 0
##╠ 0
##ᔑ 0
##ᓈ 0
##ᐯ 0
##ᒧ 0
##ᐎ 0
##Ꮀ 0
##Ꮉ 0
##ჩ 0
##╖ 0
##𞠁 0
##𞠂 0
##ꇖ 0
##ꏃ 0
##ᗺ 0
##ᗷ 0
##ᗅ 0
##𝘥 0
##ધ 0
##ᦑ 0
##ᦵ 0
##ᦄ 0
##ᦲ 0
##ȝ 0
##Ɂ 0
##ɂ 0
##ﾐ 0
##ｭ 0
##ﾉ 0
##ꇊ 0
##ୀ 0
##Ł 0
##ㆾ 0
##ㆳ 0
##థ 0
##ⲃ 0
##ආ 0
##￳ 0
##ኤ 0
##Ց 0
##Խ 0
##۳ 0
##ඛ 0
##Ћ 0
##▷ 0
##ᖇ 0
##ᕼ 0
##ᔕ 0
##ᗰ 0
##ᗩ 0
##ણ 0
##↔ 0
##ओ 0
##ۍ 0
##ᒥ 0
##ᐟ 0
##ᒣ 0
##ᑯ 0
##ɇ 0
##ຊ 0
##ɸ 0
##െ 0
##ᵊ 0
##ථ 0
##ච 0
##ޖ 0
##ƕ 0
##👯 0
##ሸ 0
##♓ 0
##ﻠ 0
##ﺐ 0
##ਝ 0
##ￚ 0
##ഡ 0
##ѕ 0
##👿 0
##ᦺ 0
##ᦹ 0
##ॊ 0
##ᥐ 0
##ƨ 0
##𐰼 0
##𐰰 0
##ᛞ 0
##ᛚ 0
##ᛗ 0
##ਘ 0
##ᆵ 0
##ថ 0
##💚 0
##Ɣ 0
##𓄿 0
##𓂋 0
##𓆰 0
##𐀯 0
##𐀩 0
##𐀄 0
##😷 0
##┎ 0
##ɩ 0
##ᆬ 0
##ګ 0
##ⱶ 0
##ﻲ 0
##⌓ 0
##˂ 0
##⽀ 0
##ㆫ 0
##￼ 0
##ఞ 0
##ㆨ 0
##┋ 0
##┵ 0
##┶ 0
##┹ 0
##┺ 0
##╅ 0
##╆ 0
##╇ 0
##╉ 0
##╒ 0
##╕ 0
##╙ 0
##╜ 0
##╞ 0
##╣ 0
##╨ 0
##╫ 0
##⇔ 0
##ѳ 0
##ｪ 0
##ᛇ 0
##ᛋ 0
##ᚻ 0
##💋 0
##〆 0
##㇏ 0
##∃ 0
##⾕ 0
##⽶ 0
##ⱥ 0
##𐇔 0
##ړ 0
##🐠 0
##ⲕ 0
##ᵉ 0
##he 0
20 0
##er 0
##in 0
the 0
##00 0
##on 0
##ed 0
201 0
##an 0
##or 0
##at 0
##en 0
##es 0
##ar 0
19 0
10 0
##nd 0
##al 0
##it 0
of 0
##ing 0
##as 0
##is 0
in 0
##ou 0
##ic 0
and 0
to 0
##om 0
##re 0
##ion 0
12 0
##le 0
##ac 0
##el 0
200 0
##il 0
11 0
##ent 0
##ro 0
15 0
##am 0
##st 0
th 0
##et 0
##ec 0
30 0
18 0
##ad 0
##ol 0
14 0
##ot 0
##id 0
##ur 0
##ig 0
##ir 0
##ow 0
##iv 0
2016 0
16 0
The 0
was 0
for 0
100 0
13 0
##ter 0
on 0
##ay 0
##ly 0
2015 0
17 0
##ut 0
##im 0
##em 0
st 0
2014 0
25 0
50 0
##ch 0
##ation 0
##us 0
as 0
##ul 0
##ith 0
00 0
##ers 0
##os 0
re 0
21 0
com 0
be 0
##ag 0
##000 0
##rac 0
with 0
##ce 0
that 0
##av 0
##ts 0
##and 0
##ver 0
24 0
##th 0
199 0
wh 0
22 0
##pp 0
##um 0
is 0
al 0
##od 0
##ct 0
by 0
##ain 0
##un 0
con 0
23 0
##est 0
##her 0
an 0
at 0
40 0
26 0
##rom 0
##ri 0
##op 0
##ess 0
31 0
28 0
##ab 0
60 0
##ap 0
##ist 0
##if 0
In 0
##ew 0
##oc 0
27 0
##igh 0
##ak 0
##ill 0
he 0
##20 0
##50 0
##ate 0
80 0
##ard 0
from 0
St 0
pro 0
198 0
##ber 0
##art 0
##◆◆ 0
his 0
2013 0
##ear 0
de 0
##all 0
##ld 0
##ia 0
##our 0
##ong 0
##ud 0
##frac 0
##ies 0
##ive 0
29 0
su 0
##ity 0
sh 0
##ich 0
##ere 0
ex 0
##ort 0
or 0
##ip 0
ch 0
##se 0
##60 0
90 0
##og 0
it 0
##ant 0
000 0
se 0
##ore 0
##ov 0
Ch 0
##ang 0
2017 0
##ok 0
were 0
35 0
34 0
##one 0
70 0
##ame 0
##ell 0
pl 0
##ian 0
##gh 0
##ine 0
500 0
##10 0
##rou 0
##ast 0
##ated 0
##qu 0
##ord 0
##ack 0
##ind 0
45 0
##ect 0
300 0
sp 0
197 0
##ep 0
##ight 0
##ment 0
##ost 0
2012 0
##ial 0
##ra 0
##nt 0
##ub 0
194 0
32 0
not 0
had 0
##end 0
are 0
##ust 0
2000 0
##ie 0
##80 0
##30 0
##tt 0
##ww 0
##mp 0
which 0
##ff 0
##out 0
##ge 0
##ary 0
2011 0
##ass 0
##ave 0
##ue 0
le 0
##ry 0
2010 0
33 0
36 0
##rit 0
##ical 0
##cc 0
##ure 0
51 0
##ish 0
##sp 0
cl 0
##99 0
##hen 0
48 0
2009 0
1000 0
##ik 0
##ttp 0
##11 0
##age 0
##ace 0
Al 0
##ould 0
http 0
rec 0
##ther 0
##so 0
##ous 0
2008 0
195 0
38 0
##ign 0
##ome 0
##ork 0
37 0
400 0
196 0
##iz 0
##PP 0
int 0
ar 0
##cl 0
55 0
but 0
##ru 0
49 0
app 0
##ice 0
comp 0
98 0
##ions 0
##ans 0
##ond 0
##fter 0
##irst 0
##ire 0
##orm 0
Th 0
tw 0
##ng 0
pr 0
form 0
##ide 0
cont 0
##ook 0
##ime 0
600 0
##per 0
ad 0
ab 0
##pt 0
He 0
##ark 0
tr 0
193 0
##ib 0
##ile 0
##ob 0
##uc 0
##ater 0
02 0
her 0
res 0
##ence 0
##88 0
first 0
their 0
01 0
##ance 0
75 0
39 0
QQ 0
42 0
mm 0
sc 0
its 0
##low 0
03 0
99 0
un 0
have 0
##oy 0
we 0
2007 0
Un 0
##hed 0
##70 0
##aw 0
ifrac 0
##40 0
also 0
##OS 0
one 0
##ree 0
##ey 0
05 0
off 0
##pl 0
##ual 0
##own 0
65 0
52 0
##ound 0
per 0
##ory 0
go 0
##ach 0
##ition 0
im 0
iP 0
##ick 0
who 0
##hone 0
##mer 0
43 0
150 0
##12 0
##ail 0
aº 0
44 0
##ock 0
2006 0
##ction 0
##ens 0
has 0
##ough 0
en 0
##man 0
95 0
ag 0
58 0
##BA 0
this 0
46 0
##33 0
08 0
41 0
ID 0
dis 0
##ely 0
07 0
up 0
##erv 0
two 0
On 0
##ex 0
##ult 0
04 0
##ft 0
It 0
85 0
##ade 0
120 0
bec 0
##90 0
Ar 0
##ix 0
88 0
been 0
##ations 0
##land 0
192 0
2005 0
##anc 0
out 0
##ite 0
part 0
man 0
afrac 0
year 0
47 0
##66 0
www 0
##te 0
##uring 0
us 0
des 0
##tern 0
##clud 0
you 0
##old 0
##are 0
09 0
3000 0
##ase 0
##ember 0
over 0
##ss 0
play 0
they 0
##pr 0
##ount 0
##inal 0
after 0
frac 0
##able 0
##oin 0
##amp 0
SU 0
56 0
other 0
##ake 0
##we 0
att 0
##ows 0
time 0
53 0
5000 0
##22 0
##15 0
59 0
##urn 0
66 0
##ood 0
IP 0
##ric 0
##18 0
54 0
Le 0
Mar 0
##ug 0
##ata 0
PS 0
57 0
MA 0
##16 0
##wn 0
iPhone 0
##ings 0
br 0
64 0
##ward 0
would 0
includ 0
##ose 0
##ted 0
##iss 0
pre 0
nb 0
2001 0
##ons 0
she 0
all 0
##ents 0
##hn 0
06 0
##ors 0
68 0
##25 0
ev 0
##vel 0
Sh 0
##ild 0
##ates 0
##ank 0
te 0
new 0
2004 0
##ever 0
##io 0
##ited 0
into 0
me 0
##les 0
VR 0
Re 0
SUV 0
##ont 0
800 0
##ath 0
him 0
nbsp 0
##19 0
##form 0
190 0
Fr 0
so 0
##att 0
more 0
##ula 0
comm 0
##ied 0
APP 0
work 0
##fer 0
zh 0
##ilm 0
Pro 0
Sp 0
##ased 0
VS 0
##13 0
##17 0
##ax 0
New 0
##nder 0
67 0
##way 0
##vi 0
##ational 0
col 0
360 0
2003 0
##rough 0
Com 0
62 0
CP 0
US 0
##sh 0
72 0
fe 0
App 0
##round 0
2018 0
78 0
cent 0
63 0
co 0
##aus 0
##act 0
bet 0
##14 0
##ann 0
##reat 0
##ike 0
bl 0
86 0
##orld 0
##ll 0
cn 0
##rop 0
when 0
##indows 0
sec 0
##ED 0
##ina 0
fl 0
##orn 0
##here 0
##ubl 0
##eld 0
76 0
2020 0
##ason 0
##DP 0
##rib 0
##son 0
And 0
Jo 0
##aid 0
##gan 0
##ote 0
83 0
formula 0
An 0
##ton 0
##enc 0
kn 0
##orth 0
##oth 0
##55 0
96 0
km 0
##ool 0
77 0
97 0
do 0
##oss 0
dec 0
69 0
rem 0
##ode 0
73 0
film 0
2002 0
180 0
##az 0
##EC 0
Pl 0
only 0
imp 0
Cl 0
##ict 0
inter 0
##ash 0
Pr 0
##ivers 0
them 0
82 0
data 0
about 0
char 0
cons 0
##EO 0
##eb 0
110 0
87 0
##ics 0
##ah 0
##du 0
again 0
##ered 0
##ollow 0
most 0
##★★ 0
92 0
than 0
93 0
74 0
ret 0
game 0
ear 0
4000 0
during 0
IT 0
##IA 0
##ram 0
##ween 0
pe 0
84 0
##AT 0
min 0
##IN 0
##fore 0
##ink 0
Bl 0
##lect 0
##meric 0
Sc 0
##ames 0
Wh 0
##ek 0
qu 0
GDP 0
can 0
under 0
##CD 0
##atch 0
cm 0
end 0
bu 0
am 0
79 0
##ery 0
Americ 0
acc 0
Go 0
89 0
ro 0
ac 0
##ove 0
sy 0
##ral 0
##outh 0
day 0
##duc 0
##au 0
##ife 0
song 0
##ox 0
##ve 0
between 0
num 0
##ener 0
##ular 0
act 0
##ters 0
rel 0
three 0
##ress 0
##ph 0
reg 0
rele 0
##oun 0
later 0
##ision 0
Windows 0
through 0
ind 0
##eng 0
while 0
sub 0
##ier 0
##ating 0
##ily 0
Br 0
1999 0
##73 0
ass 0
some 0
Ad 0
##red 0
img 0
no 0
##ower 0
where 0
##ement 0
inc 0
##air 0
De 0
2019 0
##als 0
94 0
def 0
Tr 0
As 0
##ally 0
##hes 0
##24 0
ser 0
##ai 0
there 0
##usic 0
rep 0
high 0
GB 0
made 0
##23 0
##aj 0
CEO 0
##ise 0
second 0
##77 0
##up 0
##ley 0
NBA 0
##olog 0
follow 0
##ific 0
back 0
1998 0
160 0
PC 0
##hip 0
ra 0
##eg 0
##ived 0
##ron 0
##yp 0
Ph 0
##ale 0
This 0
##ane 0
250 0
sur 0
Car 0
ep 0
##ines 0
##ept 0
John 0
amp 0
writ 0
##ning 0
such 0
##AN 0
##inu 0
61 0
##98 0
At 0
record 0
four 0
gr 0
##ER 0
before 0
##erm 0
##bum 0
##26 0
spec 0
##95 0
call 0
AP 0
years 0
class 0
6000 0
##ished 0
##any 0
season 0
##75 0
##arg 0
##velop 0
##enn 0
##ather 0
II 0
##28 0
Col 0
id 0
##roup 0
team 0
serv 0
pol 0
##BC 0
##ury 0
##ained 0
##45 0
Ro 0
sm 0
1500 0
##other 0
publ 0
ph 0
Be 0
##PS 0
AC 0
##ert 0
##pen 0
supp 0
##stem 0
##ouse 0
Eng 0
##ject 0
##ett 0
used 0
inv 0
CD 0
##65 0
1990 0
##↓↓ 0
##ext 0
##ious 0
Con 0
##aged 0
##ause 0
##chool 0
She 0
##ins 0
##AS 0
##owever 0
loc 0
Ex 0
##elf 0
##TV 0
##AR 0
1997 0
then 0
130 0
air 0
being 0
##ern 0
##ten 0
##78 0
car 0
album 0
add 0
##its 0
pres 0
##ople 0
##ull 0
str 0
Mac 0
##iet 0
##OL 0
##ince 0
700 0
##ven 0
##iam 0
##35 0
ST 0
##ved 0
##ys 0
##68 0
##ures 0
NO 0
##co 0
##irect 0
##row 0
IS 0
number 0
lead 0
##und 0
##vern 0
After 0
Brit 0
stud 0
##ross 0
mon 0
well 0
epis 0
against 0
ps 0
long 0
War 0
71 0
Ind 0
188 0
##ative 0
##ium 0
##idth 0
##ield 0
##oot 0
sing 0
##ogle 0
##ities 0
##roid 0
met 0
United 0
XX 0
charac 0
##iver 0
##my 0
##iversity 0
91 0
##erson 0
##itt 0
##ange 0
For 0
##ao 0
sever 0
found 0
win 0
##ful 0
war 0
##ON 0
main 0
mov 0
10000 0
perform 0
1996 0
##view 0
cap 0
did 0
show 0
##tm 0
Note 0
OP 0
##app 0
##ism 0
LED 0
##OM 0
##ird 0
including 0
became 0
1980 0
##led 0
##der 0
##hu 0
both 0
##ris 0
##ner 0
##48 0
##rap 0
81 0
You 0
inst 0
develop 0
##NA 0
##ets 0
1995 0
par 0
MP 0
gu 0
said 0
##eed 0
140 0
##93 0
any 0
##27 0
##fl 0
American 0
series 0
dif 0
##ised 0
will 0
many 0
cre 0
##yle 0
art 0
##IS 0
ext 0
##imes 0
All 0
##96 0
AT 0
could 0
ob 0
appear 0
1994 0
##sc 0
##ene 0
mill 0
##ke 0
##ution 0
bro 0
##res 0
Ed 0
##MA 0
No 0
##uch 0
##emb 0
##ced 0
pop 0
exp 0
like 0
##ty 0
##ident 0
Ge 0
return 0
mod 0
Air 0
people 0
orig 0
run 0
Aust 0
##aking 0
##book 0
desc 0
##21 0
May 0
##rack 0
##38 0
EIA 0
raww 0
rawwidth 0
ship 0
##OP 0
##oint 0
##76 0
design 0
my 0
AB 0
AM 0
if 0
Is 0
##af 0
pass 0
rece 0
World 0
##ually 0
PPP 0
##ccess 0
##SI 0
Se 0
170 0
episode 0
Fl 0
VI 0
##vent 0
##though 0
several 0
OPEC 0
1993 0
1992 0
sign 0
bel 0
185 0
##ony 0
est 0
fam 0
##une 0
##ava 0
Or 0
pos 0
comple 0
AR 0
Gr 0
known 0
##ized 0
eff 0
top 0
##TC 0
We 0
##ne 0
vi 0
##very 0
##ble 0
##TA 0
own 0
dist 0
aut 0
prov 0
unt 0
may 0
##inc 0
MACD 0
##els 0
##ired 0
##int 0
##yl 0
near 0
feat 0
##ists 0
TV 0
music 0
Har 0
##gg 0
University 0
985 0
##29 0
Android 0
resp 0
final 0
##ech 0
##44 0
##ps 0
Am 0
1200 0
##tml 0
sim 0
began 0
PP 0
##36 0
Ger 0
##cept 0
count 0
Google 0
Su 0
##ible 0
##ars 0
open 0
gener 0
211 0
##ided 0
early 0
down 0
##uss 0
until 0
system 0
Will 0
called 0
##ital 0
CS 0
po 0
##ments 0
1991 0
Gu 0
##ott 0
group 0
CC 0
dr 0
##AM 0
##71 0
Co 0
##alk 0
##ute 0
kg 0
##85 0
Man 0
direct 0
##me 0
qq 0
##ially 0
CPU 0
##ling 0
released 0
Mc 0
##ajor 0
123 0
mil 0
##osed 0
##ility 0
##ains 0
these 0
##bert 0
produc 0
Ang 0
350 0
##ract 0
##ruct 0
what 0
crit 0
##aster 0
Comm 0
##AA 0
##rist 0
186 0
use 0
British 0
One 0
##by 0
million 0
Bar 0
900 0
105 0
because 0
offic 0
##74 0
##IC 0
##eth 0
Ju 0
along 0
1988 0
MV 0
##ured 0
##raft 0
Bro 0
life 0
↓↓↓ 0
dep 0
Aug 0
Tw 0
hist 0
##79 0
##ren 0
##ently 0
##ats 0
govern 0
1970 0
##oard 0
##lish 0
land 0
##wards 0
##ives 0
##ung 0
oper 0
##ience 0
iOS 0
125 0
same 0
##ior 0
##ES 0
##aining 0
States 0
fr 0
original 0
world 0
Can 0
##ended 0
success 0
168 0
##OR 0
##line 0
August 0
DV 0
##ee 0
PK 0
##II 0
##31 0
Nov 0
##94 0
const 0
just 0
though 0
IC 0
##attle 0
Apple 0
Sept 0
PM 0
King 0
##aby 0
arr 0
##aving 0
8000 0
low 0
##amed 0
##ection 0
var 0
head 0
around 0
By 0
fin 0
##ession 0
Sm 0
Oct 0
September 0
##orts 0
##ody 0
attack 0
ele 0
Austral 0
character 0
##oo 0
1950 0
El 0
##ces 0
now 0
red 0
html 0
produ 0
trans 0
##ient 0
ann 0
describ 0
##iving 0
bre 0
##su 0
week 0
Sy 0
##92 0
1989 0
##con 0
set 0
##rol 0
Dec 0
start 0
style 0
SP 0
GL 0
German 0
They 0
med 0
128 0
York 0
ed 0
occ 0
★★★ 0
build 0
North 0
line 0
public 0
eµ 0
hel 0
continu 0
##DR 0
small 0
##ky 0
HR 0
took 0
##orted 0
##46 0
following 0
sl 0
six 0
##ects 0
##IF 0
##ural 0
prom 0
Jan 0
1984 0
##reen 0
##ission 0
##arge 0
Par 0
##med 0
##ize 0
state 0
##hern 0
##ober 0
##emp 0
API 0
##eter 0
1985 0
##oll 0
each 0
However 0
En 0
##ically 0
consid 0
##idge 0
ref 0
##ret 0
care 0
1949 0
SS 0
##97 0
school 0
1986 0
Qu 0
north 0
##ush 0
##acebook 0
city 0
##ck 0
October 0
1960 0
vs 0
##vers 0
##ales 0
AD 0
1987 0
##ideo 0
five 0
em 0
##urch 0
Dav 0
name 0
Ste 0
Des 0
##ried 0
##hy 0
received 0
book 0
##ature 0
##AC 0
ºa 0
Min 0
##ored 0
differ 0
mar 0
##aced 0
conc 0
##ately 0
ent 0
IE 0
##ians 0
partic 0
##gin 0
##ream 0
MM 0
make 0
##ants 0
##BS 0
area 0
##EN 0
##ology 0
IPO 0
##ench 0
##72 0
1945 0
Me 0
left 0
##34 0
##ording 0
##hel 0
xx 0
##aim 0
##ator 0
Christ 0
##urr 0
way 0
Eu 0
##ype 0
last 0
135 0
get 0
rest 0
major 0
home 0
Intern 0
century 0
GT 0
vers 0
much 0
ml 0
##hest 0
Wi 0
##ID 0
##ages 0
##86 0
band 0
##riend 0
##yn 0
LO 0
June 0
South 0
##play 0
##IT 0
##ET 0
##ours 0
##oon 0
Mich 0
Char 0
Te 0
since 0
##St 0
turn 0
GP 0
##ball 0
Comp 0
adv 0
##apan 0
July 0
##ague 0
##ograp 0
person 0
old 0
##ript 0
det 0
Dr 0
single 0
cr 0
CF 0
##ilt 0
prog 0
When 0
result 0
1982 0
March 0
101 0
2500 0
Apr 0
family 0
##56 0
##side 0
##ady 0
##oman 0
##ified 0
My 0
##ler 0
div 0
vis 0
November 0
220 0
##ipp 0
##ald 0
April 0
##ared 0
##32 0
efrac 0
##echn 0
DS 0
mark 0
DVD 0
##tain 0
##ively 0
eng 0
108 0
allow 0
##gy 0
Cent 0
Sw 0
##ined 0
expl 0
CR 0
450 0
##uary 0
tit 0
##ected 0
child 0
very 0
Japan 0
KD 0
##TF 0
list 0
National 0
William 0
1983 0
leg 0
place 0
##rew 0
##91 0
power 0
Her 0
##alf 0
large 0
##avy 0
dem 0
Pol 0
##atic 0
event 0
##vious 0
La 0
##ister 0
based 0
incre 0
##ota 0
##br 0
Gl 0
##ham 0
say 0
ip 0
##ney 0
hand 0
##lex 0
another 0
##atter 0
requ 0
##earch 0
##let 0
opp 0
month 0
prot 0
##www 0
EX 0
##EL 0
USB 0
appro 0
##oci 0
##58 0
##ana 0
##irl 0
sk 0
##ides 0
imaged 0
##37 0
imageda 0
##ness 0
104 0
##bs 0
##orp 0
best 0
government 0
south 0
##aul 0
##ival 0
third 0
center 0
Cal 0
##na 0
camp 0
even 0
##CA 0
kill 0
Facebook 0
short 0
del 0
CM 0
CT 0
There 0
due 0
During 0
Play 0
Geor 0
BM 0
elect 0
240 0
December 0
##face 0
OK 0
track 0
won 0
men 0
##39 0
story 0
##reet 0
good 0
##ense 0
West 0
1979 0
ES 0
##iness 0
led 0
real 0
CO 0
##akes 0
played 0
##rote 0
##ask 0
January 0
review 0
av 0
port 0
##ences 0
word 0
view 0
kW 0
##arm 0
death 0
##hor 0
included 0
##eep 0
##ights 0
Rec 0
##ices 0
1978 0
##iven 0
net 0
TA 0
##ese 0
##uck 0
DNA 0
belie 0
##ael 0
Ab 0
TOP 0
larg 0
help 0
term 0
wrote 0
Part 0
every 0
Park 0
Europ 0
cour 0
##oyal 0
la 0
##of 0
##omin 0
##ean 0
still 0
next 0
Win 0
Med 0
##iqu 0
IM 0
##get 0
che 0
##ND 0
those 0
##IM 0
##００ 0
106 0
Angel 0
##ump 0
disc 0
126 0
water 0
##pm 0
great 0
320 0
CV 0
emp 0
RM 0
##ape 0
##iod 0
Gal 0
##idd 0
##augh 0
take 0
English 0
deb 0
gun 0
offer 0
##itions 0
##ara 0
poss 0
##ilar 0
##ested 0
conf 0
##urther 0
BB 0
115 0
tour 0
support 0
previous 0
China 0
exper 0
##ances 0
##ittle 0
1981 0
310 0
Mark 0
##elt 0
010 0
##ae 0
PE 0
##ube 0
High 0
##embers 0
City 0
##OT 0
7000 0
His 0
##uk 0
##oute 0
prop 0
level 0
##work 0
Ear 0
sol 0
command 0
described 0
##ford 0
som 0
named 0
organ 0
##ached 0
Per 0
TC 0
Java 0
el 0
dam 0
Mic 0
CN 0
##aken 0
games 0
##min 0
tri 0
Ser 0
Ass 0
##43 0
sw 0
##lev 0
103 0
##yth 0
init 0
##ms 0
##ched 0
##omen 0
##lo 0
##alth 0
##AD 0
1300 0
##42 0
1920 0
wind 0
your 0
stand 0
VIP 0
##ift 0
##ves 0
Jack 0
repl 0
##49 0
post 0
##ica 0
##ulation 0
Acc 0
Feb 0
175 0
HD 0
fun 0
Inst 0
present 0
MS 0
equ 0
Mon 0
match 0
hum 0
days 0
##par 0
Res 0
##ones 0
French 0
##41 0
##ruary 0
want 0
February 0
David 0
late 0
118 0
species 0
Sec 0
video 0
local 0
##ground 0
##OSS 0
##omb 0
280 0
ste 0
infl 0
within 0
##ison 0
##ged 0
##ji 0
OS 0
addition 0
102 0
163 0
period 0
1600 0
dest 0
To 0
AI 0
##use 0
KDJ 0
##47 0
1900 0
Rep 0
##69 0
##OW 0
Sch 0
members 0
CH 0
##ues 0
##ots 0
1940 0
held 0
release 0
##ino 0
came 0
built 0
AA 0
Off 0
mg 0
fre 0
Ne 0
155 0
law 0
##ger 0
##iy 0
different 0
sold 0
iPad 0
##eder 0
##ada 0
##aint 0
##ops 0
mag 0
##ington 0
ant 0
caus 0
although 0
former 0
IB 0
##ional 0
##OC 0
how 0
##ython 0
polit 0
few 0
James 0
##lege 0
house 0
GS 0
role 0
should 0
lo 0
SM 0
##abl 0
ide 0
AS 0
##inux 0
##estern 0
HP 0
beh 0
often 0
side 0
230 0
##itary 0
1800 0
##ondon 0
storm 0
OPP 0
##aff 0
##uted 0
138 0
##empt 0
gl 0
need 0
##oney 0
look 0
##ency 0
Ag 0
httpwww 0
##unt 0
Gener 0
##usiness 0
soc 0
##raw 0
##ruction 0
1930 0
##AL 0
DI 0
never 0
Count 0
##ropical 0
1975 0
town 0
right 0
##ille 0
star 0
SH 0
1976 0
##ards 0
friend 0
##Hz 0
##iu 0
however 0
Sim 0
##EM 0
With 0
1958 0
too 0
158 0
Red 0
##day 0
young 0
##cess 0
prof 0
##ouch 0
London 0
inf 0
tot 0
##ple 0
##US 0
##FC 0
##itter 0
stat 0
##iety 0
ne 0
without 0
LG 0
point 0
repr 0
strong 0
##ef 0
cover 0
##↑↑ 0
##ope 0
##lear 0
ins 0
among 0
##aper 0
find 0
##ests 0
Day 0
log 0
club 0
165 0
##cel 0
TM 0
GM 0
##itch 0
##aut 0
178 0
1941 0
sent 0
##ips 0
So 0
##osh 0
##zh 0
Michael 0
##PC 0
##lt 0
eas 0
cfrac 0
similar 0
import 0
##DA 0
commun 0
cos 0
live 0
ETF 0
raw 0
claim 0
England 0
enter 0
continued 0
BOSS 0
Mor 0
Mo 0
OPPO 0
chang 0
refer 0
##ead 0
260 0
Em 0
##ani 0
Hol 0
##amb 0
road 0
less 0
210 0
hold 0
Cap 0
program 0
half 0
further 0
rpm 0
##ampions 0
##pite 0
##osp 0
val 0
having 0
career 0
join 0
River 0
1946 0
##100 0
Step 0
Sur 0
PR 0
##ublic 0
365 0
##roy 0
order 0
IN 0
##irc 0
history 0
fact 0
##ument 0
become 0
##aur 0
player 0
position 0
UI 0
production 0
##aker 0
Do 0
##ma 0
##iter 0
School 0
Don 0
1956 0
002 0
1937 0
sound 0
Int 0
considered 0
love 0
HK 0
version 0
MI 0
1972 0
bo 0
Pre 0
1973 0
##press 0
##com 0
1942 0
1948 0
Mag 0
##ories 0
DC 0
cast 0
trad 0
Act 0
##uan 0
foot 0
west 0
107 0
##ius 0
##iment 0
pat 0
Pe 0
Rich 0
##ases 0
fire 0
comb 0
country 0
intern 0
LOL 0
330 0
Stud 0
rad 0
Black 0
east 0
##lin 0
Super 0
aff 0
1944 0
3500 0
##ention 0
##51 0
Phil 0
Met 0
company 0
know 0
include 0
##ches 0
control 0
1966 0
State 0
TF 0
RMB 0
sugg 0
SA 0
Although 0
influ 0
##63 0
##oid 0
read 0
Div 0
##67 0
Reg 0
520 0
1974 0
1968 0
moved 0
Val 0
Web 0
##conom 0
Ac 0
see 0
##craft 0
##height 0
##ries 0
##ration 0
written 0
##ring 0
##umb 0
rawheight 0
##ering 0
sum 0
Mod 0
Bo 0
1971 0
1965 0
invol 0
1969 0
ta 0
##axy 0
fail 0
ºe 0
##ster 0
Thom 0
service 0
Bill 0
##RE 0
##alt 0
888 0
MT 0
px 0
##ization 0
announ 0
##64 0
##GO 0
##reg 0
1955 0
EM 0
##oice 0
hig 0
750 0
lim 0
Pres 0
Mad 0
times 0
##ength 0
light 0
HT 0
given 0
AV 0
attempt 0
Road 0
↑↑↑ 0
1964 0
##PG 0
##Book 0
went 0
##ief 0
1977 0
MBA 0
##ways 0
Sam 0
Paul 0
##ole 0
cp 0
Game 0
total 0
XP 0
super 0
common 0
lost 0
##ij 0
##aign 0
##sequ 0
##BO 0
##isc 0
##mb 0
gave 0
BBC 0
##oud 0
##olution 0
##estion 0
George 0
repres 0
General 0
Af 0
##ably 0
##pper 0
While 0
TH 0
Street 0
##itive 0
SC 0
CPI 0
press 0
##ama 0
999 0
https 0
1947 0
Alex 0
Net 0
cor 0
vict 0
##ising 0
Star 0
mat 0
1939 0
Hen 0
111 0
380 0
##ule 0
using 0
114 0
##board 0
##urric 0
ML 0
##ges 0
109 0
##yd 0
##ending 0
##levision 0
EV 0
let 0
XXX 0
##field 0
1962 0
Robert 0
1938 0
title 0
capt 0
Bu 0
compet 0
defe 0
##zz 0
bar 0
MB 0
Tom 0
##ned 0
##62 0
1959 0
anim 0
Cont 0
1952 0
##LE 0
VC 0
ft 0
ten 0
ord 0
returned 0
1943 0
House 0
PH 0
International 0
##ither 0
building 0
color 0
145 0
particular 0
1967 0
cy 0
plan 0
##ki 0
1935 0
father 0
reported 0
##Fi 0
America 0
##used 0
##angu 0
development 0
##61 0
making 0
published 0
##icle 0
Galaxy 0
##ena 0
performance 0
PD 0
GPS 0
away 0
Australia 0
1954 0
Music 0
party 0
produced 0
Micro 0
national 0
##sw 0
##be 0
##ager 0
fac 0
##ML 0
##iber 0
112 0
IBM 0
##aly 0
##TS 0
##less 0
sett 0
According 0
does 0
1963 0
1936 0
But 0
poin 0
Cor 0
author 0
ve 0
kind 0
popular 0
550 0
children 0
##off 0
These 0
##box 0
Russ 0
gen 0
cross 0
ask 0
##ying 0
Art 0
windows 0
Ant 0
##avel 0
stated 0
##eal 0
##LA 0
1957 0
eight 0
think 0
Top 0
##oto 0
squ 0
##ampionship 0
FB 0
##self 0
mid 0
BC 0
##dom 0
##pped 0
270 0
##fic 0
##ensive 0
surv 0
intro 0
##ili 0
forces 0
Plus 0
##ux 0
ter 0
put 0
black 0
##TI 0
1953 0
dou 0
battle 0
Che 0
SK 0
nort 0
Max 0
##for 0
League 0
full 0
1961 0
BI 0
##iting 0
##ari 0
recorded 0
##vin 0
field 0
##emy 0
pur 0
CVT 0
##rict 0
block 0
night 0
office 0
Love 0
himself 0
##outhern 0
HTC 0
##read 0
ships 0
San 0
vol 0
effect 0
##uel 0
##lic 0
##utes 0
SD 0
Island 0
little 0
non 0
military 0
##inese 0
hans 0
##gr 0
Mer 0
aircraft 0
Bur 0
001 0
ISO 0
East 0
SO 0
5173 0
Mal 0
Cr 0
gay 0
cult 0
##unk 0
text 0
113 0
Aut 0
DO 0
hk 0
nov 0
body 0
##era 0
##ination 0
tra 0
ground 0
ED 0
songs 0
##ora 0
represent 0
son 0
1080 0
##mit 0
##ming 0
SN 0
cost 0
spe 0
techn 0
FM 0
critic 0
rock 0
suff 0
Vir 0
##cent 0
sit 0
##roll 0
gt 0
225 0
relations 0
PV 0
##lection 0
BMW 0
##leg 0
Army 0
Squ 0
Ber 0
Mart 0
project 0
batt 0
force 0
##wood 0
begin 0
Pal 0
##duct 0
##ements 0
months 0
##TE 0
fav 0
139 0
don 0
destroy 0
##abor 0
##AP 0
Big 0
117 0
##ico 0
##52 0
END 0
bi 0
##oul 0
sn 0
developed 0
##men 0
feel 0
meet 0
process 0
died 0
er 0
##iff 0
cond 0
case 0
characters 0
campaign 0
##ude 0
signific 0
span 0
##ample 0
Uber 0
PPT 0
size 0
Mil 0
Port 0
bas 0
across 0
MX 0
##idence 0
ap 0
##berg 0
Linux 0
Division 0
Sl 0
free 0
remained 0
##isted 0
official 0
struct 0
UC 0
Lou 0
##ander 0
NY 0
Rock 0
prim 0
##elling 0
Up 0
119 0
DIY 0
##go 0
##iec 0
116 0
arm 0
##☆☆ 0
##aa 0
##anks 0
##uo 0
How 0
big 0
1951 0
122 0
##ened 0
aud 0
##rey 0
Hist 0
issu 0
650 0
front 0
##head 0
##ogn 0
BU 0
1100 0
County 0
important 0
##most 0
Ke 0
Bel 0
Japanese 0
org 0
histor 0
##itor 0
special 0
Royal 0
##urricane 0
AK 0
seen 0
grow 0
1400 0
key 0
station 0
our 0
pra 0
Rob 0
Hall 0
arch 0
web 0
activ 0
Hot 0
##ourn 0
CCTV 0
Best 0
rev 0
felt 0
Hill 0
NH 0
136 0
Sk 0
##IV 0
island 0
##ounc 0
WiFi 0
Chinese 0
OL 0
##ays 0
133 0
##iao 0
##57 0
æµ 0
##soft 0
areas 0
cop 0
created 0
##UI 0
cut 0
##xx 0
##aterial 0
miss 0
256 0
III 0
mi 0
MacBook 0
##loy 0
##reek 0
##orpor 0
##ware 0
##port 0
successful 0
##bur 0
aver 0
##ha 0
##tr 0
announced 0
BL 0
reached 0
##odes 0
break 0
##aves 0
Dis 0
##ender 0
##83 0
##ansp 0
white 0
##aps 0
Peter 0
Ev 0
##ze 0
able 0
##ecut 0
mix 0
political 0
First 0
arg 0
proble 0
1934 0
##asc 0
Kn 0
lear 0
noted 0
television 0
##epend 0
thought 0
ident 0
various 0
hard 0
##EE 0
Sir 0
##ells 0
Que 0
1933 0
impro 0
##agement 0
Gold 0
ce 0
ur 0
conn 0
137 0
##acy 0
##ivil 0
##iers 0
JR 0
business 0
Watch 0
##imately 0
MO 0
seven 0
age 0
women 0
Mr 0
dota 0
##ades 0
If 0
IV 0
enc 0
curr 0
taken 0
College 0
followed 0
fem 0
##aval 0
bug 0
cº 0
##ye 0
fall 0
##otion 0
once 0
##82 0
4500 0
players 0
writing 0
##87 0
general 0
Henry 0
##ought 0
##ny 0
Sing 0
toget 0
##AV 0
Cam 0
Afric 0
##cast 0
earl 0
##ament 0
sex 0
together 0
keep 0
points 0
##over 0
##anch 0
1927 0
##igned 0
##ivid 0
performed 0
##ala 0
cert 0
##itar 0
served 0
sil 0
agre 0
##BD 0
２０ 0
##ivo 0
test 0
significant 0
obs 0
happ 0
range 0
Soc 0
Mary 0
becom 0
##89 0
killed 0
##uter 0
note 0
##ban 0
##itz 0
Australian 0
##ators 0
circ 0
##cher 0
0000 0
inform 0
490 0
ball 0
host 0
Club 0
conv 0
broad 0
Emp 0
##Cl 0
Richard 0
Group 0
205 0
Ham 0
##uture 0
coll 0
##ablished 0
action 0
##enced 0
##ifi 0
others 0
Some 0
1931 0
base 0
Thomas 0
Serv 0
Inter 0
##agon 0
throughout 0
Du 0
##leet 0
far 0
System 0
##ago 0
fight 0
round 0
miles 0
EC 0
ever 0
background 0
TSI 0
##EX 0
pri 0
##istic 0
qual 0
##ique 0
tropical 0
##azine 0
##che 0
entire 0
award 0
##ounter 0
9000 0
member 0
##ential 0
mac 0
started 0
##lected 0
decl 0
1929 0
disco 0
1928 0
modern 0
##ero 0
Pat 0
Twitter 0
invest 0
127 0
sour 0
White 0
##oph 0
##NG 0
##hib 0
Ben 0
MC 0
Wash 0
established 0
##84 0
lik 0
Fin 0
Sun 0
Great 0
saw 0
typ 0
##rian 0
Cour 0
human 0
1700 0
route 0
##omm 0
occur 0
come 0
appeared 0
sin 0
Fe 0
dev 0
stri 0
features 0
decided 0
##ville 0
##ume 0
engine 0
girl 0
econom 0
RO 0
Wil 0
1919 0
##53 0
##yr 0
Charles 0
esc 0
rank 0
Battle 0
From 0
must 0
Live 0
1932 0
BAT 0
480 0
Indian 0
hom 0
mult 0
caused 0
mini 0
Other 0
tro 0
instead 0
op 0
race 0
##ouncil 0
##ateg 0
France 0
##ano 0
MD 0
2025 0
ABC 0
mer 0
##ological 0
##ellow 0
##0000 0
Just 0
voc 0
Cro 0
##iddle 0
iphone 0
WIN 0
2030 0
rather 0
##ews 0
##antic 0
Ol 0
feet 0
pract 0
##ios 0
Smith 0
Nor 0
132 0
##ociation 0
##iki 0
##asing 0
God 0
mus 0
close 0
##ficult 0
site 0
Scott 0
##val 0
added 0
eventually 0
Sn 0
##eck 0
##rought 0
SR 0
1912 0
##bor 0
behind 0
##ider 0
##ihu 0
##ror 0
insp 0
##oor 0
hu 0
##ship 0
pred 0
##aces 0
Open 0
What 0
##ceed 0
Python 0
brother 0
coast 0
works 0
Sol 0
124 0
##ification 0
##han 0
MPV 0
boy 0
king 0
１０ 0
baby 0
##artment 0
difficult 0
AL 0
Franc 0
CBA 0
playing 0
born 0
ºæ 0
Microsoft 0
Ver 0
working 0
mother 0
stage 0
located 0
better 0
1918 0
idea 0
aºº 0
Dep 0
##ords 0
Grand 0
##ida 0
Ir 0
##empor 0
##iction 0
example 0
##59 0
formed 0
langu 0
##osition 0
Washington 0
KTV 0
relationship 0
##apt 0
##lement 0
1914 0
population 0
Brown 0
Frank 0
crew 0
##PA 0
##ids 0
##iforn 0
creat 0
##medi 0
cc 0
##xw 0
Bay 0
##rison 0
Vict 0
121 0
##zy 0
indust 0
loss 0
bill 0
##ray 0
completed 0
##mar 0
Europe 0
di 0
foc 0
almost 0
##81 0
interest 0
fif 0
scene 0
comment 0
Mill 0
hon 0
##ividual 0
##oted 0
Enter 0
NPC 0
upon 0
##uf 0
Fi 0
doc 0
vip 0
##54 0
Je 0
President 0
hit 0
##oke 0
heavy 0
social 0
room 0
Dem 0
CA 0
vill 0
That 0
##ello 0
fund 0
##EF 0
##ita 0
##ference 0
##enes 0
opened 0
ER 0
ren 0
worked 0
going 0
least 0
ESP 0
clos 0
lack 0
##ks 0
Two 0
##ba 0
156 0
BR 0
##iles 0
Power 0
neg 0
##ado 0
3100 0
Cup 0
LP 0
##aching 0
type 0
material 0
pay 0
whe 0
Home 0
##ka 0
construction 0
inj 0
proper 0
separ 0
##ifornia 0
##arter 0
##back 0
leading 0
Er 0
mem 0
GHz 0
reb 0
Nm 0
Ps 0
##ston 0
quick 0
laun 0
##chie 0
tre 0
Tim 0
Company 0
guns 0
weeks 0
##ving 0
observ 0
Green 0
##～～ 0
##hem 0
2700 0
##duction 0
RT 0
avail 0
##urb 0
129 0
tradition 0
Kar 0
reve 0
gov 0
Del 0
370 0
average 0
either 0
Bet 0
##cul 0
##itte 0
144 0
Str 0
boss 0
##ography 0
respect 0
damage 0
peak 0
##omp 0
subsequ 0
##HO 0
accept 0
du 0
California 0
chart 0
1917 0
change 0
Follow 0
SAT 0
##spec 0
Ter 0
##ograph 0
wanted 0
##usion 0
★★★★★ 0
##ih 0
European 0
BT 0
##stand 0
##obile 0
Atl 0
Republic 0
provided 0
originally 0
##atural 0
news 0
fourth 0
brought 0
##ems 0
recogn 0
money 0
region 0
FC 0
market 0
phot 0
##LC 0
plann 0
##asy 0
wife 0
allowed 0
##ears 0
340 0
131 0
ill 0
Office 0
fig 0
##den 0
##ducation 0
1925 0
soon 0
Sen 0
##FF 0
##ability 0
give 0
Roman 0
##to 0
##erous 0
priv 0
##sel 0
lol 0
mass 0
mount 0
mp 0
##minist 0
hours 0
Louis 0
##olf 0
##order 0
LV 0
Out 0
Cast 0
scored 0
towards 0
individual 0
past 0
##GA 0
DJ 0
personal 0
666 0
308 0
mean 0
Jim 0
##MS 0
Boy 0
Christian 0
##heng 0
employ 0
##ners 0
Sal 0
Mount 0
max 0
rail 0
rul 0
et 0
percent 0
Oper 0
TR 0
vivo 0
##vir 0
720 0
Time 0
UK 0
Surface 0
estim 0
grad 0
1926 0
##lor 0
hor 0
HTML 0
##ishing 0
##merc 0
runs 0
McC 0
featured 0
Hel 0
420 0
java 0
IG 0
##anced 0
placed 0
152 0
Church 0
Over 0
Team 0
##aily 0
##add 0
##omet 0
events 0
BP 0
##gar 0
Const 0
Lo 0
length 0
MVP 0
goal 0
exc 0
##thing 0
president 0
##999 0
shot 0
Internet 0
mph 0
1911 0
possible 0
Imp 0
Victor 0
particip 0
flow 0
##ething 0
Mont 0
ang 0
generally 0
troops 0
NAS 0
Party 0
army 0
critics 0
##urt 0
Lu 0
Virgin 0
##ournal 0
inn 0
Championship 0
international 0
##adron 0
wall 0
##rupt 0
▼▼ 0
021 0
147 0
WW 0
Miss 0
##nes 0
##de 0
court 0
134 0
##que 0
rap 0
®® 0
##ault 0
phys 0
park 0
20160 0
##sue 0
Despite 0
YouT 0
Union 0
BD 0
##rated 0
UN 0
##GC 0
##rog 0
##hi 0
ABS 0
215 0
YY 0
##kn 0
1924 0
##rest 0
SE 0
##ecutive 0
##UR 0
studio 0
DN 0
Award 0
235 0
##ini 0
2300 0
try 0
Center 0
Intel 0
##fall 0
Li 0
designed 0
##la 0
Inf 0
cal 0
training 0
##west 0
joined 0
##asion 0
believed 0
##rome 0
Rh 0
Luc 0
##ros 0
##SL 0
GO 0
saying 0
##CH 0
job 0
Kingdom 0
##ands 0
##emon 0
TCL 0
##iding 0
respons 0
available 0
via 0
minutes 0
contrib 0
1913 0
Times 0
20000 0
BO 0
piec 0
treat 0
##CO 0
Canada 0
move 0
EP 0
stru 0
##Station 0
Final 0
logo 0
##itute 0
clear 0
food 0
Mel 0
255 0
##useum 0
regular 0
##za 0
indic 0
FS 0
Pet 0
exist 0
victory 0
Following 0
ly 0
##oe 0
study 0
##ued 0
Na 0
font 0
enough 0
surface 0
850 0
director 0
finished 0
##oring 0
##UN 0
pot 0
Ap 0
##atin 0
involved 0
Pac 0
aq 0
##TP 0
meas 0
Bob 0
##aded 0
replaced 0
section 0
162 0
rain 0
##isk 0
##inent 0
1921 0
1910 0
1922 0
Back 0
der 0
sequ 0
HPV 0
##XX 0
##ste 0
threat 0
DE 0
speed 0
Force 0
Ma 0
deep 0
##ites 0
opening 0
largest 0
2400 0
Flor 0
YouTube 0
TO 0
NC 0
Under 0
Route 0
★★★★ 0
##ING 0
disp 0
##ien 0
zhihu 0
Navy 0
##ilities 0
told 0
RS 0
##onna 0
DOTA 0
cou 0
News 0
Mat 0
introduc 0
Rad 0
Mus 0
##anish 0
Direct 0
##oved 0
bomb 0
self 0
central 0
dro 0
wifi 0
Not 0
pers 0
##bl 0
Jos 0
Law 0
bur 0
1915 0
##change 0
##icket 0
BA 0
##In 0
abs 0
ªa 0
##obe 0
tem 0
Govern 0
Ros 0
students 0
##ibr 0
earlier 0
Court 0
conduct 0
highest 0
020 0
##jects 0
##essional 0
cod 0
TT 0
achie 0
##ella 0
##cript 0
Leg 0
complet 0
950 0
align 0
nomin 0
##antry 0
1923 0
future 0
159 0
Gar 0
particularly 0
always 0
EXO 0
##ify 0
PlayStation 0
highway 0
southern 0
Ell 0
Vol 0
##ittee 0
Bre 0
##itution 0
##ibility 0
Film 0
regard 0
TS 0
DD 0
007 0
turned 0
153 0
Book 0
##aughter 0
CL 0
taking 0
##ends 0
above 0
##hh 0
##urs 0
Im 0
Good 0
transp 0
Class 0
430 0
##ores 0
FO 0
##ecess 0
##ifrac 0
512 0
##net 0
##onse 0
##atory 0
increased 0
Martin 0
forced 0
Ta 0
##ises 0
##uation 0
gold 0
##nel 0
targ 0
##oles 0
initially 0
##irth 0
slow 0
Cong 0
End 0
FI 0
Association 0
##ura 0
relig 0
Sil 0
##pha 0
according 0
CG 0
passed 0
somet 0
##mi 0
aqxw 0
##YS 0
Song 0
##edy 0
148 0
##lying 0
Camp 0
290 0
##heast 0
ended 0
Life 0
prob 0
wat 0
##viron 0
CPA 0
independ 0
novel 0
##hester 0
exe 0
1916 0
##van 0
Awards 0
lab 0
immedi 0
COM 0
nd 0
cred 0
##ready 0
travel 0
India 0
Pan 0
##onst 0
research 0
positive 0
MG 0
mot 0
Western 0
##tainment 0
face 0
##asons 0
units 0
Techn 0
##wh 0
deal 0
language 0
##QL 0
Store 0
express 0
Wind 0
paper 0
##eption 0
football 0
IMF 0
outside 0
##cle 0
##uff 0
northern 0
911 0
Los 0
##ababy 0
##gl 0
hous 0
hot 0
##cy 0
opt 0
##TO 0
ATM 0
appearance 0
960 0
##agram 0
Show 0
##LL 0
##icy 0
praised 0
BIOS 0
discover 0
sat 0
report 0
##igan 0
something 0
510 0
##airs 0
Jackson 0
cat 0
##IP 0
Lee 0
Germany 0
church 0
202 0
Dist 0
space 0
Second 0
##mercial 0
Sum 0
##incip 0
hurricane 0
##well 0
##aled 0
##ogue 0
##aring 0
##eph 0
nine 0
talk 0
stay 0
cycl 0
Fer 0
associ 0
##ults 0
step 0
Blue 0
assist 0
Xbox 0
Ann 0
245 0
media 0
##ointed 0
2200 0
##rial 0
##isl 0
##unes 0
##uth 0
DA 0
ordered 0
##obal 0
820 0
got 0
nar 0
Pri 0
172 0
might 0
##arily 0
access 0
model 0
flag 0
lower 0
##osing 0
##orial 0
spent 0
##ctor 0
required 0
asked 0
##pression 0
Tor 0
Bra 0
183 0
signed 0
running 0
detail 0
fort 0
interview 0
poor 0
failed 0
5500 0
##down 0
Chic 0
##irt 0
emb 0
ROM 0
Work 0
really 0
cru 0
bal 0
dead 0
##illa 0
Fre 0
##iser 0
ge 0
POS 0
166 0
##elled 0
##imate 0
Fort 0
mom 0
AMD 0
states 0
##ls 0
Girl 0
173 0
Most 0
##joy 0
pen 0
google 0
167 0
##anna 0
parts 0
KM 0
Edward 0
itself 0
EB 0
answ 0
ºc 0
FX 0
##oms 0
screen 0
winds 0
##ayer 0
except 0
viol 0
1905 0
Mex 0
contract 0
Wal 0
already 0
Johnson 0
Cross 0
tax 0
TD 0
##rief 0
##usp 0
Vis 0
transfer 0
560 0
##aga 0
RA 0
elements 0
##333 0
nm 0
watch 0
Matt 0
##ams 0
Trans 0
score 0
##ension 0
AU 0
mA 0
ok 0
Arch 0
Rev 0
580 0
##ully 0
Long 0
master 0
films 0
EPS 0
summer 0
##ua 0
146 0
177 0
jud 0
sea 0
##alled 0
beginning 0
Chris 0
sometimes 0
done 0
##urity 0
PA 0
leader 0
##lymp 0
groups 0
##erve 0
previously 0
QD 0
189 0
SL 0
whose 0
date 0
steam 0
prevent 0
##omer 0
##aph 0
link 0
Tex 0
beg 0
##alion 0
GRE 0
evidence 0
recording 0
Service 0
##iant 0
PMI 0
##bit 0
issue 0
usually 0
Light 0
##ulf 0
TVB 0
despite 0
##IFI 0
Cy 0
course 0
debut 0
##da 0
##orning 0
RAM 0
##iang 0
##oper 0
TI 0
##emporary 0
heart 0
health 0
Old 0
Pay 0
whom 0
880 0
lines 0
Olymp 0
##specially 0
Dou 0
Hi 0
den 0
fir 0
143 0
142 0
response 0
directed 0
radio 0
reviews 0
History 0
Sar 0
Sov 0
##ette 0
315 0
Wood 0
Lake 0
liter 0
hop 0
display 0
decision 0
Tour 0
##ressed 0
Saint 0
##gn 0
##df 0
##rive 0
##reme 0
141 0
Tri 0
Kore 0
460 0
151 0
15000 0
##ashion 0
##aries 0
Queen 0
##vert 0
Carol 0
169 0
##ancial 0
Stan 0
frequ 0
Run 0
Test 0
AF 0
154 0
301 0
##pping 0
##acher 0
Inc 0
##icles 0
Smart 0
##ych 0
DDR 0
##bour 0
bridge 0
community 0
leaders 0
quickly 0
##EY 0
##igital 0
jp 0
##aging 0
##ns 0
1909 0
ON 0
civil 0
##ector 0
LZ 0
2600 0
especially 0
Games 0
TG 0
minor 0
meth 0
asp 0
##uments 0
draw 0
Council 0
Design 0
##001 0
discuss 0
height 0
##win 0
##ato 0
pil 0
additional 0
determ 0
bit 0
dark 0
bad 0
##mark 0
touch 0
Earth 0
certain 0
consider 0
##ederal 0
league 0
wood 0
Britain 0
##race 0
Virginia 0
530 0
##vironment 0
Soviet 0
cur 0
Form 0
Spr 0
##enth 0
LM 0
police 0
magazine 0
claimed 0
##Pro 0
##date 0
886 0
carry 0
js 0
##ona 0
react 0
##ospital 0
##ocr 0
Early 0
create 0
##mir 0
##edia 0
Pacific 0
149 0
western 0
##aven 0
Post 0
Town 0
IF 0
##aine 0
female 0
##ader 0
Key 0
occup 0
Av 0
shows 0
##cean 0
##rics 0
Van 0
##selves 0
##anded 0
experience 0
introduced 0
function 0
↓↓ 0
ms 0
election 0
##ache 0
board 0
complete 0
BUG 0
Hy 0
Chicago 0
anti 0
Cons 0
##ging 0
##liam 0
Excel 0
pressure 0
wa 0
##ffic 0
xxx 0
Gre 0
concern 0
arrived 0
GLS 0
box 0
3200 0
staff 0
shoot 0
network 0
##estival 0
ple 0
Word 0
mach 0
305 0
Dream 0
##het 0
living 0
WTI 0
Model 0
Sa 0
##acing 0
river 0
Jeff 0
MR 0
musical 0
woman 0
410 0
##imum 0
remain 0
Ital 0
acqu 0
##ablish 0
##venue 0
Oh 0
ARM 0
Billboard 0
##itect 0
##ills 0
cann 0
solo 0
##anda 0
##OG 0
object 0
RX 0
##oh 0
µa 0
##rie 0
Sub 0
Canad 0
810 0
##alys 0
Jer 0
rights 0
##liament 0
construct 0
LOGO 0
203 0
##ria 0
changes 0
Mass 0
rd 0
##ergy 0
Later 0
approx 0
Ret 0
##ci 0
##━━ 0
Spec 0
Touch 0
Line 0
wid 0
##imin 0
larger 0
##light 0
── 0
187 0
##ken 0
flood 0
174 0
##burg 0
Central 0
Mir 0
provide 0
carried 0
##CC 0
440 0
guitar 0
emer 0
GPU 0
##ola 0
Dar 0
157 0
##andy 0
233 0
Francis 0
Lord 0
prior 0
Fire 0
kindle 0
Tay 0
##arch 0
##mon 0
diss 0
und 0
630 0
investig 0
structure 0
##house 0
2800 0
Sea 0
Acad 0
##kin 0
fans 0
Tre 0
１９ 0
private 0
##rick 0
commercial 0
bring 0
EA 0
##pe 0
##RL 0
Jul 0
effects 0
176 0
Us 0
becoming 0
current 0
subst 0
##ods 0
2022 0
PPI 0
206 0
610 0
##IG 0
information 0
estimated 0
bird 0
##bn 0
##atives 0
OLED 0
##HA 0
##olic 0
Tur 0
QDII 0
norm 0
here 0
brief 0
208 0
surround 0
longer 0
double 0
limited 0
##itting 0
reduc 0
Lim 0
##enty 0
teams 0
feature 0
##ading 0
eastern 0
walk 0
##inct 0
Kh 0
Year 0
RPG 0
countries 0
favor 0
##inn 0
script 0
Many 0
Wall 0
account 0
184 0
3800 0
Hu 0
SDR 0
leave 0
multip 0
##ality 0
deg 0
Ox 0
defeated 0
Log 0
TB 0
remaining 0
GA 0
##afe 0
NS 0
Jon 0
manager 0
Dani 0
##andon 0
302 0
DR 0
Kind 0
Ry 0
Di 0
contr 0
1860 0
sch 0
AN 0
focus 0
Master 0
suggested 0
whether 0
##hold 0
Young 0
##abit 0
true 0
##EP 0
things 0
1908 0
##ounds 0
Rail 0
har 0
FR 0
leaving 0
7500 0
entered 0
bow 0
ll 0
##rown 0
prison 0
Fox 0
wide 0
latter 0
222 0
1901 0
##ii 0
MW 0
182 0
hy 0
influence 0
natural 0
Ca 0
writer 0
##mitted 0
Tech 0
##bers 0
204 0
Sant 0
content 0
kil 0
friends 0
##dy 0
##bury 0
forward 0
DM 0
ªæ 0
Spanish 0
sal 0
##shire 0
##oma 0
mind 0
Bow 0
##idents 0
2100 0
ult 0
higher 0
winning 0
570 0
1903 0
318 0
overall 0
target 0
Penn 0
Ray 0
GPA 0
##annel 0
1904 0
##teen 0
399 0
Def 0
nature 0
##888 0
Angelababy 0
purch 0
Les 0
trib 0
nearly 0
themselves 0
JS 0
Far 0
KG 0
##vis 0
commission 0
##li 0
1907 0
660 0
680 0
border 0
voice 0
161 0
1906 0
##trl 0
appointed 0
destroyed 0
makes 0
chall 0
##itan 0
related 0
division 0
initial 0
daughter 0
##itude 0
stop 0
territ 0
sem 0
OC 0
304 0
##can 0
##EG 0
episodes 0
movement 0
capital 0
##igade 0
subject 0
temper 0
scenes 0
Bey 0
Texas 0
##EA 0
SEO 0
establish 0
fleet 0
arrang 0
proposed 0
##ening 0
470 0
dog 0
##ils 0
Stephen 0
181 0
228 0
imm 0
Joseph 0
##onic 0
##ective 0
married 0
Dev 0
AG 0
susp 0
python 0
##aaS 0
complex 0
agreed 0
question 0
page 0
##IO 0
quarter 0
changed 0
730 0
CB 0
YO 0
¥¨ 0
164 0
visit 0
increasing 0
mAh 0
Scot 0
stars 0
intended 0
contin 0
##IL 0
administ 0
Vi 0
##erial 0
enjoy 0
helped 0
##lebr 0
FA 0
exam 0
AAA 0
compared 0
##EV 0
##unic 0
problems 0
##ties 0
supported 0
##atively 0
status 0
##fect 0
##tained 0
fore 0
WIFI 0
NASA 0
TP 0
Type 0
##lands 0
##astern 0
UTC 0
silver 0
dram 0
gre 0
##uj 0
Free 0
##lie 0
hant 0
##uy 0
intens 0
PL 0
awarded 0
probably 0
Pop 0
canc 0
##iny 0
Jac 0
fell 0
333 0
980 0
Since 0
Hum 0
##bridge 0
distrib 0
179 0
##osaur 0
##FII 0
bene 0
reason 0
Cle 0
PDF 0
counter 0
edge 0
Mem 0
sen 0
##lan 0
##Ch 0
answer 0
yet 0
Cat 0
CFA 0
MK 0
Hal 0
Ob 0
compan 0
sales 0
##riage 0
##TR 0
share 0
hour 0
##stein 0
##UM 0
Bal 0
NV 0
##ortun 0
▼▼▼ 0
Andrew 0
LS 0
increase 0
services 0
tm 0
why 0
##hing 0
likely 0
3600 0
Are 0
meeting 0
Florida 0
Kenn 0
Science 0
Bec 0
Ott 0
##rect 0
Let 0
##zi 0
plus 0
professional 0
Entertainment 0
Congress 0
PHP 0
##eline 0
Nort 0
##iance 0
##isher 0
planned 0
##TT 0
thus 0
##va 0
Another 0
##span 0
fifth 0
##adium 0
##BT 0
Hor 0
##cn 0
conclud 0
operations 0
##gen 0
AMC 0
3300 0
011 0
Bank 0
Taylor 0
SNH 0
remains 0
location 0
Atlantic 0
cause 0
##ds 0
Carl 0
CNN 0
##isions 0
##rug 0
pain 0
withd 0
producer 0
whole 0
##ees 0
##itation 0
smaller 0
approximately 0
##iences 0
##rong 0
Arm 0
Africa 0
doing 0
##oser 0
value 0
##ounts 0
XL 0
Prog 0
##enger 0
Its 0
LOF 0
captured 0
##ordan 0
##hood 0
sail 0
##iano 0
##road 0
Mike 0
plant 0
mostly 0
Sat 0
##ca 0
##irit 0
##olk 0
scient 0
Of 0
GD 0
##iled 0
QA 0
1898 0
##ellig 0
grand 0
Sever 0
cs 0
##key 0
Institute 0
Both 0
Little 0
weap 0
NF 0
cool 0
bank 0
HB 0
##OK 0
SZ 0
Angeles 0
Jones 0
Conn 0
QE 0
FBI 0
Kent 0
NB 0
tracks 0
##een 0
##echan 0
Den 0
171 0
890 0
goals 0
article 0
Research 0
218 0
terms 0
cle 0
minute 0
ha 0
fast 0
Secret 0
Hard 0
education 0
20150 0
soldiers 0
1902 0
##umn 0
science 0
Haw 0
##unch 0
Media 0
213 0
12000 0
Land 0
purp 0
##ections 0
immediately 0
##itted 0
6500 0
##ias 0
rate 0
secret 0
##oshop 0
##aches 0
##izing 0
includes 0
Space 0
buildings 0
BS 0
##wan 0
Batt 0
issued 0
##rier 0
letter 0
source 0
##UT 0
extended 0
Ha 0
tow 0
##och 0
##ronic 0
##orer 0
Russian 0
words 0
overs 0
##ran 0
Orig 0
##mond 0
lay 0
Williams 0
cas 0
275 0
Elect 0
##isa 0
takes 0
##aught 0
lot 0
070 0
1880 0
mixed 0
##imb 0
flight 0
Alpha 0
Jun 0
sohu 0
Steam 0
1890 0
Pok 0
plans 0
##ui 0
princip 0
##atre 0
village 0
pm 0
##＝＝ 0
Lab 0
MHz 0
birth 0
copies 0
##ously 0
depart 0
industry 0
pow 0
instr 0
coin 0
##inem 0
lyrics 0
suffered 0
Project 0
##irection 0
540 0
Canadian 0
battles 0
breed 0
mur 0
Way 0
consist 0
confir 0
dom 0
Men 0
##vest 0
means 0
confl 0
broadcast 0
288 0
##icted 0
paint 0
265 0
active 0
##ibrary 0
veh 0
books 0
OR 0
ran 0
seg 0
499 0
Ni 0
NE 0
Tod 0
##antasy 0
UP 0
farm 0
removed 0
Paris 0
AMG 0
Link 0
Highway 0
##oes 0
officers 0
critical 0
##astic 0
Four 0
Crit 0
##alysis 0
Wat 0
##question 0
product 0
Ba 0
cand 0
Empire 0
blood 0
Fam 0
##ga 0
jpg 0
offered 0
iT 0
trade 0
Kim 0
altern 0
##ression 0
attention 0
majority 0
rout 0
compl 0
Develop 0
##ulated 0
Add 0
HS 0
##ires 0
PRO 0
concept 0
anc 0
##room 0
##200 0
Stone 0
Clark 0
Alexander 0
cust 0
pp 0
##war 0
Zeal 0
train 0
lived 0
Records 0
307 0
##istry 0
colon 0
issues 0
##undred 0
##UD 0
##inger 0
Studio 0
##iger 0
##bon 0
##utions 0
Society 0
standard 0
Night 0
Major 0
##ancy 0
##xy 0
207 0
1895 0
##uries 0
Cath 0
##ols 0
Engine 0
２０１ 0
Pass 0
GTX 0
640 0
##PI 0
today 0
mor 0
Rem 0
Dan 0
adop 0
needed 0
energy 0
Bas 0
209 0
##IK 0
Like 0
390 0
appears 0
620 0
subsequently 0
Baby 0
mic 0
moving 0
303 0
##yes 0
write 0
document 0
conditions 0
1250 0
Department 0
sun 0
domin 0
associated 0
finally 0
##ples 0
college 0
gar 0
216 0
tons 0
Jenn 0
cer 0
0020 0
##oys 0
mess 0
Phot 0
201610 0
##INE 0
223 0
Mate 0
##ighter 0
IR 0
Foot 0
##utch 0
Kindle 0
##ega 0
shown 0
Lady 0
Ram 0
trav 0
bb 0
##ims 0
Instagram 0
LTE 0
##mann 0
Viet 0
Trump 0
middle 0
Greek 0
ing 0
299 0
More 0
adj 0
AE 0
collect 0
MIUI 0
raised 0
Norm 0
##ingu 0
##leep 0
numbers 0
serious 0
discovered 0
##rem 0
##hew 0
##ev 0
##outube 0
spl 0
Steve 0
Az 0
sched 0
revealed 0
ipad 0
##band 0
mission 0
celebr 0
Fly 0
morning 0
212 0
blue 0
ability 0
inters 0
Ep 0
##umed 0
li 0
mo 0
unit 0
##uct 0
##thur 0
##uit 0
attacks 0
JJ 0
##azon 0
expected 0
Squadron 0
damaged 0
##ta 0
##aidu 0
##arden 0
problem 0
repe 0
comquestion 0
Museum 0
names 0
618 0
Rog 0
ranked 0
##Drive 0
shell 0
Michigan 0
contains 0
##orter 0
Three 0
##306 0
upper 0
Bost 0
Daniel 0
composed 0
Series 0
HM 0
##umber 0
inspired 0
##right 0
traditional 0
##mas 0
launched 0
numerous 0
easy 0
##110 0
respectively 0
pick 0
reach 0
##onder 0
primary 0
Italian 0
##ima 0
##lee 0
heav 0
##etting 0
Ill 0
##azz 0
AKB 0
##atform 0
cho 0
cam 0
##istics 0
##Sh 0
male 0
4200 0
below 0
MU 0
pair 0
##eway 0
occurred 0
sister 0
##vention 0
lif 0
##ivity 0
blog 0
##anel 0
##ipped 0
Nike 0
RSI 0
grant 0
operation 0
##lied 0
slight 0
##ategory 0
royal 0
##inet 0
image 0
accomp 0
culture 0
##bre 0
plot 0
##CI 0
##enant 0
amount 0
Prof 0
30000 0
##VR 0
ºifrac 0
Ly 0
##iot 0
##overs 0
selected 0
Marc 0
214 0
wor 0
continue 0
##omy 0
Joe 0
necess 0
environment 0
unc 0
##elly 0
306 0
780 0
practice 0
attacked 0
SB 0
¬¬ 0
##aka 0
notes 0
2333 0
1850 0
ERP 0
##UC 0
Albert 0
listed 0
MTV 0
##edic 0
##anger 0
fighting 0
##nam 0
Academy 0
##BN 0
232 0
Eric 0
attempted 0
newsp 0
ess 0
##uated 0
bus 0
movie 0
Jean 0
Real 0
##put 0
artist 0
Georg 0
##VA 0
singer 0
prep 0
Card 0
226 0
Pen 0
##ista 0
THE 0
Bat 0
##wen 0
iPod 0
312 0
defeat 0
Brad 0
Ult 0
referred 0
yards 0
chem 0
SF 0
##rovers 0
##ting 0
Wales 0
produce 0
Po 0
prec 0
##standing 0
Kr 0
234 0
giving 0
##uty 0
quality 0
##edd 0
1899 0
Corps 0
Minister 0
CAD 0
##emple 0
Hung 0
closed 0
##olar 0
DSG 0
legal 0
audience 0
ver 0
##── 0
MIN 0
##arters 0
beat 0
##ftware 0
pit 0
Sound 0
##Go 0
Gall 0
Mu 0
##MAX 0
##jy 0
meant 0
marg 0
##oses 0
408 0
officer 0
inside 0
##sen 0
cd 0
Columb 0
covered 0
##host 0
resulted 0
##ented 0
Bridge 0
elected 0
Bon 0
store 0
##▽▽ 0
largely 0
Writ 0
competition 0
##ishop 0
metal 0
##eror 0
legisl 0
thr 0
##prise 0
ending 0
Conf 0
BG 0
##iest 0
portray 0
assigned 0
GN 0
Victoria 0
earned 0
##pass 0
601 0
unable 0
disapp 0
285 0
WE 0
##600 0
seem 0
mention 0
##under 0
Tony 0
Lin 0
Jordan 0
Business 0
##odies 0
width 0
##iful 0
##culus 0
238 0
625 0
beaut 0
Prince 0
##illy 0
Si 0
Sel 0
##ares 0
##eller 0
##ART 0
##vement 0
##FS 0
003 0
##arian 0
Dam 0
##wide 0
foreign 0
Os 0
ISIS 0
Rel 0
table 0
ªe 0
Boston 0
depression 0
FL 0
Oxford 0
architect 0
dance 0
controll 0
##ansion 0
oil 0
##AND 0
nothing 0
4800 0
##js 0
univers 0
##like 0
collection 0
258 0
##illed 0
theme 0
rat 0
rapid 0
GR 0
refused 0
task 0
commented 0
print 0
##WS 0
##HC 0
cry 0
1024 0
pdf 0
##abb 0
##itiz 0
pack 0
##iel 0
##ixin 0
Mexico 0
path 0
iTunes 0
##rate 0
Arab 0
bott 0
325 0
coach 0
Public 0
nuc 0
African 0
Lind 0
economic 0
records 0
tim 0
##TER 0
##ledge 0
Dun 0
jun 0
meaning 0
Democr 0
highly 0
Before 0
##fs 0
Zealand 0
##gb 0
religious 0
centre 0
abandon 0
levels 0
##ads 0
effort 0
forms 0
##writ 0
##ya 0
Gen 0
Committee 0
candid 0
ut 0
##miral 0
3700 0
##ining 0
neigh 0
Your 0
matches 0
theory 0
declared 0
★★ 0
parents 0
search 0
amb 0
FOF 0
PX 0
codice 0
fan 0
##ounded 0
268 0
performances 0
##aped 0
Jud 0
recomm 0
financial 0
direction 0
Week 0
LCD 0
##oration 0
Prime 0
##mission 0
1896 0
matter 0
Creek 0
375 0
Flash 0
commander 0
Network 0
##rid 0
annual 0
schools 0
Att 0
CX 0
508 0
specific 0
Because 0
tried 0
green 0
1870 0
edition 0
php 0
hundred 0
android 0
Mov 0
sense 0
##ker 0
##track 0
transport 0
directly 0
Bern 0
SAO 0
rule 0
student 0
##fort 0
Southern 0
Ven 0
Manc 0
Now 0
Rod 0
twenty 0
Think 0
People 0
chief 0
##ibly 0
horse 0
##rich 0
ice 0
alt 0
##abeth 0
0022 0
224 0
Mur 0
##endo 0
603 0
##ersey 0
Their 0
Beat 0
OH 0
Ash 0
##alle 0
760 0
##ION 0
##DS 0
##ira 0
955 0
Asia 0
FF 0
Madonna 0
ens 0
Valley 0
separate 0
rein 0
combat 0
Several 0
CBD 0
Walk 0
Sand 0
reduced 0
##ilib 0
excel 0
##rip 0
Corn 0
pap 0
Prot 0
WP 0
DOS 0
opportun 0
##1111 0
##otes 0
##emic 0
ios 0
Commission 0
217 0
avoid 0
drum 0
concert 0
LC 0
sevent 0
symb 0
##stone 0
Sky 0
##esh 0
##ieut 0
Mobile 0
SSD 0
Sher 0
origin 0
vocals 0
cases 0
221 0
wing 0
wear 0
##iner 0
actually 0
##mm 0
##eds 0
efforts 0
##ipl 0
Tips 0
nearby 0
Stand 0
flash 0
positions 0
Bru 0
1840 0
presented 0
Scotland 0
constructed 0
##isation 0
##igg 0
Bor 0
Lew 0
Eliz 0
Sup 0
191 0
Nic 0
mol 0
##iday 0
818 0
transl 0
##has 0
piece 0
##ety 0
Yun 0
##ela 0
NA 0
dream 0
draft 0
##mail 0
##pson 0
Square 0
1897 0
property 0
controvers 0
marriage 0
##IR 0
EDG 0
Cook 0
accepted 0
##Sp 0
Pokemon 0
314 0
says 0
responsible 0
cook 0
##iana 0
HC 0
##aver 0
da 0
impact 0
Program 0
kept 0
Capital 0
fa 0
Ur 0
Water 0
viewers 0
236 0
##set 0
Build 0
pict 0
##td 0
830 0
policy 0
Est 0
coming 0
##quote 0
Ocean 0
WOW 0
Special 0
COS 0
Univers 0
Data 0
potential 0
believe 0
thick 0
dise 0
raid 0
6005 0
Avenue 0
298 0
219 0
Som 0
Lum 0
##ibo 0
attended 0
Ka 0
showed 0
activity 0
##rain 0
##ocal 0
vocal 0
AH 0
##etic 0
Cas 0
##Pl 0
pal 0
webs 0
baidu 0
Leon 0
##ufact 0
Chief 0
dism 0
ir 0
Every 0
blockquote 0
Bad 0
earth 0
Harry 0
variety 0
##ei 0
##udd 0
Cos 0
Rom 0
TL 0
##xt 0
animals 0
hr 0
ca 0
alone 0
applic 0
Expl 0
behav 0
##raph 0
##gypt 0
ppt 0
thous 0
kilomet 0
##itness 0
winter 0
Latin 0
managed 0
Management 0
begins 0
Festival 0
uses 0
Low 0
##olt 0
248 0
Aud 0
comes 0
Captain 0
##ieutenant 0
SKT 0
Found 0
Tra 0
approach 0
companies 0
Ron 0
##oom 0
native 0
##ancing 0
favour 0
0005 0
Field 0
Jay 0
Market 0
cell 0
stating 0
USD 0
##ecting 0
Sund 0
chap 0
１２ 0
##illery 0
society 0
Infantry 0
##uce 0
##arp 0
strugg 0
situation 0
970 0
mechan 0
Ast 0
Nick 0
scale 0
##berry 0
##thel 0
strength 0
Child 0
happy 0
Robin 0
Ken 0
##time 0
starting 0
Egypt 0
journal 0
##acity 0
##una 0
##hr 0
QFII 0
Person 0
Mid 0
##002 0
resulting 0
die 0
progress 0
risk 0
2021 0
##anes 0
311 0
delay 0
Prem 0
SG 0
EF 0
houses 0
Edge 0
229 0
void 0
##oti 0
sides 0
KB 0
dropped 0
##orce 0
exhib 0
##ceeded 0
##ource 0
traffic 0
Brian 0
SIM 0
Jeep 0
thing 0
##lam 0
spring 0
communic 0
Adv 0
suggest 0
aººa 0
Never 0
greater 0
GE 0
Parliament 0
UA 0
##rc 0
##ican 0
##rot 0
Wild 0
Football 0
##kins 0
##imal 0
inch 0
symp 0
##amin 0
##ubb 0
227 0
incorpor 0
990 0
require 0
simple 0
Histor 0
Kong 0
marked 0
Radio 0
inches 0
##OD 0
Rain 0
saf 0
##TAT 0
corn 0
Sony 0
enemy 0
advance 0
ba 0
×× 0
Marsh 0
050 0
results 0
continues 0
##bar 0
930 0
stories 0
distance 0
yard 0
championship 0
Harrison 0
figure 0
264 0
multiple 0
##weet 0
District 0
BE 0
Who 0
##uate 0
flv 0
Middle 0
313 0
presence 0
attend 0
becomes 0
##105 0
cyclone 0
bat 0
paid 0
Maria 0
Manchester 0
machine 0
weather 0
Ctrl 0
Rub 0
##uli 0
Broad 0
reject 0
##empts 0
demonst 0
sens 0
hands 0
WIND 0
Mot 0
028 0
Swed 0
##aming 0
##irty 0
##ruit 0
Bul 0
distinct 0
RNA 0
##thlet 0
bound 0
Jess 0
tur 0
conducted 0
##ylvan 0
##inary 0
Det 0
HIV 0
sports 0
Dark 0
##chest 0
412 0
Die 0
spot 0
MAX 0
243 0
recent 0
Development 0
##ulations 0
moment 0
##ipment 0
peace 0
independent 0
860 0
Fall 0
MIT 0
lt 0
##more 0
286 0
##edo 0
246 0
pattern 0
systems 0
##zen 0
Admiral 0
SW 0
LA 0
Press 0
yy 0
Liber 0
##ental 0
##adel 0
hus 0
bul 0
allowing 0
Storm 0
seek 0
captain 0
respond 0
powerful 0
309 0
##awa 0
square 0
612 0
charge 0
##isf 0
CSS 0
metres 0
Band 0
ec 0
growth 0
Da 0
##bnb 0
linux 0
##ali 0
owned 0
##HS 0
interp 0
##idas 0
gas 0
##ables 0
appar 0
bey 0
weight 0
##orne 0
Hello 0
platform 0
##rawn 0
Spring 0
code 0
328 0
DX 0
Italy 0
276 0
RE 0
##iced 0
##agn 0
concent 0
Studios 0
Summer 0
Mas 0
##erc 0
crow 0
auto 0
##666 0
Bi 0
##UE 0
Elizabeth 0
ss 0
##ploy 0
VP 0
252 0
Cu 0
Production 0
～～ 0
DF 0
founded 0
reform 0
##come 0
ma 0
##clus 0
316 0
１５ 0
Down 0
##ati 0
Doctor 0
DNS 0
Kevin 0
relatively 0
##MI 0
Chrome 0
##asket 0
EL 0
CE 0
##itable 0
federal 0
nation 0
PB 0
Wilson 0
699 0
##eman 0
599 0
Color 0
university 0
cannot 0
##icks 0
Bart 0
tail 0
006 0
##rative 0
actor 0
WWE 0
1894 0
primarily 0
hyd 0
Pers 0
FOM 0
Ho 0
321 0
Core 0
mel 0
Americans 0
transferred 0
##oster 0
Gra 0
dll 0
OO 0
Ross 0
encour 0
MIX 0
Hurricane 0
254 0
Point 0
GC 0
1280 0
##known 0
SaaS 0
fair 0
premi 0
##nament 0
castle 0
actions 0
featuring 0
Ire 0
737 0
portion 0
Board 0
didn 0
Jew 0
Civil 0
les 0
beyond 0
##mn 0
opin 0
Duke 0
completely 0
239 0
management 0
collabor 0
trial 0
concluded 0
peaked 0
broke 0
electric 0
##while 0
##jia 0
selling 0
##101 0
´¢ 0
##isan 0
Head 0
EMBA 0
eth 0
von 0
plays 0
billion 0
Video 0
##ecraft 0
##ocks 0
XC 0
##wa 0
##resh 0
Kir 0
249 0
wild 0
update 0
stone 0
attempts 0
seconds 0
sources 0
##lies 0
graph 0
##2016 0
##athan 0
QAQ 0
era 0
FDA 0
Bang 0
scoring 0
##uls 0
##inus 0
acting 0
##aks 0
##ucky 0
fly 0
0024 0
3400 0
rough 0
##ANG 0
Ins 0
observed 0
##uang 0
ISTAT 0
Arg 0
ACCA 0
555 0
Bond 0
writers 0
Rose 0
401 0
suc 0
##ampion 0
Harv 0
maximum 0
onto 0
studies 0
004 0
doll 0
batter 0
005 0
physical 0
sout 0
hospital 0
Id 0
1888 0
Ak 0
slightly 0
5200 0
Econom 0
Sport 0
htm 0
##ulture 0
rating 0
GF 0
lz 0
ix 0
divided 0
online 0
##ocket 0
##anning 0
officials 0
Battalion 0
Pu 0
Main 0
Indust 0
３０ 0
0026 0
Common 0
Laur 0
Operation 0
mainly 0
check 0
##hua 0
Ireland 0
２００ 0
##iring 0
##antage 0
ring 0
##essor 0
##edom 0
drug 0
##ho 0
contrast 0
waters 0
calling 0
stra 0
##IFA 0
Christmas 0
Holly 0
Only 0
Short 0
fashion 0
KO 0
cities 0
1889 0
##dd 0
##cci 0
bud 0
##akers 0
Pier 0
4008 0
##ja 0
twice 0
Oculus 0
RF 0
titled 0
ofo 0
Hay 0
weaken 0
##SS 0
iron 0
##olved 0
computer 0
Mos 0
FD 0
##ici 0
Review 0
SQL 0
##ko 0
345 0
LR 0
008 0
##osen 0
##VT 0
sexual 0
##essions 0
Guard 0
##opher 0
920 0
Deep 0
Cry 0
231 0
##pool 0
266 0
Chap 0
cpu 0
floor 0
Pix 0
Fantasy 0
##aya 0
##211 0
dyn 0
##ilton 0
Alt 0
Mess 0
335 0
doub 0
1893 0
Fleet 0
Daily 0
##pa 0
mail 0
##ylvania 0
JP 0
Get 0
Hit 0
deliv 0
FOMC 0
PG 0
##aki 0
Arthur 0
reference 0
lives 0
prepar 0
ahead 0
greatest 0
ultimately 0
resist 0
501 0
senior 0
Brook 0
pet 0
sina 0
##sey 0
Health 0
torp 0
##look 0
PhD 0
##Script 0
USA 0
##aling 0
##racted 0
##formation 0
else 0
combined 0
##ervation 0
EN 0
pilot 0
Gro 0
Moon 0
Through 0
##ighth 0
278 0
##rical 0
5700 0
Bell 0
tell 0
artists 0
serve 0
##enge 0
##orporation 0
adapt 0
rom 0
tree 0
feed 0
degree 0
Burn 0
condition 0
passing 0
Ele 0
ax 0
##hol 0
vess 0
burn 0
spread 0
Croat 0
Nint 0
activities 0
Northern 0
chair 0
BF 0
##fit 0
sust 0
NBC 0
Government 0
Pa 0
Regiment 0
Wel 0
edu 0
##inity 0
IOS 0
##exus 0
Castle 0
innings 0
Ball 0
##ila 0
Brigade 0
qs 0
##load 0
couple 0
0025 0
designated 0
sought 0
phil 0
visual 0
##HD 0
OM 0
295 0
0009 0
element 0
404 0
1885 0
van 0
Carolina 0
355 0
##awn 0
normal 0
##bo 0
##estic 0
influenced 0
na 0
242 0
struck 0
widely 0
Nintendo 0
1260 0
rob 0
Pot 0
hall 0
exec 0
older 0
conflict 0
mv 0
##RS 0
##bps 0
Exp 0
psych 0
590 0
2050 0
Turn 0
670 0
colspan 0
Adam 0
confirmed 0
Hold 0
eye 0
Cra 0
##ply 0
Mah 0
50000 0
##gu 0
drive 0
someone 0
integ 0
Though 0
##appy 0
alongside 0
##quarters 0
##elligence 0
Auto 0
Catholic 0
speech 0
##●● 0
##ifying 0
0023 0
xin 0
northeast 0
margin 0
bass 0
398 0
Journal 0
Zh 0
dedic 0
6008 0
##acement 0
4100 0
Hong 0
Jason 0
##ester 0
##pton 0
IGN 0
Hon 0
Tam 0
gained 0
naval 0
##heim 0
Princ 0
Colon 0
##iro 0
##edition 0
##fully 0
PF 0
trying 0
syn 0
Fair 0
agg 0
##embly 0
##UB 0
##oli 0
explained 0
attract 0
12345 0
citiz 0
Init 0
##YP 0
6006 0
025 0
WS 0
proved 0
county 0
FIFA 0
801 0
Ty 0
Rol 0
reaching 0
Original 0
husband 0
kV 0
##apore 0
##ras 0
ban 0
Sports 0
fear 0
prefer 0
battleship 0
medical 0
tag 0
Well 0
ast 0
pc 0
Sus 0
district 0
##achel 0
##ourney 0
equipment 0
##ultural 0
Prov 0
Arts 0
mis 0
pull 0
Cre 0
vote 0
740 0
uns 0
821 0
promoted 0
4600 0
Simon 0
##ilibili 0
241 0
273 0
NET 0
Dutch 0
777 0
##cho 0
perfect 0
editor 0
MINI 0
gal 0
##lease 0
organization 0
nominated 0
0755 0
##EST 0
253 0
ISBN 0
##uz 0
##SE 0
eyes 0
##adow 0
label 0
425 0
sixth 0
Cou 0
##lines 0
versions 0
BIM 0
Commun 0
pu 0
heard 0
quot 0
invasion 0
Station 0
Kat 0
ME 0
subsequent 0
About 0
##rael 0
Lewis 0
485 0
Technology 0
Han 0
GIF 0
poet 0
##cd 0
Tropical 0
propos 0
Command 0
causing 0
residents 0
seasons 0
012 0
502 0
expressed 0
##amber 0
##ocked 0
PO 0
pH 0
albums 0
1820 0
690 0
Git 0
trou 0
Jr 0
tells 0
##onent 0
weak 0
sb 0
identified 0
710 0
recover 0
##IX 0
##rel 0
##amm 0
##ockey 0
defense 0
looking 0
negoti 0
shortly 0
##utation 0
Penns 0
244 0
pin 0
executive 0
Alan 0
##verse 0
263 0
northwest 0
setting 0
Chart 0
##VE 0
##Ar 0
##ika 0
reception 0
LPL 0
802 0
Photoshop 0
spirit 0
Anderson 0
hors 0
237 0
Hotel 0
trees 0
guest 0
##rett 0
Columbia 0
TFSI 0
Amazon 0
Greg 0
##eless 0
0008 0
5800 0
smart 0
Barb 0
treatment 0
##UP 0
request 0
habit 0
Order 0
378 0
extra 0
capture 0
vo 0
instrument 0
YunOS 0
##eler 0
##resp 0
024 0
Deb 0
il 0
appeal 0
coms 0
sto 0
CMOS 0
Singapore 0
soundtrack 0
5590 0
##oz 0
manufact 0
Six 0
##tc 0
Miller 0
##aved 0
##111 0
Quora 0
weapons 0
LL 0
hers 0
##atus 0
Alf 0
##IE 0
##ushed 0
THP 0
Upon 0
##urrent 0
KW 0
##onents 0
##yer 0
##asts 0
imag 0
reports 0
##rows 0
Chen 0
##clusion 0
vari 0
UV 0
method 0
MAT 0
YJ 0
##rance 0
stre 0
represented 0
heavily 0
Dota 0
brown 0
ACG 0
cold 0
Philipp 0
Mean 0
tv 0
##lim 0
appearances 0
pieces 0
##ito 0
##lew 0
rang 0
drop 0
770 0
Cambridge 0
injury 0
Even 0
defend 0
toward 0
shall 0
Revolution 0
Box 0
accident 0
Anth 0
##BOYS 0
figures 0
tru 0
Express 0
##iling 0
Jane 0
Dyn 0
Fore 0
WTO 0
hair 0
website 0
##dp 0
visited 0
contact 0
Plan 0
Social 0
Roy 0
card 0
laid 0
##PR 0
resc 0
artillery 0
Call 0
Adobe 0
therefore 0
fish 0
fired 0
Ext 0
hol 0
##xin 0
##iller 0
262 0
Walter 0
Ten 0
##cer 0
FIX 0
##hat 0
747 0
##rad 0
Islands 0
Eastern 0
##FO 0
choice 0
officially 0
leaves 0
##engt 0
simply 0
Lar 0
##103 0
##rane 0
Andy 0
##elve 0
root 0
##inder 0
Hug 0
Mach 0
lic 0
sq 0
conver 0
PVC 0
Homer 0
Global 0
contemporary 0
1865 0
affected 0
planet 0
TMT 0
measure 0
stock 0
TPP 0
Francisco 0
Golden 0
##fr 0
269 0
fully 0
occasion 0
attrib 0
fresh 0
security 0
TFBOYS 0
street 0
returning 0
fix 0
##sl 0
##oln 0
DB 0
##lers 0
NHK 0
919 0
analysis 0
811 0
advanced 0
##isters 0
ATP 0
##rig 0
technology 0
247 0
Davis 0
workers 0
anything 0
prominent 0
Clin 0
Ryan 0
segment 0
##vy 0
##ription 0
##iamond 0
disease 0
index 0
birds 0
##worth 0
##utt 0
growing 0
mist 0
session 0
soul 0
Scottish 0
Pennsylvania 0
Bus 0
##vip 0
##body 0
teacher 0
Coast 0
Gary 0
everything 0
QS 0
##rix 0
Women 0
fal 0
fat 0
##izes 0
##173 0
100000 0
yellow 0
worth 0
337 0
consisted 0
##imens 0
##stream 0
MF 0
##antly 0
casual 0
##ilies 0
famous 0
debuted 0
Zen 0
Var 0
910 0
Gil 0
##gian 0
Ari 0
Andre 0
688 0
##rell 0
##inf 0
BLOG 0
##otional 0
##chen 0
argued 0
Supreme 0
##ogen 0
honor 0
follows 0
worldwide 0
tournament 0
##hai 0
1886 0
Mul 0
Cla 0
Conference 0
0006 0
##flix 0
Vill 0
remark 0
030 0
##racy 0
##ographer 0
TN 0
##ova 0
LGBT 0
formation 0
533 0
claims 0
Wii 0
Moto 0
sz 0
grew 0
##mes 0
##jun 0
negative 0
kick 0
que 0
Base 0
Governor 0
escape 0
Gun 0
1750 0
Heart 0
experiment 0
##DI 0
murder 0
SPA 0
maintained 0
ideas 0
failure 0
quant 0
aired 0
251 0
319 0
386 0
none 0
Cub 0
DL 0
launch 0
##cing 0
##lete 0
micro 0
Digital 0
Background 0
Each 0
##obao 0
unknown 0
Pur 0
NFC 0
NT 0
arms 0
WX 0
##123 0
fuel 0
##antine 0
basis 0
guard 0
effective 0
##uled 0
criticized 0
##elle 0
walls 0
chosen 0
##iley 0
279 0
##err 0
IDE 0
map 0
reign 0
Album 0
territory 0
acad 0
compar 0
IDC 0
ATT 0
##ickets 0
Family 0
Circ 0
capacity 0
learning 0
Son 0
EVA 0
CMA 0
1861 0
##uro 0
Ok 0
##300 0
##IVE 0
Ltd 0
core 0
frequently 0
Ford 0
##agan 0
##ORD 0
singles 0
Senate 0
##izon 0
Siri 0
NM 0
wave 0
httpswww 0
Ever 0
Ga 0
initi 0
259 0
authority 0
faced 0
##action 0
##ithub 0
row 0
##friend 0
stations 0
bottom 0
Mi 0
Here 0
272 0
338 0
369 0
TCP 0
##wall 0
Disney 0
GW 0
flying 0
Look 0
spect 0
388 0
MSN 0
Polish 0
1868 0
herself 0
Cur 0
Jacob 0
##zer 0
257 0
1871 0
##OLL 0
lb 0
Irish 0
straight 0
022 0
nice 0
##201 0
322 0
sequence 0
Cop 0
nob 0
purpose 0
necessary 0
Russia 0
IMAX 0
1884 0
588 0
##bang 0
##AAAA 0
Inn 0
defin 0
##uses 0
newspaper 0
Gay 0
１１ 0
challeng 0
##iva 0
##ources 0
Beach 0
railway 0
##zil 0
emphas 0
840 0
Georgia 0
DT 0
rid 0
yu 0
Airbnb 0
Op 0
losing 0
##jj 0
mu 0
®¤ 0
Spain 0
##ENT 0
Ts 0
boat 0
##GB 0
1892 0
Cab 0
Netflix 0
ACT 0
##ami 0
Dom 0
Gib 0
reinfor 0
god 0
surrounding 0
Last 0
governor 0
passes 0
NFL 0
weixin 0
Control 0
Gord 0
Israel 0
user 0
typically 0
VO 0
##ework 0
324 0
rainfall 0
Kelly 0
##flow 0
vir 0
Allied 0
##ructure 0
##asketball 0
Cru 0
Nar 0
receive 0
##ige 0
##ylan 0
##aser 0
historian 0
knowledge 0
##enz 0
027 0
ends 0
dow 0
china 0
orders 0
agreement 0
DK 0
experi 0
Jersey 0
pun 0
supply 0
##atures 0
HA 0
323 0
##illing 0
##fe 0
facebook 0
##water 0
505 0
operated 0
learn 0
Nap 0
budget 0
chose 0
AW 0
Hind 0
mut 0
quite 0
save 0
tun 0
Hart 0
##emony 0
accompan 0
Pict 0
shift 0
reading 0
EBD 0
Sav 0
##isp 0
fiction 0
oo 0
##inth 0
##104 0
Magic 0
bed 0
##haps 0
##sk 0
newly 0
080 0
Hans 0
aim 0
##news 0
Wars 0
Donald 0
##ois 0
Coll 0
creating 0
Jam 0
##car 0
san 0
870 0
BAS 0
wounded 0
Online 0
##aza 0
serving 0
animal 0
encounter 0
１００ 0
Tal 0
contained 0
types 0
ru 0
individuals 0
Ax 0
egg 0
798 0
tt 0
##ador 0
Cort 0
##mosp 0
Channel 0
Ohio 0
Hz 0
kw 0
FPS 0
##HT 0
Lyn 0
##ients 0
##icial 0
owners 0
IQ 0
##engthen 0
Grant 0
##lock 0
chance 0
finish 0
Further 0
615 0
YSL 0
405 0
##ifications 0
offensive 0
##ASH 0
##pro 0
##yo 0
shtml 0
Hun 0
coal 0
elev 0
council 0
Magazine 0
TED 0
contain 0
opposed 0
firm 0
Cart 0
tan 0
consecutive 0
##OLO 0
##once 0
Drive 0
severe 0
##outs 0
homes 0
411 0
284 0
ton 0
Once 0
##OWS 0
##ishes 0
336 0
Ban 0
select 0
drink 0
##ressive 0
060 0
317 0
strike 0
hear 0
deploy 0
historical 0
Gi 0
Lisa 0
jump 0
##ubia 0
prote 0
##Watch 0
daily 0
seat 0
Dog 0
##IDIA 0
adopted 0
liber 0
mob 0
fellow 0
places 0
broken 0
##XP 0
lov 0
trip 0
participated 0
mile 0
##wb 0
expansion 0
Linc 0
gives 0
demand 0
Bir 0
##essed 0
Secretary 0
Lam 0
incident 0
convers 0
Silver 0
MAC 0
rival 0
tower 0
##800 0
XR 0
hyp 0
326 0
actors 0
Rap 0
Track 0
##anny 0
Conc 0
producers 0
##rator 0
##col 0
price 0
899 0
##uts 0
267 0
1887 0
GU 0
##imet 0
install 0
horses 0
hip 0
##orrow 0
525 0
##jing 0
1050 0
ago 0
illust 0
##orters 0
unique 0
##erved 0
getting 0
PU 0
HMS 0
dial 0
conce 0
GMAT 0
bodies 0
1864 0
sleep 0
##102 0
opposition 0
abandoned 0
##omic 0
##ocated 0
drama 0
ji 0
Germ 0
1876 0
Why 0
statement 0
philos 0
sport 0
regarded 0
sand 0
##isers 0
##etch 0
4300 0
Tok 0
040 0
pan 0
Due 0
copy 0
leadership 0
achieved 0
##jo 0
Fa 0
filming 0
ancient 0
economy 0
##the 0
digital 0
harm 0
##iments 0
Patrick 0
4400 0
##bell 0
Modern 0
split 0
paralle 0
1875 0
prompt 0
Nature 0
pk 0
Korean 0
goes 0
hope 0
Education 0
Fun 0
##asty 0
Abb 0
criticism 0
##uration 0
Sunday 0
##urg 0
perman 0
possibly 0
recently 0
##orship 0
py 0
Republican 0
1891 0
protect 0
Reception 0
squadron 0
bilibili 0
flo 0
roads 0
shop 0
ONE 0
##real 0
##iform 0
1862 0
274 0
buy 0
Syd 0
GLE 0
killing 0
cultural 0
Ra 0
6003 0
administration 0
##adelph 0
exo 0
gross 0
1265 0
evac 0
aid 0
FE 0
Moore 0
rise 0
WD 0
##rm 0
##ether 0
##aro 0
1830 0
2900 0
sac 0
##oco 0
CI 0
dismiss 0
sse 0
##inner 0
Liver 0
gather 0
Dal 0
plants 0
caught 0
pursu 0
##Hub 0
inh 0
4900 0
turns 0
##orus 0
ga 0
ty 0
Philadelph 0
roles 0
advert 0
belong 0
Morgan 0
improved 0
MPA 0
GH 0
Rick 0
NP 0
motor 0
297 0
##iew 0
015 0
##ante 0
catch 0
Nat 0
##osis 0
buff 0
MH 0
##mouth 0
twelve 0
Lincoln 0
mode 0
rot 0
289 0
NHL 0
##bb 0
287 0
Olympic 0
Ut 0
filmed 0
WINDOWS 0
##3333 0
##ijing 0
CBS 0
nuclear 0
Lanc 0
landing 0
Hollywood 0
Corporation 0
Front 0
825 0
lv 0
sets 0
repeated 0
1866 0
winner 0
##bro 0
Also 0
PVP 0
roll 0
armed 0
##gt 0
List 0
personnel 0
mouth 0
##umes 0
##dj 0
families 0
Carey 0
##YN 0
##ption 0
address 0
1867 0
##acter 0
granted 0
BY 0
Wang 0
##arn 0
Dor 0
Death 0
Philadelphia 0
611 0
Earl 0
Roger 0
##zs 0
283 0
Dol 0
RB 0
vehicles 0
282 0
solid 0
LD 0
narrow 0
opinion 0
##star 0
rear 0
committee 0
piano 0
Meanwhile 0
standing 0
extensive 0
Airport 0
educ 0
##kes 0
hang 0
##etts 0
Story 0
Rome 0
##hens 0
BBS 0
Dior 0
mountain 0
colour 0
retired 0
survey 0
Mult 0
Allen 0
vac 0
Saf 0
successfully 0
Phone 0
##ophy 0
Cloud 0
singing 0
BRT 0
Independ 0
##orry 0
GG 0
push 0
##burgh 0
decre 0
McG 0
Visual 0
##ulate 0
475 0
##yles 0
348 0
361 0
##anga 0
343 0
##ario 0
1350 0
Howard 0
Tel 0
1111 0
Invest 0
hero 0
Server 0
##engers 0
Brazil 0
xm 0
1881 0
organized 0
rejected 0
##oting 0
Spe 0
##iti 0
kiss 0
##life 0
AO 0
Anton 0
extrem 0
ICU 0
suggests 0
motion 0
explos 0
XT 0
advantage 0
##avalry 0
Boss 0
##bec 0
etc 0
determined 0
crowd 0
Limited 0
nor 0
creation 0
Stew 0
crossing 0
622 0
##idden 0
briefly 0
unsu 0
opportunity 0
Ti 0
Wolf 0
Bry 0
agent 0
global 0
JD 0
dry 0
Stanley 0
cart 0
Railway 0
mentioned 0
SV 0
029 0
skin 0
##wang 0
alter 0
Human 0
816 0
gif 0
controlled 0
Pin 0
##itty 0
virt 0
Whit 0
Beaut 0
protection 0
Sarah 0
torpedo 0
Addition 0
provides 0
##ographic 0
##igr 0
sort 0
surr 0
shared 0
door 0
##anz 0
##othes 0
comedy 0
describes 0
acquired 0
ADC 0
##esc 0
GX 0
fought 0
Explorer 0
franch 0
memory 0
expanded 0
5600 0
infantry 0
##restling 0
kilometres 0
unf 0
Transp 0
authorities 0
##aste 0
upgr 0
Among 0
Mini 0
Der 0
interchange 0
Matthew 0
Fal 0
296 0
quest 0
Supp 0
Freder 0
household 0
Gaga 0
GTA 0
assault 0
Hand 0
##cha 0
##istan 0
Liverpool 0
OA 0
AUX 0
Five 0
##oir 0
##▅▅ 0
##respond 0
##aha 0
346 0
Level 0
Player 0
##osite 0
exerc 0
roof 0
poll 0
message 0
selection 0
trust 0
##ione 0
knew 0
Sin 0
##Force 0
Anna 0
Cost 0
HO 0
labor 0
intel 0
RAV 0
1877 0
Talk 0
rules 0
apple 0
##RA 0
##ESS 0
tal 0
↓↓↓↓↓ 0
##itled 0
volume 0
reaction 0
Gordon 0
mt 0
Age 0
1855 0
##achus 0
CTO 0
##ICE 0
commonly 0
Cher 0
##ooth 0
XD 0
519 0
PCI 0
urban 0
009 0
protected 0
Jes 0
##ordin 0
glass 0
islands 0
NVIDIA 0
younger 0
##eral 0
reasons 0
023 0
##shi 0
Nik 0
385 0
dig 0
fine 0
centuries 0
##400 0
##CE 0
Bab 0
Balt 0
genus 0
Nob 0
Ah 0
JB 0
youtube 0
##990 0
powers 0
Bruce 0
##ez 0
seventh 0
##MM 0
090 0
##osa 0
##king 0
Today 0
clean 0
1883 0
custom 0
jn 0
Santa 0
conference 0
nubia 0
２５ 0
261 0
commissioned 0
Sab 0
##avig 0
1872 0
aw 0
##heme 0
1878 0
finds 0
585 0
withdraw 0
industrial 0
##elli 0
Bug 0
entirely 0
gain 0
prem 0
##ategy 0
hotel 0
headquarters 0
##Man 0
Jewish 0
##icient 0
Organ 0
Software 0
Philip 0
##itors 0
##onym 0
Mountain 0
12306 0
##olas 0
Nich 0
Theatre 0
nowiki 0
##ikip 0
ceremony 0
existing 0
##othing 0
Lear 0
ways 0
containing 0
##uction 0
calls 0
Raj 0
currently 0
Tai 0
defined 0
iM 0
rose 0
Lieutenant 0
atmosp 0
Trust 0
mys 0
poem 0
IO 0
1882 0
branch 0
Foundation 0
403 0
unus 0
Dylan 0
277 0
##108 0
rar 0
292 0
7200 0
Sydney 0
1874 0
consum 0
##unting 0
remember 0
1848 0
window 0
dress 0
colle 0
Style 0
RC 0
¸¸ 0
1320 0
Michel 0
rac 0
cong 0
940 0
citizens 0
833 0
ign 0
rgb 0
0007 0
Gear 0
Beyonce 0
ven 0
xp 0
～～～ 0
temperature 0
Ye 0
##ensis 0
Tar 0
awards 0
##uma 0
##unte 0
Domin 0
products 0
1863 0
RP 0
exact 0
lap 0
Kl 0
seems 0
Korea 0
arrival 0
NGC 0
developing 0
Pear 0
Girls 0
dedicated 0
##yt 0
ND 0
402 0
##LO 0
##ifer 0
##ennis 0
##OME 0
exchange 0
Emperor 0
##rons 0
Gulf 0
##rif 0
NCAA 0
822 0
##anner 0
LX 0
icon 0
McK 0
281 0
432 0
##wise 0
SON 0
##OTO 0
HBO 0
SBS 0
deck 0
##wick 0
stream 0
819 0
##AX 0
ones 0
352 0
Snap 0
holding 0
Gucci 0
Pit 0
flu 0
performing 0
##achusetts 0
qsx 0
contributed 0
ju 0
battalion 0
intensity 0
##abla 0
tend 0
forest 0
##iminal 0
tank 0
Alb 0
Jose 0
orchest 0
shape 0
ET 0
rare 0
hash 0
titles 0
Democratic 0
271 0
cars 0
mate 0
##active 0
Pow 0
Massachusetts 0
Bos 0
1879 0
Iron 0
projects 0
##nergy 0
ready 0
##aked 0
shooting 0
alle 0
ct 0
##anth 0
366 0
sites 0
focused 0
Director 0
Dur 0
TX 0
HDMI 0
Whe 0
##onia 0
flat 0
themes 0
Vers 0
comic 0
Imperial 0
accompanied 0
xxxx 0
improve 0
##ikipedia 0
##kt 0
##abala 0
scheduled 0
Dick 0
Swift 0
details 0
356 0
resemb 0
IPS 0
xia 0
Logo 0
Ig 0
##stal 0
25000 0
dang 0
768 0
regions 0
snow 0
purchased 0
wrong 0
locations 0
defensive 0
HDR 0
elimin 0
##cs 0
5400 0
Scient 0
1873 0
Fund 0
329 0
touchdown 0
Code 0
##istol 0
##ocker 0
supporting 0
experienced 0
xy 0
Set 0
##phone 0
##acted 0
Between 0
Centre 0
tall 0
synt 0
Edition 0
facilities 0
closely 0
sky 0
limit 0
correspond 0
literature 0
5300 0
Switch 0
symbol 0
##ropol 0
ow 0
##ntown 0
Naz 0
EXC 0
701 0
strengthen 0
##AVA 0
JT 0
Feder 0
##ju 0
##uda 0
433 0
drawn 0
Charl 0
domestic 0
##mo 0
OTA 0
##uster 0
Mars 0
Dougl 0
１８ 0
##iler 0
##ologist 0
register 0
ESPN 0
616 0
secondary 0
steel 0
blow 0
zone 0
flooding 0
##inental 0
##555 0
cells 0
##GE 0
consists 0
equal 0
url 0
pitch 0
ai 0
##elson 0
MOD 0
334 0
Forest 0
##OO 0
providing 0
structures 0
428 0
##zhou 0
shark 0
6300 0
expedition 0
GitHub 0
introduction 0
528 0
Doc 0
Stadium 0
resident 0
HTTP 0
Hamilton 0
406 0
learned 0
Rand 0
1650 0
##wx 0
518 0
occupied 0
museum 0
Cooper 0
Nexus 0
925 0
##bourne 0
Fle 0
Library 0
understand 0
617 0
332 0
CFP 0
##rum 0
MLF 0
painting 0
nv 0
13000 0
boats 0
PT 0
QX 0
##ewhere 0
##ipe 0
Dragon 0
æº 0
535 0
mounted 0
journey 0
##iko 0
models 0
##amer 0
scholar 0
##rat 0
wealth 0
##UK 0
Administ 0
Dot 0
##128 0
UB 0
JavaScript 0
##laim 0
Anne 0
##achment 0
CK 0
letters 0
##fa 0
Row 0
##alog 0
submar 0
prepared 0
8500 0
planning 0
915 0
ABCD 0
Es 0
trains 0
CJ 0
KK 0
boot 0
basic 0
##unicip 0
524 0
##rets 0
##erts 0
368 0
Gill 0
adult 0
Hop 0
##osaurus 0
safety 0
##math 0
Byz 0
Joy 0
Gram 0
wow 0
recognized 0
Friend 0
acid 0
Brother 0
engaged 0
receiving 0
##Ex 0
youth 0
Ko 0
Category 0
eat 0
##OLED 0
moder 0
views 0
Again 0
##tty 0
entry 0
rapidly 0
Arn 0
Hou 0
cloud 0
KX 0
##eta 0
perhaps 0
##iege 0
##bound 0
##iques 0
rated 0
353 0
##ropri 0
Od 0
978 0
##ACE 0
##idae 0
cab 0
##itage 0
##ifically 0
soft 0
XV 0
USS 0
cricket 0
advent 0
##har 0
##leton 0
publication 0
1150 0
##106 0
##Pad 0
campus 0
brothers 0
1212 0
semi 0
merch 0
##Un 0
Phill 0
Chanel 0
easily 0
397 0
neighbor 0
Ted 0
rich 0
Lumia 0
##oral 0
294 0
heads 0
false 0
missing 0
Transport 0
camera 0
ADSL 0
##FA 0
##agu 0
357 0
293 0
Adams 0
sam 0
witness 0
bj 0
##asp 0
IMX 0
myth 0
725 0
vert 0
1858 0
beautiful 0
Next 0
programs 0
##wich 0
##RC 0
##cious 0
##ception 0
estate 0
790 0
HKEY 0
486 0
##ipping 0
##onda 0
Staff 0
##WA 0
fil 0
889 0
##zx 0
576 0
##hyth 0
alternative 0
##boys 0
##onn 0
##iration 0
Om 0
358 0
contest 0
##ONE 0
##GS 0
##lab 0
notable 0
013 0
415 0
YOU 0
##untu 0
Songs 0
Yes 0
##ulpt 0
395 0
sell 0
hired 0
autom 0
18000 0
approved 0
charts 0
##gency 0
3003 0
Treat 0
799 0
##hemat 0
picture 0
##asure 0
hi 0
##inois 0
rt 0
3900 0
viewed 0
padd 0
##osl 0
substant 0
IEA 0
sure 0
evening 0
1060 0
significantly 0
##erk 0
##INA 0
LT 0
6200 0
everyone 0
Bol 0
052 0
##xj 0
HUD 0
RD 0
##agle 0
Cape 0
Kal 0
503 0
brain 0
nick 0
reputation 0
appoint 0
southeast 0
Germans 0
fit 0
Justice 0
##know 0
watched 0
distingu 0
918 0
##OST 0
▽▽▽ 0
squad 0
Tro 0
rend 0
Anthony 0
##otic 0
331 0
casualties 0
##uties 0
Serb 0
##scape 0
##qi 0
theat 0
##icine 0
##otype 0
339 0
##UL 0
327 0
depth 0
Amy 0
resistance 0
WH 0
Vietnam 0
1869 0
cinem 0
send 0
isol 0
515 0
distribution 0
adding 0
##uting 0
##ffee 0
##issance 0
Kentucky 0
516 0
ACC 0
connected 0
Colonel 0
Douglas 0
judge 0
scientific 0
##berts 0
0571 0
Asian 0
losses 0
##icts 0
Temple 0
feeling 0
operating 0
reduce 0
joint 0
##lik 0
##izations 0
OEM 0
prosp 0
##sole 0
##iversary 0
items 0
##oft 0
##game 0
sa 0
##uge 0
456 0
enl 0
tips 0
roughly 0
##ango 0
Memorial 0
##rik 0
Map 0
actress 0
Bou 0
Boot 0
##aron 0
HE 0
##rim 0
Clinton 0
ray 0
##118 0
intersection 0
WC 0
##pad 0
##ARA 0
Dead 0
instruct 0
★★★★☆ 0
099 0
swim 0
Bit 0
taobao 0
##quest 0
##theless 0
allows 0
injured 0
Christopher 0
Smartisan 0
VT 0
agric 0
lat 0
##brid 0
##ships 0
aººæ 0
##ISS 0
composition 0
Samuel 0
assistant 0
Tower 0
367 0
##120 0
##rence 0
implement 0
turning 0
replace 0
EE 0
bands 0
##orb 0
Lov 0
##edding 0
KA 0
Justin 0
Mit 0
ham 0
CRM 0
franchise 0
1680 0
adap 0
Norway 0
wings 0
Ale 0
##ni 0
Anim 0
##opping 0
５０ 0
Prom 0
ng 0
undert 0
politics 0
weibo 0
Know 0
employed 0
Olympics 0
Qual 0
##zb 0
##SQL 0
enjoyed 0
458 0
Blood 0
cited 0
promotion 0
consequ 0
##acts 0
Dance 0
AlphaGo 0
Prim 0
shaped 0
998 0
Where 0
retire 0
##apes 0
##okes 0
southwest 0
##encies 0
Federal 0
humans 0
##ture 0
increasingly 0
Beyond 0
455 0
candidate 0
laws 0
##zhu 0
##Hg 0
384 0
Joh 0
Perform 0
Maryland 0
Rolling 0
##night 0
869 0
regarding 0
css 0
zan 0
##nic 0
##hedral 0
doesn 0
Files 0
##125 0
tou 0
existence 0
##ibb 0
##vo 0
445 0
partners 0
unsuccess 0
Vel 0
gameplay 0
popularity 0
Io 0
Pap 0
stages 0
Mun 0
##mph 0
phase 0
phone 0
Fried 0
347 0
auth 0
##chers 0
bought 0
Gab 0
JAVA 0
EXCEL 0
mc 0
##oro 0
##alo 0
##ece 0
##lder 0
Gard 0
ol 0
393 0
4700 0
Bush 0
678 0
Third 0
##ASS 0
Non 0
Beatles 0
drew 0
1845 0
354 0
014 0
declined 0
subt 0
5100 0
##━━━━ 0
cup 0
##Tr 0
showing 0
LNG 0
Lock 0
##enny 0
Dave 0
Fred 0
vent 0
465 0
interested 0
frag 0
OV 0
Naval 0
##asa 0
521 0
¤© 0
711 0
##insula 0
Hospital 0
Russell 0
converted 0
1020 0
Mind 0
Ub 0
##abled 0
291 0
Steven 0
1550 0
extremely 0
OT 0
##aux 0
##iya 0
neut 0
Winter 0
repair 0
Polo 0
##orage 0
correct 0
6004 0
##DC 0
##ardo 0
applied 0
##agg 0
exclus 0
Start 0
885 0
transform 0
storyline 0
duty 0
359 0
internal 0
##ovic 0
Robinson 0
##122 0
maintain 0
Disc 0
1701 0
FRM 0
VIS 0
secure 0
filled 0
athlet 0
655 0
income 0
headed 0
SOHO 0
Vent 0
##ivalent 0
FT 0
stopped 0
Beck 0
016 0
tele 0
girls 0
##EFL 0
##racle 0
Ru 0
carrying 0
references 0
##005 0
##ori 0
Wing 0
344 0
renamed 0
##break 0
OB 0
proposal 0
##away 0
20140 0
Jimmy 0
##you 0
##iants 0
435 0
warm 0
loop 0
Pixel 0
NX 0
##OH 0
mort 0
##ivan 0
collected 0
succeeded 0
CBC 0
##agen 0
418 0
Norman 0
718 0
808 0
##psons 0
##force 0
battery 0
##cement 0
opera 0
baseball 0
##nie 0
Buff 0
hhh 0
throw 0
Vinc 0
■■ 0
407 0
##onto 0
expect 0
gall 0
See 0
hp 0
stadium 0
6002 0
Rhodes 0
Critical 0
corner 0
468 0
shel 0
rebu 0
constitution 0
agree 0
Care 0
lop 0
VB 0
Sem 0
##don 0
occas 0
combination 0
Merc 0
##ym 0
##anghai 0
Kennedy 0
Parker 0
BJ 0
orz 0
responded 0
TW 0
11000 0
3140 0
##owa 0
371 0
remov 0
Poland 0
Ng 0
##vens 0
##NO 0
1799 0
tom 0
climb 0
images 0
speak 0
AX 0
needs 0
Simpsons 0
##ME 0
ox 0
##mad 0
382 0
##idi 0
Bird 0
gone 0
##chang 0
proceed 0
##168 0
restaur 0
violence 0
LE 0
ke 0
3004 0
Rey 0
PSP 0
defence 0
description 0
speaking 0
Ent 0
Tot 0
Then 0
challenge 0
Dean 0
designs 0
##rogen 0
sustained 0
reserve 0
##ourself 0
OF 0
approached 0
AMOLED 0
##boy 0
##hetic 0
®¢ 0
##obi 0
Roberts 0
finding 0
##vet 0
STEP 0
##Store 0
TMD 0
☆☆☆ 0
importance 0
bp 0
##osure 0
lands 0
##oda 0
##ansas 0
KPI 0
NL 0
parties 0
Military 0
Morris 0
##urance 0
Brun 0
driving 0
362 0
demo 0
##burn 0
416 0
##ctions 0
religion 0
department 0
EG 0
URL 0
tf 0
##erver 0
Vive 0
##AST 0
producing 0
Instead 0
buried 0
##aria 0
##phoon 0
Turk 0
##amic 0
faith 0
Nelson 0
sculpt 0
fu 0
entrance 0
Fab 0
##113 0
View 0
##log 0
##bal 0
Lucas 0
hits 0
settlement 0
Kit 0
##acon 0
##etty 0
genre 0
Knight 0
Karl 0
src 0
342 0
mx 0
Pho 0
##WC 0
℃～ 0
delivered 0
behavior 0
gap 0
1610 0
revolution 0
string 0
##risis 0
Ottoman 0
Ian 0
Mk 0
tact 0
##taining 0
##ahoo 0
crime 0
arranged 0
crown 0
stret 0
spons 0
partner 0
##olo 0
##eget 0
earliest 0
Oliv 0
##emies 0
identity 0
Stock 0
##oga 0
Hend 0
cad 0
##tv 0
Say 0
##ashed 0
PCB 0
##225 0
RNG 0
causes 0
419 0
##urray 0
Garden 0
633 0
studied 0
Harris 0
Tab 0
Confeder 0
gradually 0
Chron 0
offers 0
3250 0
investigation 0
##yu 0
652 0
connection 0
Labor 0
##iche 0
Cred 0
unp 0
Our 0
1815 0
##udden 0
reflect 0
independence 0
866 0
##umin 0
Bowl 0
decade 0
##avia 0
Author 0
526 0
apart 0
UFO 0
##lets 0
owner 0
Khan 0
##etta 0
Jonathan 0
httpm 0
1854 0
mir 0
Phys 0
##ilation 0
Hell 0
##ensus 0
Alfred 0
credited 0
805 0
formal 0
shen 0
##hl 0
##borne 0
weakened 0
lasted 0
CON 0
sections 0
evolution 0
Charlie 0
towns 0
lin 0
wuli 0
##ternal 0
Indiana 0
funds 0
##ertain 0
Raw 0
##ARS 0
##ologies 0
classic 0
##ician 0
generation 0
Illinois 0
actual 0
acts 0
freeway 0
Argent 0
１３ 0
##ossible 0
indicated 0
Vo 0
dipl 0
credit 0
cf 0
retained 0
Children 0
promote 0
Thompson 0
##ingly 0
Indones 0
bom 0
freedom 0
SPF 0
[...]
