[PAD]
[unused1]
[unused2]
[unused3]
[unused4]
[unused5]
[unused6]
[unused7]
[unused8]
[unused9]
[unused10]
[unused11]
[unused12]
[unused13]
[unused14]
[unused15]
[unused16]
[unused17]
[unused18]
[unused19]
[unused20]
[unused21]
[unused22]
[unused23]
[unused24]
[unused25]
[unused26]
[unused27]
[unused28]
[unused29]
[unused30]
[unused31]
[unused32]
[unused33]
[unused34]
[unused35]
[unused36]
[unused37]
[unused38]
[unused39]
[unused40]
[unused41]
[unused42]
[unused43]
[unused44]
[unused45]
[unused46]
[unused47]
[unused48]
[unused49]
[unused50]
[unused51]
[unused52]
[unused53]
[unused54]
[unused55]
[unused56]
[unused57]
[unused58]
[unused59]
[unused60]
[unused61]
[unused62]
[unused63]
[unused64]
[unused65]
[unused66]
[unused67]
[unused68]
[unused69]
[unused70]
[unused71]
[unused72]
[unused73]
[unused74]
[unused75]
[unused76]
[unused77]
[unused78]
[unused79]
[unused80]
[unused81]
[unused82]
[unused83]
[unused84]
[unused85]
[unused86]
[unused87]
[unused88]
[unused89]
[unused90]
[unused91]
[unused92]
[unused93]
[unused94]
[unused95]
[unused96]
[unused97]
[unused98]
[unused99]
[UNK]
[CLS]
[SEP]
[MASK]
[EOS]
!
"
#
$
%
&
'
(
)
*
+
,
-
.
/
0
1
2
3
4
5
6
7
8
9
:
;
<
=
>
?
@
A
B
C
D
E
F
G
H
I
J
K
L
M
N
O
P
Q
R
S
T
U
V
W
X
Y
Z
[
\
]
^
_
`
a
b
c
d
e
f
g
h
i
j
k
l
m
n
o
p
q
r
s
t
u
v
w
x
y
z
{
|
}
~
¡
¢
£
¤
¥
¦
§
¨
©
ª
«
¬
®
¯
°
±
²
³
´
µ
¶
·
¸
¹
º
»
¼
½
¾
¿
Æ
Ð
×
Ø
Þ
ß
æ
ð
÷
ø
þ
Đ
đ
Ħ
ħ
ı
Ĳ
ĳ
ĸ
Ŀ
ŀ
Ł
ł
ŉ
Ŋ
ŋ
Œ
œ
Ŧ
ŧ
ſ
ƀ
Ɓ
Ƃ
ƃ
Ƅ
ƅ
Ɔ
Ƈ
ƈ
Ɖ
Ɗ
Ƌ
ƌ
ƍ
Ǝ
Ə
Ɛ
Ƒ
ƒ
Ɠ
Ɣ
ƕ
Ɩ
Ɨ
Ƙ
ƙ
ƚ
ƛ
Ɯ
Ɲ
ƞ
Ɵ
Ƣ
ƣ
Ƥ
ƥ
Ʀ
Ƨ
ƨ
Ʃ
ƪ
ƫ
Ƭ
ƭ
Ʈ
Ʊ
Ʋ
Ƴ
ƴ
Ƶ
ƶ
Ʒ
Ƹ
ƹ
ƺ
ƻ
Ƽ
ƽ
ƾ
ƿ
ǀ
ǁ
ǂ
ǃ
ǝ
Ǥ
ǥ
Ƕ
Ƿ
Ȝ
ȝ
Ƞ
ȡ
Ȣ
ȣ
Ȥ
ȥ
ȴ
ȵ
ȶ
ȷ
ȸ
ȹ
Ⱥ
Ȼ
ȼ
Ƚ
Ⱦ
ȿ
ɀ
Ɂ
ɂ
Ƀ
Ʉ
Ʌ
Ɇ
ɇ
Ɉ
ɉ
Ɋ
ɋ
Ɍ
ɍ
Ɏ
ɏ
ɐ
ɑ
ɒ
ɓ
ɔ
ɕ
ɖ
ɗ
ɘ
ə
ɚ
ɛ
ɜ
ɝ
ɞ
ɟ
ɠ
ɡ
ɢ
ɣ
ɤ
ɥ
ɦ
ɧ
ɨ
ɩ
ɪ
ɫ
ɬ
ɭ
ɮ
ɯ
ɰ
ɱ
ɲ
ɳ
ɴ
ɵ
ɶ
ɷ
ɸ
ɹ
ɺ
ɻ
ɼ
ɽ
ɾ
ɿ
ʀ
ʁ
ʂ
ʃ
ʄ
ʅ
ʆ
ʇ
ʈ
ʉ
ʊ
ʋ
ʌ
ʍ
ʎ
ʏ
ʐ
ʑ
ʒ
ʓ
ʔ
ʕ
ʖ
ʗ
ʘ
ʙ
ʚ
ʛ
ʜ
ʝ
ʞ
ʟ
ʠ
ʡ
ʢ
ʣ
ʤ
ʥ
ʦ
ʧ
ʨ
ʩ
ʪ
ʫ
ʮ
ʯ
ʰ
ʱ
ʲ
ʳ
ʶ
ʷ
ʹ
ʺ
ʻ
ʼ
ʽ
ʾ
ʿ
ˀ
ˁ
˂
˃
ˆ
ˇ
ˈ
ˉ
ˊ
ˋ
ˌ
ˍ
ˎ
ː
ˑ
˔
˕
˖
˘
˙
˚
˜
˝
˞
ˠ
ˡ
ˢ
ˣ
ˤ
˥
˦
˧
˨
˩
˪
˫
˭
˵
˶
Ͱ
ͱ
Ͳ
ͳ
͵
Ͷ
ͷ
ͼ
;
Ϳ
΄
·
Α
Β
Γ
Δ
Ε
Ζ
Η
Θ
Ι
Κ
Λ
Μ
Ν
Ξ
Ο
Π
Ρ
Σ
Τ
Υ
Φ
Χ
Ψ
Ω
α
β
γ
δ
ε
ζ
η
θ
ι
κ
λ
μ
ν
ξ
ο
π
ρ
ς
σ
τ
υ
φ
χ
ψ
ω
ϐ
ϑ
ϒ
ϕ
ϖ
Ϙ
ϙ
Ϛ
ϛ
Ϝ
ϝ
Ϟ
ϟ
Ϡ
ϡ
Ϣ
ϣ
Ϧ
Ϩ
ϩ
ϯ
ϰ
ϳ
ϵ
Ϸ
ϸ
Ϲ
Ϻ
Ђ
Є
Ѕ
І
Ј
Љ
Њ
Ћ
Џ
А
Б
В
Г
Д
Е
Ж
З
И
К
Л
М
Н
О
П
Р
С
Т
У
Ф
Х
Ц
Ч
Ш
Щ
Ъ
Ы
Ь
Э
Ю
Я
а
б
в
г
д
е
ж
з
и
к
л
м
н
о
п
р
с
т
у
ф
х
ц
ч
ш
щ
ъ
ы
ь
э
ю
я
ђ
є
ѕ
і
ј
љ
њ
ћ
џ
Ѡ
ѡ
Ѣ
ѣ
Ѥ
ѥ
Ѧ
ѧ
Ѫ
ѫ
Ѯ
ѯ
Ѱ
ѱ
Ѳ
ѳ
Ѵ
ѵ
Ѹ
ѹ
Ѻ
ѻ
Ѽ
ѽ
Ѿ
ѿ
Ҁ
ҁ
҂
҉
Ҋ
ҋ
Ҍ
ҍ
Ҏ
ҏ
Ґ
ґ
Ғ
ғ
Ҕ
ҕ
Җ
җ
Ҙ
ҙ
Қ
қ
Ҝ
ҝ
Ҟ
ҟ
Ҡ
ҡ
Ң
ң
Ҥ
ҥ
Ҧ
ҧ
Ҩ
ҩ
Ҫ
ҫ
Ҭ
ҭ
Ү
ү
Ұ
ұ
Ҳ
ҳ
Ҵ
ҵ
Ҷ
ҷ
Ҹ
ҹ
Һ
һ
Ҽ
ҽ
Ҿ
ҿ
Ӏ
Ӄ
ӄ
Ӆ
ӆ
Ӈ
ӈ
Ӊ
ӊ
Ӌ
ӌ
Ӎ
ӎ
ӏ
Ӕ
ӕ
Ә
ә
Ӡ
ӡ
Ө
ө
Ӷ
ӷ
Ӻ
ӻ
Ӽ
ӽ
Ԁ
ԁ
Ԃ
ԃ
Ԅ
ԅ
Ԇ
ԇ
Ԉ
ԉ
Ԋ
ԋ
Ԍ
ԍ
Ԏ
ԏ
Ԑ
ԑ
Ԓ
ԓ
Ԕ
ԕ
Ԗ
ԗ
Ԙ
ԙ
Ԛ
ԛ
Ԝ
ԝ
Ԟ
ԟ
Ԡ
ԡ
Ԣ
ԣ
Ԥ
ԥ
Ԩ
ԩ
Ԫ
ԫ
Ԭ
ԭ
Ԯ
ԯ
Ա
Բ
Գ
Դ
Ե
Զ
Է
Ը
Թ
Ժ
Ի
Լ
Խ
Ծ
Կ
Հ
Ձ
Ղ
Ճ
Մ
Յ
Ն
Շ
Ո
Պ
Ջ
Ռ
Ս
Վ
Տ
Ր
Ց
Ւ
Փ
Ք
Օ
Ֆ
՚
՛
՜
՝
՞
՟
ա
բ
գ
դ
ե
զ
է
ը
թ
ժ
ի
լ
խ
ծ
կ
հ
ձ
ղ
ճ
մ
յ
ն
շ
ո
չ
պ
ջ
ռ
ս
վ
տ
ր
ց
ւ
փ
ք
օ
ֆ
և
։
֊
֏
־
׀
׃
׆
א
ב
ג
ד
ה
ו
ז
ח
ט
י
ך
כ
ל
ם
מ
ן
נ
ס
ע
ף
פ
ץ
צ
ק
ר
ש
ת
װ
ױ
ײ
׳
״
׷
؉
؊
،
؍
؛
؞
؟
ء
ا
ب
ة
ت
ث
ج
ح
خ
د
ذ
ر
ز
س
ش
ص
ض
ط
ظ
ع
غ
ؾ
ـ
ف
ق
ك
ل
م
ن
ه
و
ى
ي
١
٢
٧
٨
٩
٪
٫
٬
٭
ٱ
ٹ
ٺ
ټ
ٽ
پ
ڄ
څ
چ
ڈ
ڊ
ڌ
ڏ
ڑ
ړ
ڕ
ږ
ژ
ڙ
ښ
ڜ
ڠ
ڡ
ڤ
ک
ڪ
ګ
ڬ
ڭ
گ
ڵ
ں
ڻ
ھ
ہ
ۆ
ۇ
ۈ
ۋ
ی
ۍ
ێ
ې
ے
۔
ە
۩
۰
۱
۲
۳
۴
۵
۶
۷
۸
۹
܀
܁
܂
܃
܄
܅
܆
܇
܈
܉
܊
܋
܌
܍
ܐ
ܒ
ܓ
ܔ
ܕ
ܗ
ܘ
ܙ
ܚ
ܛ
ܝ
ܟ
ܠ
ܡ
ܢ
ܣ
ܥ
ܦ
ܨ
ܩ
ܪ
ܫ
ܬ
ݢ
ހ
ނ
ރ
ބ
ޅ
ކ
އ
ވ
މ
ފ
ދ
ތ
ލ
ގ
ޏ
ސ
ޑ
ޔ
ޕ
ޖ
ޙ
ޝ
ޱ
ߏ
ߒ
ߞ
߷
߸
߹
࠰
࠱
࠲
࠳
࠴
࠵
࠶
࠷
࠸
࠹
࠺
࠻
࠼
࠽
࠾
࡞
ः
अ
आ
इ
ई
उ
ऋ
ए
ऐ
ऑ
ओ
औ
क
ख
ग
घ
ङ
च
छ
ज
झ
ञ
ट
ठ
ड
ढ
ण
त
थ
द
ध
न
प
फ
ब
भ
म
य
र
ल
ळ
व
श
ष
स
ह
ऽ
ा
ि
ी
ॉ
ॊ
ो
ौ
ॐ
ॡ
।
॥
०
१
२
३
५
७
॰
ং
ঃ
অ
আ
ই
উ
এ
ও
ক
খ
গ
ঘ
ঙ
চ
ছ
জ
ঝ
ঞ
ট
ঠ
ড
ঢ
ণ
ত
থ
দ
ধ
ন
প
ফ
ব
ভ
ম
য
র
ল
শ
ষ
স
হ
া
ি
ী
ে
ৈ
ৎ
ৗ
১
৬
৭
ৰ
ৱ
৽
ਃ
ਅ
ਆ
ਉ
ਕ
ਖ
ਗ
ਘ
ਚ
ਜ
ਝ
ਟ
ਠ
ਡ
ਣ
ਤ
ਥ
ਦ
ਧ
ਨ
ਪ
ਬ
ਭ
ਮ
ਰ
ਲ
ਵ
ਸ
ਹ
ਾ
ਿ
ੀ
ੜ
ੲ
ੳ
ੴ
੶
અ
ક
ખ
ગ
જ
ટ
ણ
ત
દ
ધ
ન
પ
ફ
બ
મ
ર
લ
વ
શ
સ
હ
ા
ી
ો
૰
૱
ଂ
ଓ
ଗ
ଙ
ଡ
ନ
ପ
ବ
ଭ
ର
ଲ
ଵ
ଶ
ସ
ା
ୀ
େ
୨
ஃ
அ
ஆ
இ
ஈ
உ
ஊ
எ
ஏ
ஐ
ஒ
ஓ
க
ங
ச
ஜ
ஞ
ட
ண
த
ந
ன
ப
ம
ய
ர
ற
ல
ள
ழ
வ
ஷ
ஸ
ா
ி
ு
ூ
ெ
ே
ை
ௐ
௷
௸
ఁ
ం
ః
ఆ
ఇ
ఎ
ఐ
ఔ
క
ఖ
గ
చ
జ
ఞ
ట
ఠ
డ
ణ
త
థ
ద
న
ప
బ
భ
మ
య
ర
ల
వ
ష
స
హ
ు
ూ
ృ
ౄ
౨
౪
ಂ
ಃ
಄
ಅ
ಇ
ಕ
ಖ
ಗ
ಘ
ಙ
ಚ
ಛ
ಜ
ಝ
ಞ
ಟ
ಠ
ಡ
ಢ
ಣ
ತ
ಥ
ದ
ಧ
ನ
ಪ
ಫ
ಬ
ಭ
ಮ
ಯ
ರ
ಱ
ಲ
ಳ
ವ
ಶ
ಷ
ಸ
ಹ
ಾ
ು
ೂ
ೕ
ೞ
೦
೧
೨
೩
೪
೫
೬
೭
೮
೯
ം
അ
ആ
ഇ
ഓ
ക
ങ
ട
ഡ
ണ
ത
ദ
ന
പ
ഫ
ബ
മ
യ
ര
റ
ല
ള
വ
ശ
സ
ഹ
ാ
ി
െ
ං
අ
ආ
ඉ
එ
ඓ
ඔ
ක
ඛ
ග
ච
ජ
ට
ඨ
ණ
ත
ථ
ද
ධ
න
ප
බ
භ
ම
ය
ර
ල
ව
ශ
ෂ
ස
හ
ළ
ා
ැ
ෙ
෴
ก
ข
ค
ฅ
ฆ
ง
จ
ฉ
ช
ซ
ฌ
ญ
ฎ
ฏ
ฐ
ฑ
ฒ
ณ
ด
ต
ถ
ท
ธ
น
บ
ป
ผ
ฝ
พ
ฟ
ภ
ม
ย
ร
ฤ
ล
ฦ
ว
ศ
ษ
ส
ห
ฬ
อ
ฮ
ฯ
ะ
า
ำ
฿
เ
แ
โ
ใ
ไ
ๅ
ๆ
๏
๐
๑
๒
๓
๔
๕
๖
๙
๚
๛
ກ
ຂ
ຄ
ງ
ຈ
ຊ
ຍ
ດ
ຕ
ທ
ນ
ບ
ປ
ຜ
ພ
ຟ
ມ
ຣ
ລ
ວ
ສ
ຫ
ອ
ຮ
ະ
າ
ຳ
ຽ
ເ
ແ
ໂ
ໄ
ໜ
໱
༄
༅
༆
༇
༈
༉
༊
་
༌
།
༎
༏
༐
༑
༒
༔
༭
༺
༻
༼
༽
ཀ
ཁ
ག
ང
ཅ
ཆ
ཇ
ཉ
ཊ
ཏ
ཐ
ད
ན
པ
ཕ
བ
མ
ཙ
ཚ
ཛ
ཝ
ཞ
ཟ
འ
ཡ
ར
ལ
ཤ
ས
ཧ
ཨ
ཿ
྅
࿐
࿑
࿒
࿓
࿔
࿙
࿚
က
ခ
ဂ
ဃ
င
စ
ဆ
ဇ
ည
ဌ
ဎ
ဏ
တ
ထ
ဒ
န
ပ
ဖ
ဗ
ဘ
မ
ယ
ရ
လ
ဝ
သ
ဟ
အ
ဥ
ဧ
ါ
ာ
ေ
း
ျ
ြ
၀
၁
၂
၆
၇
၈
၉
၊
။
၌
၍
၎
၏
ၢ
ၵ
ၼ
ၿ
ႀ
ႁ
ႃ
ႄ
ႈ
႐
႔
Ⴀ
Ⴂ
Ⴃ
Ⴈ
Ⴌ
Ⴕ
Ⴟ
ა
ბ
გ
დ
ე
ვ
ზ
თ
ი
კ
ლ
მ
ნ
ო
პ
ჟ
რ
ს
ტ
უ
ფ
ქ
ღ
ყ
შ
ჩ
ც
ძ
წ
ჭ
ხ
ჯ
ჰ
ჱ
ჲ
ჳ
ჴ
ჵ
ჶ
ჷ
ჸ
ჹ
ჺ
჻
ᄀ
ᄁ
ᄂ
ᄃ
ᄄ
ᄅ
ᄆ
ᄇ
ᄈ
ᄉ
ᄊ
ᄋ
ᄌ
ᄍ
ᄎ
ᄏ
ᄐ
ᄑ
ᄒ
ᄽ
ᄿ
ᅎ
ᅏ
ᅐ
ᅑ
ᅔ
ᅕ
ᅡ
ᅢ
ᅣ
ᅤ
ᅥ
ᅦ
ᅧ
ᅨ
ᅩ
ᅪ
ᅫ
ᅬ
ᅭ
ᅮ
ᅯ
ᅰ
ᅱ
ᅲ
ᅳ
ᅴ
ᅵ
ᆨ
ᆩ
ᆪ
ᆫ
ᆬ
ᆭ
ᆮ
ᆯ
ᆰ
ᆱ
ᆲ
ᆳ
ᆵ
ᆶ
ᆷ
ᆸ
ᆹ
ᆺ
ᆻ
ᆼ
ᆽ
ᆾ
ᆿ
ᇀ
ᇁ
ᇂ
ሀ
ሄ
ህ
ለ
ሊ
ላ
ል
ሐ
ሒ
ሓ
ሕ
መ
ሚ
ማ
ሜ
ም
ሞ
ሥ
ረ
ሪ
ራ
ሬ
ር
ሰ
ሱ
ሳ
ስ
ሸ
ቃ
ቅ
ቆ
ቈ
በ
ቡ
ባ
ብ
ተ
ቲ
ታ
ቴ
ት
ነ
ና
ን
ኖ
ኛ
አ
ኢ
ኣ
ኤ
እ
ከ
ክ
ኲ
ኽ
ወ
ዊ
ዋ
ው
ዎ
ዕ
ዘ
ዛ
ዝ
የ
ያ
ዬ
ይ
ዮ
ደ
ዳ
ዴ
ድ
ዶ
ጀ
ጅ
ገ
ጉ
ጊ
ጋ
ግ
ጥ
ጨ
ጵ
ጸ
ፀ
ፈ
ፊ
ፋ
ፍ
ፕ
፠
፡
።
፣
፤
፥
፦
፧
፨
Ꭰ
Ꭳ
Ꭶ
Ꭸ
Ꭹ
Ꭿ
Ꮀ
Ꮃ
Ꮄ
Ꮉ
Ꮕ
Ꮜ
Ꮝ
Ꮳ
Ꮷ
Ꮿ
Ᏹ
᐀
ᐃ
ᐄ
ᐅ
ᐊ
ᐋ
ᐍ
ᐎ
ᐏ
ᐑ
ᐛ
ᐟ
ᐢ
ᐣ
ᐤ
ᐦ
ᐧ
ᐯ
ᐱ
ᐸ
ᑎ
ᑑ
ᑕ
ᑖ
ᑦ
ᑭ
ᑮ
ᑯ
ᑲ
ᒃ
ᒋ
ᒡ
ᒣ
ᒥ
ᒧ
ᒪ
ᓀ
ᓂ
ᓄ
ᓇ
ᓈ
ᓐ
ᓕ
ᓗ
ᓘ
ᓪ
ᓯ
ᓱ
ᓴ
ᔅ
ᔑ
ᔕ
ᔪ
ᔭ
ᕆ
ᕐ
ᕗ
ᕙ
ᕤ
ᕼ
ᕿ
ᖃ
ᖅ
ᖇ
ᖓ
ᖹ
ᗅ
ᗣ
ᗩ
ᗰ
ᗷ
ᗺ
᙭
᙮
᚛
᚜
ᚢ
ᚣ
ᚦ
ᚨ
ᚩ
ᚬ
ᚱ
ᚲ
ᚷ
ᚹ
ᚺ
ᚻ
ᚼ
ᚾ
ᛁ
ᛃ
ᛄ
ᛇ
ᛋ
ᛏ
ᛒ
ᛗ
ᛚ
ᛜ
ᛝ
ᛞ
ᛟ
ᛠ
᛫
᛬
᛭
᜵
᜶
ᝃ
ក
ខ
គ
ឃ
ង
ច
ឆ
ជ
ឈ
ញ
ដ
ឋ
ឌ
ណ
ត
ថ
ទ
ធ
ន
ប
ផ
ព
ភ
ម
យ
រ
ល
វ
ស
ហ
ឡ
អ
ឥ
ឧ
ឪ
ឫ
ឯ
ា
ើ
ឿ
ៀ
េ
ែ
ៃ
ោ
ៅ
ះ
ៈ
។
៕
៖
៘
៙
៚
᠀
᠁
᠂
᠃
᠄
᠅
᠆
᠇
᠈
᠉
᠊
ᠠ
ᠡ
ᠢ
ᠣ
ᠤ
ᠥ
ᠨ
ᠪ
ᠬ
ᠭ
ᠮ
ᠯ
ᠰ
ᠱ
ᠳ
ᠴ
ᠵ
ᠶ
ᠷ
ᠸ
ᡝ
ᡠ
ᡥ
ᡨ
ᡳ
ᡴ
ᡵ
ᤌ
ᤕ
ᤰ
ᤱ
᥄
᥅
ᥐ
ᥑ
ᥒ
ᥓ
ᥔ
ᥕ
ᥖ
ᥗ
ᥘ
ᥙ
ᥚ
ᥛ
ᥜ
ᥝ
ᥞ
ᥟ
ᥢ
ᥣ
ᥤ
ᥥ
ᥦ
ᥧ
ᥨ
ᥩ
ᥫ
ᥬ
ᥭ
ᥰ
ᥱ
ᥲ
ᥳ
ᥴ
ᦂ
ᦄ
ᦆ
ᦎ
ᦑ
ᦞ
ᦟ
ᦰ
ᦱ
ᦲ
ᦳ
ᦴ
ᦵ
ᦶ
ᦷ
ᦸ
ᦹ
ᦺ
ᧁ
ᧂ
ᧅ
ᧆ
ᧈ
ᧉ
᧑
᧚
᧞
᧟
ᨀ
ᨁ
ᨄ
ᨅ
ᨆ
ᨈ
ᨑ
ᨓ
ᨔ
ᨙ
ᨚ
᨞
᨟
ᨠ
ᨣ
ᨦ
ᨯ
ᨰ
ᨲ
ᨴ
ᨵ
ᨾ
ᩁ
ᩃ
ᩅ
ᩣ
ᩤ
ᩭ
ᩮ
ᩯ
ᩰ
ᩱ
ᩲ
᪠
᪡
᪢
᪣
᪤
᪥
᪦
᪨
᪩
᪪
᪫
᪬
᪭
᭚
᭛
᭜
᭝
᭞
᭟
᭠
ᮅ
ᮏ
ᮓ
ᮔ
ᮘ
ᮛ
ᮝ
ᮞ
᮪
᯼
᯽
᯾
᯿
ᰧ
ᰨ
᰻
᰼
᰽
᰾
᰿
᱾
᱿
᳀
᳁
᳂
᳃
᳄
᳅
᳆
᳇
᳓
ᴀ
ᴁ
ᴂ
ᴃ
ᴄ
ᴅ
ᴆ
ᴇ
ᴈ
ᴉ
ᴊ
ᴋ
ᴌ
ᴍ
ᴔ
ᴗ
ᴘ
ᴙ
ᴚ
ᴛ
ᴜ
ᴝ
ᴞ
ᴟ
ᴠ
ᴰ
ᴷ
ᴺ
ᵀ
ᵉ
ᵊ
ᵋ
ᵌ
ᵐ
ᵑ
ᵒ
ᵗ
ᵘ
ᵚ
ᵛ
ᵝ
ᵫ
ᵬ
ᵭ
ᵮ
ᵯ
ᵰ
ᵱ
ᵲ
ᵳ
ᵴ
ᵵ
ᵶ
ᵷ
ᵹ
ᵺ
ᵻ
ᵼ
ᵽ
ᵾ
ᵿ
ᶀ
ᶂ
ᶃ
ᶄ
ᶅ
ᶆ
ᶇ
ᶈ
ᶉ
ᶊ
ᶋ
ᶌ
ᶍ
ᶎ
ᶏ
ᶐ
ᶑ
ᶒ
ᶓ
ᶔ
ᶕ
ᶖ
ᶘ
ᶙ
ᶚ
ᶢ
ᶦ
ᶧ
ᶫ
ᶰ
ᶴ
ᶶ
ᶷ
ᶸ
ẚ
ẞ
Ỻ
ỻ
Ỽ
᾽
᾿
῾
‐
‑
‒
–
—
―
‖
‗
‘
’
‚
‛
“
”
„
‟
†
‡
•
‣
․
‥
…
‧
‰
‱
′
″
‴
‵
‶
‷
‸
‹
›
※
‼
‽
‾
‿
⁀
⁁
⁂
⁃
⁄
⁅
⁆
⁇
⁈
⁉
⁊
⁋
⁌
⁍
⁎
⁏
⁐
⁑
⁓
⁔
⁕
⁖
⁗
⁘
⁙
⁚
⁛
⁜
⁝
⁞
⁰
ⁱ
⁴
⁵
⁷
⁸
⁹
⁺
⁻
⁼
⁽
⁾
ⁿ
₀
₁
₂
₃
₄
₇
₉
₍
₎
ₐ
ₓ
₠
₡
₣
₤
₥
₦
₧
₨
₩
₪
₫
€
₮
₯
₰
₱
₲
₴
₵
₷
₹
₺
₽
₿
⃝
⃣
ℂ
℃
℅
℉
ℏ
ℓ
ℕ
№
℗
℘
ℚ
ℛ
ℝ
℞
℠
℡
™
ℤ
℥
℩
ℵ
⅄
ⅎ
⅓
⅔
⅕
⅖
⅗
⅘
⅙
⅛
⅜
⅝
⅞
Ⅰ
Ⅱ
Ⅲ
Ⅳ
Ⅴ
Ⅵ
Ⅶ
Ⅷ
Ⅸ
Ⅹ
Ⅺ
Ⅻ
Ⅼ
Ⅽ
Ⅾ
Ⅿ
ⅰ
ⅱ
ⅲ
ⅳ
ⅴ
ⅵ
ⅶ
ⅷ
ⅸ
ⅹ
ↀ
Ↄ
ↄ
←
↑
→
↓
↔
↖
↗
↘
↙
↦
↪
↵
↺
↼
⇀
⇄
⇆
⇌
⇐
⇒
⇔
⇧
⇨
⇪
∀
∁
∂
∃
∅
∆
∇
∈
∊
∋
∎
∏
∑
−
∓
∕
∖
∗
∘
∙
√
∝
∞
∟
∠
∣
∥
∧
∨
∩
∪
∫
∬
∮
∴
∵
∶
∷
∼
∽
≀
≂
≃
≅
≆
≈
≌
≒
≖
≡
≤
≥
≦
≧
≪
≫
≲
≳
⊂
⊃
⊆
⊇
⊊
⊔
⊕
⊖
⊗
⊙
⊞
⊢
⊣
⊥
⊦
⊩
⊲
⊴
⊿
⋄
⋅
⋆
⋈
⋉
⋊
⋋
⋌
⋚
⋛
⋯
⌂
⌃
⌄
⌇
⌈
⌉
⌊
⌋
⌑
⌒
⌓
⌘
⌚
⌣
⌥
〈
〉
⌬
⌿
⍝
⍵
⍺
⎓
⎕
⎝
⎠
⎯
⏑
⏕
␆
␕
␚
␡
␣
①
②
③
④
⑤
⑥
⑦
⑧
⑨
⑩
⑪
⑫
⑬
⑭
⑮
⑯
⑰
⑱
⑲
⑳
⑴
⑵
⑶
⑷
⑸
⑹
⑺
⑻
⑼
⑽
⑾
⑿
⒀
⒁
⒂
⒃
⒄
⒅
⒆
⒇
⒈
⒉
⒊
⒋
⒌
⒍
⒎
⒏
⒐
⒑
⒒
⒓
⒔
⒕
⒖
⒗
⒘
⒙
⒚
⒛
Ⓐ
Ⓑ
Ⓒ
Ⓓ
Ⓕ
Ⓟ
Ⓡ
Ⓥ
ⓒ
ⓟ
─
━
│
┃
┄
┅
┆
┇
┈
┉
┊
┋
┌
┍
┎
┏
┐
┑
┒
┓
└
┕
┖
┗
┘
┙
┚
┛
├
┝
┞
┟
┠
┡
┢
┣
┤
┥
┦
┧
┨
┩
┪
┫
┬
┭
┮
┯
┰
┱
┲
┳
┴
┵
┶
┷
┸
┹
┺
┻
┼
┽
┾
┿
╀
╁
╂
╃
╄
╅
╆
╇
╈
╉
╊
╋
═
║
╒
╓
╔
╕
╖
╗
╘
╙
╚
╛
╜
╝
╞
╟
╠
╡
╢
╣
╤
╥
╦
╧
╨
╩
╪
╫
╬
╭
╮
╯
╰
╱
╲
╳
╴
╹
▁
▂
▃
▄
▅
▆
▇
█
▉
▊
▋
▌
▍
▎
▏
▒
▓
▔
▕
■
□
▢
▣
▧
▨
▪
▮
▲
△
▶
▷
►
▼
▽
▿
◀
◁
◄
◆
◇
◊
○
◌
◍
◎
●
◐
◑
◕
◘
◙
◡
◢
◣
◤
◥
◦
◧
◩
◬
◯
◼
◾
☀
☁
☂
☃
☄
★
☆
☉
☊
☋
☌
☍
☎
☐
☑
☓
☜
☝
☞
☟
☠
☣
☤
☦
☧
☨
☩
☪
☫
☭
☰
☲
☷
☹
☺
☻
☽
☾
☿
♀
♁
♂
♄
♅
♆
♇
♈
♉
♊
♋
♌
♍
♎
♏
♐
♑
♒
♓
♔
♠
♡
♣
♤
♥
♦
♨
♩
♪
♫
♭
♮
♯
♰
♲
♴
♵
♿
⚊
⚋
⚑
⚜
⚠
⚡
⚪
⚫
⚭
⚳
⚴
⚵
⚹
⚽
⛄
⛎
⛢
⛩
✈
✊
✌
✓
✔
✕
✖
✗
✘
✝
✡
✦
✧
✨
✩
✪
✰
✱
✽
✿
❀
❄
❅
❆
❉
❌
❓
❗
❛
❝
❞
❡
❤
❨
❩
❪
❫
❬
❭
❮
❯
❰
❱
❲
❳
❴
❵
❶
❷
❸
❹
❺
❻
❼
❽
❾
➀
➁
➔
➕
➖
➗
➙
➜
➝
➡
➣
➤
➹
⟅
⟆
⟕
⟖
⟗
⟦
⟧
⟨
⟩
⟪
⟫
⟬
⟭
⟮
⟯
⟷
⠀
⠁
⠂
⠍
⠒
⠕
⠛
⠞
⠡
⠤
⠦
⠫
⠲
⠹
⥇
⦃
⦄
⦅
⦆
⦇
⦈
⦉
⦊
⦋
⦌
⦍
⦎
⦏
⦐
⦑
⦒
⦓
⦔
⦕
⦖
⦗
⦘
⦵
⧘
⧙
⧚
⧛
⧸
⧼
⧽
⨾
⩽
⩾
⫶
⬆
⬕
⭐
Ⰹ
Ⱑ
Ⱛ
ⱋ
ⱌ
ⱛ
Ⱡ
ⱡ
Ɫ
Ᵽ
Ɽ
ⱥ
ⱦ
Ⱨ
ⱨ
Ⱪ
ⱪ
Ⱬ
ⱬ
Ɑ
Ɐ
ⱱ
ⱴ
Ⱶ
ⱶ
ⱷ
Ⲁ
ⲁ
ⲃ
ⲅ
ⲉ
ⲋ
ⲏ
ⲓ
Ⲕ
ⲕ
ⲗ
ⲙ
ⲛ
ⲟ
Ⲡ
ⲡ
ⲣ
ⲥ
ⲧ
ⲩ
Ⲫ
ⲫ
Ⲭ
ⲭ
ⲱ
⳥
⳹
⳺
⳻
⳼
⳾
⳿
ⴰ
ⴱ
ⴳ
ⴷ
ⴻ
ⴼ
ⴽ
ⵀ
ⵃ
ⵄ
ⵇ
ⵉ
ⵊ
ⵍ
ⵎ
ⵏ
ⵓ
ⵔ
ⵕ
ⵖ
ⵙ
ⵛ
ⵜ
ⵟ
ⵡ
ⵢ
ⵣ
⵰
⸀
⸁
⸂
⸃
⸄
⸅
⸆
⸇
⸈
⸉
⸊
⸋
⸌
⸍
⸎
⸏
⸐
⸑
⸒
⸓
⸔
⸕
⸖
⸗
⸘
⸙
⸚
⸛
⸜
⸝
⸞
⸟
⸠
⸡
⸢
⸣
⸤
⸥
⸦
⸧
⸨
⸩
⸪
⸫
⸬
⸭
⸮
⸰
⸱
⸲
⸳
⸴
⸵
⸶
⸷
⸸
⸹
⸺
⸻
⸼
⸽
⸾
⸿
⹀
⹁
⹂
⹃
⹄
⹅
⹆
⹇
⹈
⹉
⹊
⹋
⹌
⹍
⹎
⺀
⺁
⺄
⺈
⺋
⺌
⺕
⺗
⺟
⺠
⺪
⺬
⺭
⺮
⺷
⺸
⺻
⺼
⺾
⺿
⻄
⻆
⻌
⻍
⻎
⻏
⻑
⻓
⻘
⻛
⻝
⻱
⼀
⼁
⼂
⼃
⼄
⼅
⼆
⼈
⼊
⼍
⼎
⼏
⼐
⼑
⼒
⼗
⼝
⼟
⼠
⼣
⼤
⼥
⼦
⼩
⼭
⼯
⼲
⼴
⼹
⼼
⼿
⽀
⽂
⽅
⽆
⽇
⽉
⽊
⽒
⽓
⽔
⽚
⽠
⽣
⽤
⽩
⽬
⽰
⽴
⽶
⽹
⽼
⽽
⾃
⾄
⾊
⾏
⾓
⾔
⾕
⾘
⾜
⾝
⾢
⾥
⾦
⾨
⾮
⾯
⾰
⾳
⾵
⾷
⾹
⾺
⾼
⿇
⿊
⿰
⿱
⿲
⿳
⿴
⿵
⿶
⿷
⿸
⿹
⿺
⿻
、
。
〃
〄
々
〆
〇
〈
〉
《
》
「
」
『
』
【
】
〒
〓
〔
〕
〖
〗
〘
〙
〚
〛
〜
〝
〞
〟
〠
〡
〢
〣
〤
〥
〦
〧
〨
〩
〰
〱
〲
〳
〴
〵
〻
〽
〾
〿
ぁ
あ
ぃ
い
ぅ
う
ぇ
え
ぉ
お
か
き
く
け
こ
さ
し
す
せ
そ
た
ち
っ
つ
て
と
な
に
ぬ
ね
の
は
ひ
ふ
へ
ほ
ま
み
む
め
も
ゃ
や
ゅ
ゆ
ょ
よ
ら
り
る
れ
ろ
ゎ
わ
ゐ
ゑ
を
ん
゛
゜
ゝ
ゟ
゠
ァ
ア
ィ
イ
ゥ
ウ
ェ
エ
ォ
オ
カ
キ
ク
ケ
コ
サ
シ
ス
セ
ソ
タ
チ
ッ
ツ
テ
ト
ナ
ニ
ヌ
ネ
ノ
ハ
ヒ
フ
ヘ
ホ
マ
ミ
ム
メ
モ
ャ
ヤ
ュ
ユ
ョ
ヨ
ラ
リ
ル
レ
ロ
ヮ
ワ
ヰ
ヱ
ヲ
ン
ヵ
ヶ
・
ー
ヽ
ヿ
㄂
ㄅ
ㄆ
ㄇ
ㄈ
ㄉ
ㄊ
ㄋ
ㄌ
ㄍ
ㄎ
ㄏ
ㄐ
ㄑ
ㄒ
ㄓ
ㄔ
ㄕ
ㄖ
ㄗ
ㄘ
ㄙ
ㄚ
ㄛ
ㄜ
ㄝ
ㄞ
ㄟ
ㄠ
ㄡ
ㄢ
ㄣ
ㄤ
ㄥ
ㄦ
ㄧ
ㄨ
ㄩ
ㄪ
ㄫ
ㄬ
ㄭ
ㄮ
ㄯ
ㄱ
ㄲ
ㄳ
ㄴ
ㄷ
ㄸ
ㄹ
ㄻ
ㄼ
ㅁ
ㅂ
ㅃ
ㅅ
ㅆ
ㅇ
ㅈ
ㅉ
ㅊ
ㅋ
ㅌ
ㅍ
ㅎ
ㅏ
ㅐ
ㅑ
ㅒ
ㅓ
ㅔ
ㅕ
ㅖ
ㅗ
ㅘ
ㅙ
ㅚ
ㅛ
ㅜ
ㅝ
ㅞ
ㅟ
ㅠ
ㅡ
ㅢ
ㅣ
ㅤ
ㅭ
ㅸ
ㅿ
ㆁ
ㆆ
ㆍ
㆒
㆕
㆖
㆗
㆟
ㆠ
ㆡ
ㆢ
ㆣ
ㆤ
ㆥ
ㆦ
ㆧ
ㆨ
ㆩ
ㆪ
ㆫ
ㆬ
ㆭ
ㆮ
ㆯ
ㆰ
ㆱ
ㆲ
ㆳ
ㆴ
ㆵ
ㆶ
ㆷ
ㆻ
ㆼ
ㆽ
ㆾ
ㆿ
㇀
㇋
㇏
㇐
㇑
㇒
㇔
㇕
㇗
㇙
㇚
㈜
㈠
㈡
㈢
㈣
㈤
㈥
㈦
㈧
㈨
㈩
㈱
㉑
㉒
㊀
㊁
㊂
㊎
㊑
㊣
㋿
㌌
㌍
㌫
㌶
㍊
㍍
㍑
㍻
㍼
㍽
㍾
㍿
㎎
㎏
㎑
㎒
㎛
㎜
㎝
㎞
㎡
㎢
㎦
㎧
㎭
㎮
㏄
㏉
㏍
㏎
㏑
㏒
㏕
㐀
㐂
㐅
㐉
㐌
㐚
㐨
㐩
㐫
㐰
㐱
㐲
㐵
㐷
㐺
㐽
㐾
㑀
㑇
㑈
㑋
㑩
㑮
㑯
㑳
㑷
㑹
㑺
㒄
㒒
㒓
㒚
㒜
㒝
㒟
㒡
㒨
㒭
㒰
㒷
㒹
㒼
㓂
㓕
㓗
㓛
㓜
㓤
㓥
㓦
㓾
㔆
㔉
㔨
㔬
㔶
㔾
㕊
㕎
㕑
㕒
㕔
㕕
㕛
㕟
㕢
㕩
㕫
㕭
㕵
㕶
㕹
㖊
㖞
㖫
㖱
㖼
㖿
㗊
㗌
㗎
㗑
㗖
㗙
㗚
㗦
㗰
㗼
㘃
㘎
㘡
㘣
㘧
㘭
㘰
㘵
㘾
㙁
㙂
㙉
㙊
㙍
㙎
㙏
㙓
㙔
㙞
㙟
㙡
㙨
㙩
㙫
㙱
㙲
㙸
㙺
㙻
㙾
㚁
㚇
㚏
㚒
㚕
㚖
㚘
㚟
㚡
㚣
㚬
㚸
㚻
㛀
㛂
㛃
㛄
㛅
㛐
㛑
㛢
㛤
㛧
㛨
㜑
㜕
㜢
㜫
㜲
㜺
㝅
㝇
㝉
㝎
㝏
㝑
㝓
㝗
㝘
㝜
㝝
㝠
㝡
㝢
㝧
㝩
㝬
㝭
㝵
㝷
㝸
㝹
㞎
㞗
㞘
㞙
㞞
㞢
㞦
㞶
㞷
㟁
㟃
㟊
㟋
㟍
㟏
㟐
㟓
㟖
㟥
㟧
㟨
㟲
㟶
㟽
㠁
㠂
㠄
㠉
㠏
㠐
㠖
㠗
㠜
㠫
㠬
㠭
㠯
㠱
㡉
㡎
㡓
㡠
㡣
㡬
㡭
㡳
㡽
㢆
㢉
㢢
㢶
㣈
㣉
㣚
㣧
㤀
㤖
㤘
㤚
㤝
㤧
㤭
㤻
㤽
㥄
㥅
㥏
㥠
㥣
㥥
㥪
㥽
㦀
㦂
㦃
㦕
㦝
㦢
㦤
㦪
㦯
㦲
㦷
㦸
㧀
㧋
㧎
㧏
㧐
㧑
㧟
㧥
㧪
㧰
㧸
㧻
㧽
㧾
㨃
㨆
㨖
㨗
㨴
㨿
㩄
㩉
㩒
㩗
㩦
㩧
㩪
㩲
㩴
㩼
㩿
㪅
㪍
㪚
㪨
㪲
㪳
㪷
㫁
㫃
㫇
㫈
㫋
㫒
㫕
㫖
㫛
㫜
㫝
㫟
㫠
㫤
㫫
㫬
㫰
㫶
㫻
㬀
㬂
㬅
㬇
㬊
㬋
㬌
㬎
㬏
㬕
㬙
㬪
㬫
㬹
㬼
㬾
㭉
㭎
㭏
㭕
㭘
㭙
㭠
㭤
㭪
㭲
㭴
㭼
㭽
㭿
㮁
㮂
㮆
㮈
㮌
㮐
㮒
㮔
㮙
㮚
㮞
㮡
㮣
㮨
㮮
㮯
㮳
㮴
㮵
㮹
㮾
㯊
㯋
㯕
㯟
㯢
㯥
㯫
㯳
㯽
㰂
㰋
㰐
㰒
㰖
㰘
㰴
㱔
㱕
㱘
㱛
㱮
㲀
㲎
㲚
㲪
㲯
㲲
㲳
㳄
㳆
㳇
㳉
㳋
㳍
㳔
㳕
㳘
㳚
㳛
㳠
㳡
㳥
㳦
㴁
㴇
㴋
㴐
㴓
㴤
㴦
㴧
㴩
㴭
㴰
㴱
㴶
㴻
㵂
㵅
㵎
㵐
㵑
㵘
㵝
㵢
㵩
㵮
㵰
㵲
㵴
㵸
㵼
㵾
㶁
㶇
㶉
㶍
㶎
㶏
㶞
㶟
㶠
㶣
㶧
㶨
㶬
㶱
㶲
㶴
㶶
㶽
㶾
㶿
㷂
㷃
㷆
㷇
㷋
㷍
㷛
㷧
㷩
㷫
㷹
㷿
㸁
㸃
㸄
㸅
㸆
㸌
㸎
㸙
㸚
㸞
㸦
㸯
㸲
㸺
㹜
㹢
㹥
㹧
㹭
㹴
㺄
㺅
㺍
㺏
㺒
㺔
㺢
㺤
㺬
㺭
㺯
㺱
㺷
㺹
㻁
㻂
㻅
㻇
㻋
㻌
㻑
㻗
㻛
㻞
㻠
㻪
㻫
㻬
㻱
㻶
㼀
㼁
㼅
㼆
㼈
㼌
㼎
㼴
㼼
㽏
㽓
㽘
㽜
㽞
㽦
㽬
㽱
㽲
㽵
㽿
㾀
㾆
㾗
㾫
㾮
㾾
㾿
㿃
㿉
㿗
㿝
㿟
㿭
䀇
䀊
䀏
䀚
䀠
䀬
䀲
䀹
䀻
䁅
䁋
䁐
䁔
䁖
䁥
䁱
䁻
䁽
䂊
䂓
䂗
䂮
䂵
䂺
䂻
䃄
䃅
䃟
䃮
䃼
䄂
䄄
䄉
䄓
䄔
䄖
䄙
䅁
䅉
䅟
䅩
䅰
䅲
䅳
䅴
䅵
䅶
䆀
䆁
䆃
䆅
䆐
䆝
䆡
䆥
䆲
䆳
䇄
䇍
䇲
䇳
䇿
䈎
䈜
䉀
䉋
䉤
䉶
䊆
䊹
䊾
䋊
䋞
䋱
䋲
䋻
䋼
䌓
䌫
䌷
䌸
䌹
䌼
䌽
䍀
䍁
䍃
䍉
䍡
䍦
䍩
䍪
䍲
䍺
䎃
䎕
䎖
䎗
䎚
䎜
䎞
䏁
䏌
䏏
䏘
䏝
䏟
䏠
䏡
䏣
䏭
䏰
䏲
䏻
䏿
䐁
䐃
䐗
䐶
䐾
䑏
䑓
䑩
䑸
䒏
䒐
䒑
䒢
䒩
䒶
䒷
䓁
䓈
䓓
䓕
䓖
䓘
䓛
䓝
䓤
䓨
䓪
䓬
䓯
䓴
䓶
䔃
䔍
䔎
䔖
䔧
䔶
䔷
䕈
䕒
䕢
䕫
䕭
䕶
䕷
䕾
䖃
䖏
䖑
䖔
䖝
䖢
䖳
䖴
䖵
䗁
䗂
䗃
䗉
䗋
䗖
䗛
䗡
䗧
䗩
䗴
䗶
䘎
䘏
䘗
䘙
䘮
䘰
䘴
䘵
䙉
䙌
䙓
䙝
䙥
䚀
䚟
䚡
䚢
䚮
䛁
䛒
䛔
䛘
䜌
䜓
䜛
䜣
䜧
䜩
䜭
䜳
䝉
䝙
䝞
䝠
䝼
䝾
䞀
䞭
䟢
䟫
䟴
䟽
䠀
䠉
䠋
䠌
䠎
䠏
䠐
䠖
䠘
䠙
䠚
䠥
䠩
䠷
䠺
䡐
䡛
䡵
䢅
䢘
䢵
䢺
䢿
䣄
䣈
䣓
䣕
䤂
䤈
䤌
䤞
䤡
䤪
䤭
䤰
䤸
䥈
䥑
䥓
䥕
䥛
䥩
䥫
䥵
䥸
䥺
䥽
䦃
䦅
䦆
䦉
䦋
䦕
䦦
䦧
䦨
䦹
䧄
䧇
䧏
䧛
䧟
䧲
䧳
䧺
䧿
䨄
䨇
䨈
䨌
䨓
䨞
䨱
䨲
䨺
䨻
䩆
䩌
䩑
䩮
䪚
䪧
䪭
䪴
䪹
䪻
䫂
䫄
䫆
䫈
䫓
䫻
䬅
䬌
䭔
䭕
䭣
䭵
䮀
䮄
䮐
䮓
䮖
䮭
䮾
䯁
䯄
䯑
䯖
䯻
䯼
䰀
䰐
䰖
䰛
䰟
䰠
䰰
䰷
䰽
䰾
䱀
䱂
䱋
䱐
䱗
䱛
䱞
䱡
䱵
䱷
䱹
䱻
䱽
䲀
䲁
䲅
䲆
䲉
䲎
䲔
䲕
䲗
䲞
䲟
䲠
䲡
䲢
䲧
䲹
䳇
䳋
䳍
䳒
䳗
䳘
䳢
䳤
䳭
䳲
䴈
䴉
䴓
䴔
䴕
䴖
䴗
䴘
䴙
䴚
䴥
䴫
䵃
䵋
䵍
䵚
䵣
䵬
䵺
䵼
䶄
䶈
䶎
䶪
䶮
䷌
一
丁
丂
七
丄
丅
丆
万
丈
三
上
下
丌
不
与
丏
丐
丑
丒
专
且
丕
世
丗
丘
丙
业
丛
东
丝
丞
丟
丠
両
丢
丣
两
严
並
丧
丨
丩
个
丫
丬
中
丮
丯
丰
丱
串
丳
临
丵
丶
丷
丸
丹
为
主
丼
丽
举
丿
乀
乁
乂
乃
乄
久
乆
乇
么
义
乊
之
乌
乍
乎
乏
乐
乑
乒
乓
乔
乕
乖
乗
乘
乙
乚
乛
乜
九
乞
也
习
乡
乢
乣
乤
乥
书
乧
乨
乩
乪
乫
乭
乮
乯
买
乱
乲
乳
乴
乶
乷
乸
乹
乺
乻
乼
乽
乾
乿
亀
亁
亂
亃
亄
亅
了
亇
予
争
亊
事
二
亍
于
亏
亐
云
互
亓
五
井
亖
亗
亘
亙
亚
些
亜
亝
亞
亟
亠
亡
亢
亣
交
亥
亦
产
亨
亩
亪
享
京
亭
亮
亯
亰
亱
亲
亳
亴
亵
亶
亷
亸
亹
人
亻
亼
亽
亾
亿
什
仁
仂
仃
仄
仅
仆
仇
仈
仉
今
介
仌
仍
从
仏
仐
仑
仒
仓
仔
仕
他
仗
付
仙
仚
仛
仜
仝
仞
仟
仠
仡
代
令
以
仦
仧
仨
仩
仪
仫
们
仭
仮
仯
仰
仱
仲
仳
仴
仵
件
价
仸
仹
仺
任
仼
份
仾
仿
伀
企
伂
伃
伄
伅
伆
伇
伈
伉
伊
伋
伌
伍
伎
伏
伐
休
伒
伓
伔
伕
伖
众
优
伙
会
伛
伜
伝
伞
伟
传
伡
伢
伣
伤
伥
伦
伧
伨
伩
伪
伫
伬
伭
伮
伯
估
伱
伲
伳
伴
伵
伶
伷
伸
伹
伺
伻
似
伽
伾
伿
佀
佁
佂
佃
佄
佅
但
佇
佈
佉
佊
佋
佌
位
低
住
佐
佑
佒
体
佔
何
佖
佗
佘
余
佚
佛
作
佝
佞
佟
你
佡
佢
佣
佤
佥
佦
佧
佨
佩
佪
佫
佬
佭
佮
佯
佰
佱
佲
佳
佴
併
佶
佷
佸
佹
佺
佻
佼
佽
佾
使
侀
侁
侂
侃
侄
侅
來
侇
侈
侉
侊
例
侌
侍
侎
侏
侐
侑
侒
侓
侔
侕
侖
侗
侘
侙
侚
供
侜
依
侞
侟
侠
価
侢
侣
侤
侥
侦
侧
侨
侩
侪
侫
侬
侭
侮
侯
侰
侱
侲
侳
侴
侵
侶
侷
侸
侹
侻
侼
侽
侾
便
俀
俁
係
促
俄
俅
俆
俇
俈
俉
俊
俋
俌
俍
俎
俏
俐
俑
俒
俓
俔
俕
俖
俗
俘
俙
俚
俛
俜
保
俞
俟
俠
信
俢
俣
俤
俥
俦
俧
俨
俩
俪
俫
俬
俭
修
俯
俰
俱
俲
俳
俴
俵
俶
俷
俸
俹
俺
俻
俼
俽
俾
俿
倀
倁
倂
倃
倄
倅
倆
倇
倈
倉
倊
個
倌
倍
倎
倏
倐
們
倒
倓
倔
倕
倖
倗
倘
候
倚
倛
倜
倝
倞
借
倠
倡
倢
倣
値
倥
倦
倧
倨
倩
倪
倫
倬
倭
倮
倯
倰
倱
倳
倴
倵
倶
倷
倸
倹
债
倻
值
倽
倾
倿
偀
偁
偂
偃
偄
偅
偆
假
偈
偉
偊
偋
偌
偍
偎
偏
偐
偑
偒
偓
偔
偕
偖
偗
偘
偙
做
偛
停
偝
偞
偟
偠
偡
偢
偣
偤
健
偦
偧
偨
偩
偪
偫
偬
偭
偮
偯
偰
偱
偲
偳
側
偵
偶
偷
偸
偹
偺
偻
偼
偽
偾
偿
傀
傁
傂
傃
傄
傅
傆
傇
傈
傉
傊
傋
傌
傍
傎
傏
傐
傑
傒
傓
傔
傕
傖
傗
傘
備
傚
傛
傜
傝
傞
傟
傠
傡
傢
傣
傤
傥
傦
傧
储
傩
傪
傫
催
傭
傮
傯
傰
傱
傲
傳
傴
債
傶
傷
傸
傺
傻
傼
傾
傿
僀
僂
僃
僄
僅
僆
僇
僈
僉
僊
僋
僌
働
僎
像
僐
僑
僒
僓
僔
僕
僖
僗
僘
僙
僚
僛
僜
僝
僞
僟
僠
僡
僢
僣
僤
僥
僦
僧
僨
僩
僪
僫
僬
僭
僮
僯
僰
僱
僲
僳
僴
僵
僶
僷
僸
價
僺
僻
僼
僽
僾
僿
儀
儁
儂
儃
億
儅
儆
儇
儈
儉
儊
儋
儌
儍
儎
儏
儐
儑
儒
儓
儔
儕
儖
儗
儘
儙
儚
儛
儜
儝
儞
償
儠
儡
儢
儣
儤
儥
儦
儧
儨
儩
優
儫
儬
儭
儮
儯
儰
儱
儲
儳
儴
儵
儶
儷
儸
儹
儺
儻
儼
儾
儿
兀
允
兂
元
兄
充
兆
兇
先
光
兊
克
兌
免
兎
兏
児
兑
兒
兓
兔
兕
兖
兗
兘
兙
党
兛
兜
兝
兞
兟
兠
兡
兢
兣
兤
入
兦
內
全
兩
兪
八
公
六
兮
兯
兰
共
兲
关
兴
兵
其
具
典
兹
兺
养
兼
兽
兾
兿
冀
冁
冂
冃
冄
内
円
冇
冈
冉
冊
冋
册
再
冎
冏
冐
冑
冒
冓
冔
冕
冖
冗
冘
写
冚
军
农
冝
冞
冟
冠
冡
冢
冣
冤
冥
冦
冧
冨
冩
冪
冫
冬
冭
冮
冯
冰
冱
冲
决
冴
况
冶
冷
冸
冹
冺
冻
冼
冽
冾
冿
净
凁
凂
凃
凄
凅
准
凇
凈
凉
凊
凋
凌
凍
凎
减
凐
凑
凒
凓
凔
凕
凖
凗
凘
凙
凚
凛
凜
凝
凞
凟
几
凡
凢
凣
凤
凥
処
凧
凨
凩
凪
凫
凬
凭
凮
凯
凰
凱
凲
凳
凴
凵
凶
凷
凸
凹
出
击
凼
函
凾
凿
刀
刁
刂
刃
刄
刅
分
切
刈
刉
刊
刋
刌
刍
刎
刏
刐
刑
划
刓
刔
刕
刖
列
刘
则
刚
创
刜
初
刞
刟
删
刡
刢
刣
判
別
刦
刧
刨
利
刪
别
刬
刭
刮
刯
到
刱
刲
刳
刴
刵
制
刷
券
刹
刺
刻
刼
刽
刾
刿
剀
剁
剂
剃
剄
剅
則
剈
剉
削
剋
剌
前
剎
剏
剐
剑
剒
剓
剔
剕
剖
剗
剘
剙
剚
剛
剜
剝
剞
剟
剠
剡
剢
剣
剤
剥
剦
剧
剨
剩
剪
剫
剬
剭
剮
副
剰
剱
割
剳
剴
創
剶
剷
剸
剹
剺
剻
剼
剽
剿
劀
劁
劂
劃
劄
劅
劆
劇
劈
劉
劊
劋
劌
劍
劎
劏
劐
劑
劒
劓
劔
劕
劖
劗
劘
劙
劚
力
劜
劝
办
功
加
务
劢
劣
劤
劥
劦
劧
动
助
努
劫
劬
劭
劮
劯
劰
励
劲
劳
労
劵
劶
劷
劸
効
劺
劻
劼
劽
劾
势
勀
勁
勂
勃
勄
勅
勆
勇
勈
勉
勊
勋
勌
勍
勎
勏
勐
勑
勒
勓
勔
動
勖
勗
勘
務
勚
勛
勜
勝
勞
募
勠
勡
勢
勣
勤
勥
勦
勧
勨
勩
勪
勫
勬
勭
勮
勯
勰
勱
勲
勳
勴
勵
勶
勷
勸
勹
勺
勻
勼
勽
勾
勿
匀
匁
匂
匃
匄
包
匆
匇
匈
匉
匊
匋
匌
匍
匎
匏
匐
匑
匒
匓
匔
匕
化
北
匘
匙
匚
匛
匜
匝
匞
匟
匠
匡
匢
匣
匤
匥
匦
匧
匩
匪
匫
匬
匭
匮
匯
匰
匱
匲
匳
匴
匵
匶
匷
匸
匹
区
医
匼
匽
匾
匿
區
十
卂
千
卄
卅
卆
升
午
卉
半
卋
卌
卍
华
协
卐
卑
卒
卓
協
单
卖
南
単
卙
博
卛
卜
卝
卞
卟
占
卡
卢
卣
卤
卥
卦
卧
卨
卩
卪
卫
卬
卭
卮
卯
印
危
卲
即
却
卵
卶
卷
卸
卹
卺
卻
卼
卽
卾
卿
厀
厁
厂
厃
厄
厅
历
厇
厉
厊
压
厌
厍
厎
厏
厐
厑
厒
厓
厔
厕
厖
厗
厘
厙
厚
厛
厜
厝
厞
原
厠
厡
厢
厣
厤
厥
厦
厧
厨
厩
厪
厫
厬
厭
厮
厯
厰
厱
厲
厳
厴
厵
厶
厷
厸
厹
厺
去
厼
厽
厾
县
叀
叁
参
參
叄
叅
叆
叇
又
叉
及
友
双
反
収
叏
叐
发
叒
叓
叔
叕
取
受
变
叙
叚
叛
叜
叝
叞
叟
叠
叡
叢
口
古
句
另
叧
叨
叩
只
叫
召
叭
叮
可
台
叱
史
右
叴
叵
叶
号
司
叹
叺
叻
叼
叽
叾
叿
吀
吁
吂
吃
各
吅
吆
吇
合
吉
吊
吋
同
名
后
吏
吐
向
吒
吓
吔
吕
吖
吗
吘
吙
吚
君
吜
吝
吞
吟
吠
吡
吢
吣
吤
吥
否
吧
吨
吩
吪
含
听
吭
吮
启
吰
吱
吲
吳
吴
吵
吶
吷
吸
吹
吺
吻
吼
吽
吾
吿
呀
呁
呂
呃
呄
呅
呆
呇
呈
呉
告
呋
呌
呍
呎
呏
呐
呑
呒
呓
呔
呕
呖
呗
员
呙
呚
呛
呜
呝
呞
呟
呠
呡
呢
呣
呤
呥
呦
呧
周
呩
呪
呫
呬
呭
呮
呯
呰
呱
呲
味
呴
呵
呶
呷
呸
呹
呺
呻
呼
命
呾
呿
咀
咁
咂
咃
咄
咅
咆
咇
咈
咉
咊
咋
和
咍
咎
咏
咐
咑
咒
咓
咔
咕
咖
咗
咘
咙
咚
咛
咜
咝
咞
咟
咠
咡
咢
咣
咤
咥
咦
咧
咨
咩
咪
咫
咬
咭
咮
咯
咰
咱
咲
咳
咴
咵
咶
咷
咸
咹
咺
咻
咼
咽
咾
咿
哀
品
哂
哃
哄
哅
哆
哇
哈
哉
哊
哋
哌
响
哎
哏
哐
哑
哒
哓
哔
哕
哖
哗
哘
哙
哚
哛
哜
哝
哞
哟
哠
員
哢
哣
哤
哥
哦
哧
哨
哩
哪
哫
哬
哭
哮
哯
哰
哱
哲
哳
哴
哵
哶
哷
哸
哹
哺
哻
哼
哽
哾
哿
唀
唁
唂
唃
唄
唅
唆
唇
唈
唉
唊
唋
唌
唍
唎
唏
唐
唑
唒
唓
唔
唕
唖
唗
唘
唙
唚
唛
唜
唝
唞
唟
唠
唡
唢
唣
唤
唥
唦
唧
唨
唩
唪
唫
唬
唭
售
唯
唰
唱
唲
唳
唴
唵
唶
唷
唸
唹
唺
唻
唼
唽
唾
唿
啀
啁
啂
啃
啄
啅
商
啇
啈
啉
啊
啋
啌
啍
啎
問
啐
啑
啒
啓
啔
啕
啖
啗
啘
啙
啚
啛
啜
啝
啞
啟
啠
啡
啢
啣
啤
啥
啦
啧
啨
啩
啪
啫
啬
啭
啮
啯
啰
啱
啲
啳
啴
啵
啶
啷
啸
啹
啺
啻
啼
啽
啾
啿
喀
喁
喂
喃
善
喅
喆
喇
喈
喉
喊
喋
喌
喍
喎
喏
喐
喑
喒
喓
喔
喕
喗
喘
喙
喚
喛
喜
喝
喞
喟
喠
喡
喢
喣
喤
喥
喦
喧
喨
喩
喪
喫
喬
喭
單
喯
喰
喱
喲
喳
喴
喵
営
喷
喸
喹
喺
喻
喼
喽
喾
喿
嗀
嗁
嗂
嗃
嗄
嗅
嗆
嗇
嗈
嗉
嗊
嗋
嗌
嗍
嗎
嗏
嗐
嗑
嗒
嗓
嗔
嗕
嗖
嗗
嗘
嗙
嗚
嗛
嗜
嗝
嗞
嗟
嗠
嗡
嗢
嗣
嗤
嗥
嗦
嗧
嗨
嗩
嗪
嗫
嗬
嗭
嗮
嗯
嗰
嗱
嗲
嗳
嗴
嗵
嗶
嗷
嗸
嗹
嗺
嗻
嗼
嗽
嗾
嗿
嘀
嘁
嘂
嘃
嘄
嘅
嘆
嘇
嘈
嘉
嘊
嘋
嘌
嘍
嘎
嘏
嘐
嘑
嘒
嘓
嘔
嘕
嘖
嘗
嘘
嘙
嘚
嘛
嘜
嘝
嘞
嘟
嘠
嘡
嘢
嘣
嘤
嘥
嘦
嘧
嘨
嘩
嘪
嘫
嘬
嘭
嘮
嘯
嘰
嘱
嘲
嘳
嘴
嘵
嘶
嘷
嘸
嘹
嘻
嘼
嘽
嘿
噀
噁
噂
噃
噄
噅
噆
噇
噈
噉
噊
噋
噌
噍
噎
噏
噐
噑
噒
噓
噔
噕
噖
噗
噘
噙
噚
噛
噜
噝
噞
噟
噠
噢
噣
噤
噥
噦
噧
器
噩
噪
噫
噬
噭
噮
噯
噰
噱
噲
噳
噴
噵
噶
噷
噸
噹
噺
噻
噼
噽
噾
噿
嚀
嚁
嚂
嚃
嚄
嚅
嚆
嚇
嚈
嚉
嚊
嚋
嚌
嚍
嚎
嚏
嚐
嚑
嚒
嚓
嚔
嚕
嚖
嚗
嚘
嚙
嚚
嚛
嚜
嚞
嚟
嚠
嚡
嚢
嚣
嚤
嚥
嚦
嚧
嚨
嚩
嚪
嚫
嚬
嚭
嚮
嚯
嚰
嚱
嚲
嚳
嚴
嚵
嚶
嚷
嚸
嚹
嚺
嚻
嚼
嚾
嚿
囀
囁
囂
囃
囄
囅
囆
囇
囈
囉
囊
囋
囌
囍
囎
囏
囐
囑
囒
囓
囔
囕
囖
囗
囘
囙
囚
四
囜
囝
回
囟
因
囡
团
団
囤
囥
囦
囧
囨
囩
囪
囫
囬
园
囮
囯
困
囱
囲
図
围
囵
囶
囷
囸
囹
固
囻
囼
国
图
囿
圀
圁
圂
圃
圄
圅
圆
圇
圈
圉
圊
國
圌
圍
圎
圏
圐
圑
園
圓
圔
圕
圖
圗
團
圙
圚
圛
圜
圝
圞
土
圠
圡
圢
圣
圤
圥
圦
圧
在
圩
圪
圫
圬
圭
圮
圯
地
圱
圲
圳
圴
圵
圶
圷
圸
圹
场
圻
圼
圽
圾
圿
址
坁
坂
坃
坄
坅
坆
均
坈
坉
坊
坋
坌
坍
坎
坏
坐
坑
坒
坓
坔
坕
坖
块
坘
坙
坚
坛
坜
坝
坞
坟
坠
坡
坢
坣
坤
坥
坦
坧
坨
坩
坪
坫
坬
坭
坮
坯
坰
坱
坲
坳
坴
坵
坶
坷
坸
坹
坺
坻
坼
坽
坿
垀
垁
垂
垃
垄
垅
垆
垇
垈
垉
垊
型
垌
垍
垎
垏
垐
垑
垒
垓
垔
垕
垖
垗
垘
垙
垚
垛
垜
垝
垞
垟
垠
垡
垢
垣
垤
垥
垦
垧
垨
垩
垪
垫
垬
垭
垮
垯
垰
垱
垲
垳
垴
垵
垶
垷
垸
垹
垺
垻
垽
垾
垿
埀
埁
埂
埃
埄
埅
埆
埇
埈
埉
埊
埋
埌
埍
城
埏
埐
埑
埒
埓
埔
埕
埖
埗
埘
埙
埚
埛
埜
埝
埞
域
埠
埡
埢
埣
埤
埥
埦
埧
埨
埩
埪
埫
埭
埮
埯
埰
埱
埲
埳
埴
埵
埶
執
埸
培
基
埻
埼
埽
埾
埿
堀
堁
堂
堃
堄
堅
堆
堇
堈
堉
堊
堋
堌
堍
堎
堐
堑
堒
堓
堔
堕
堖
堗
堘
堙
堚
堛
堜
堝
堞
堟
堠
堡
堢
堣
堤
堥
堦
堧
堨
堩
堪
堫
堬
堭
堮
堯
堰
報
堲
堳
場
堵
堶
堷
堸
堹
堺
堻
堼
堽
堾
堿
塀
塁
塂
塃
塄
塅
塆
塇
塈
塉
塊
塋
塌
塍
塎
塏
塐
塑
塒
塓
塔
塕
塖
塗
塘
塙
塚
塛
塜
塝
塞
塟
塠
塡
塢
塣
塤
塥
塦
塨
塩
塪
填
塬
塭
塮
塯
塰
塱
塲
塳
塴
塵
塶
塷
塸
塹
塺
塻
塼
塽
塾
塿
墀
墁
墂
境
墄
墅
墆
墇
墈
墉
墊
墋
墌
墍
墎
墏
墐
墑
墒
墓
墔
墕
墖
増
墘
墙
墚
墛
墜
墝
增
墟
墠
墡
墢
墣
墤
墥
墦
墧
墨
墩
墪
墫
墬
墭
墮
墯
墰
墱
墳
墴
墵
墶
墷
墸
墹
墺
墻
墼
墽
墾
墿
壀
壁
壂
壃
壄
壅
壆
壇
壈
壉
壊
壋
壌
壍
壎
壏
壐
壑
壒
壓
壔
壕
壖
壘
壙
壚
壛
壜
壝
壞
壟
壠
壡
壢
壤
壦
壧
壨
壩
壪
士
壬
壭
壮
壯
声
壱
売
壳
壴
壵
壶
壷
壸
壹
壺
壻
壼
壽
壾
壿
夀
夁
夂
夃
处
夅
夆
备
夈
変
夊
夋
夌
复
夎
夏
夐
夑
夒
夓
夔
夕
外
夗
夘
夙
多
夛
夜
夝
夞
够
夠
夡
夢
夣
夤
夥
夦
大
夨
天
太
夫
夬
夭
央
夯
夰
失
夲
头
夶
夷
夸
夹
夺
夻
夼
夽
夾
夿
奀
奁
奂
奃
奄
奅
奆
奇
奈
奉
奊
奋
奌
奍
奎
奏
奐
契
奒
奓
奔
奕
奖
套
奘
奙
奚
奛
奜
奝
奞
奟
奠
奡
奢
奣
奤
奥
奦
奧
奨
奩
奪
奫
奬
奭
奮
奯
奰
奱
奲
女
奴
奵
奶
奷
奸
她
奺
奻
奼
好
奾
奿
妀
妁
如
妃
妄
妅
妆
妇
妈
妉
妊
妋
妌
妍
妎
妏
妐
妑
妒
妓
妔
妕
妖
妗
妘
妙
妚
妛
妜
妝
妞
妟
妠
妡
妢
妣
妤
妥
妦
妧
妨
妩
妪
妫
妬
妭
妮
妯
妰
妱
妲
妳
妵
妶
妷
妸
妹
妺
妻
妼
妽
妾
妿
姀
姁
姂
姃
姄
姅
姆
姇
姈
姉
姊
始
姌
姍
姎
姏
姐
姑
姒
姓
委
姕
姖
姗
姘
姙
姚
姛
姜
姝
姞
姟
姠
姡
姢
姣
姤
姥
姦
姧
姨
姩
姪
姫
姬
姭
姮
姯
姰
姱
姲
姳
姴
姵
姶
姷
姸
姹
姺
姻
姼
姽
姾
姿
娀
威
娂
娃
娄
娅
娆
娇
娈
娉
娊
娋
娌
娍
娎
娏
娐
娑
娒
娓
娔
娕
娖
娗
娘
娙
娚
娛
娜
娝
娞
娟
娠
娡
娢
娣
娤
娥
娦
娧
娨
娩
娪
娫
娬
娭
娮
娯
娰
娱
娲
娳
娴
娵
娶
娷
娸
娹
娺
娻
娼
娽
娾
娿
婀
婁
婂
婃
婄
婅
婆
婇
婈
婉
婊
婋
婌
婍
婎
婏
婐
婑
婒
婓
婔
婕
婖
婗
婘
婙
婚
婛
婜
婝
婞
婟
婠
婢
婣
婤
婥
婦
婧
婨
婩
婪
婫
婬
婭
婮
婯
婰
婱
婲
婳
婴
婵
婶
婷
婸
婹
婺
婻
婼
婽
婾
婿
媀
媁
媂
媃
媄
媅
媆
媉
媊
媋
媌
媍
媎
媏
媐
媑
媒
媓
媔
媕
媖
媗
媘
媙
媚
媛
媜
媝
媞
媟
媠
媡
媢
媣
媤
媥
媦
媧
媨
媩
媪
媫
媬
媭
媮
媯
媱
媲
媳
媴
媵
媶
媷
媸
媹
媺
媻
媼
媽
媾
媿
嫀
嫁
嫂
嫃
嫄
嫆
嫇
嫈
嫉
嫊
嫋
嫌
嫍
嫎
嫏
嫐
嫑
嫒
嫓
嫔
嫕
嫖
嫗
嫘
嫙
嫚
嫛
嫜
嫝
嫞
嫟
嫠
嫡
嫢
嫣
嫤
嫥
嫦
嫧
嫨
嫩
嫪
嫫
嫬
嫭
嫮
嫰
嫱
嫲
嫳
嫵
嫶
嫷
嫸
嫹
嫺
嫻
嫼
嫽
嫾
嫿
嬀
嬁
嬂
嬃
嬄
嬅
嬆
嬇
嬈
嬉
嬊
嬋
嬌
嬍
嬎
嬏
嬐
嬑
嬒
嬓
嬔
嬕
嬖
嬗
嬘
嬙
嬚
嬛
嬜
嬝
嬞
嬟
嬡
嬢
嬤
嬥
嬦
嬧
嬨
嬩
嬪
嬫
嬬
嬭
嬮
嬯
嬰
嬱
嬲
嬳
嬴
嬶
嬷
嬸
嬹
嬺
嬻
嬼
嬽
嬾
嬿
孀
孁
孂
孃
孄
孅
孆
孇
孈
孉
孊
孋
孌
孍
孎
孏
子
孑
孒
孓
孔
孕
孖
字
存
孙
孚
孛
孜
孝
孞
孟
孠
孢
季
孤
孥
学
孧
孨
孩
孪
孫
孬
孭
孮
孯
孰
孱
孲
孳
孴
孵
孶
孷
學
孹
孺
孻
孼
孽
孿
宀
宁
宂
它
宄
宅
宆
宇
守
安
宊
宋
完
宍
宎
宏
宐
宑
宒
宓
宔
宕
宖
宗
官
宙
定
宛
宜
宝
实
実
宠
审
客
宣
室
宥
宦
宧
宨
宩
宪
宫
宬
宭
宮
宰
宱
宲
害
宴
宵
家
宷
宸
容
宺
宻
宼
宽
宾
宿
寀
寁
寂
寃
寄
寅
密
寇
寈
寉
寊
寋
富
寍
寎
寏
寐
寑
寒
寓
寔
寕
寖
寗
寘
寙
寚
寛
寜
寝
寞
察
寠
寡
寢
寣
寤
寥
實
寧
寨
審
寪
寫
寬
寭
寮
寯
寰
寱
寲
寳
寴
寵
寶
寷
寸
对
寺
寻
导
寽
対
寿
尀
封
専
尃
射
尅
将
將
專
尉
尊
尋
尌
對
導
小
尐
少
尒
尓
尔
尕
尖
尗
尘
尙
尚
尛
尜
尝
尞
尟
尠
尡
尢
尣
尤
尥
尦
尧
尨
尩
尪
尫
尬
尭
尮
尯
尰
就
尲
尳
尴
尵
尶
尷
尸
尹
尺
尻
尼
尽
尾
尿
局
屁
层
屃
屄
居
屆
屇
屈
屉
届
屋
屌
屍
屎
屏
屐
屑
屒
屓
屔
展
屗
屘
屙
屚
屛
屜
屝
属
屟
屠
屡
屢
屣
層
履
屦
屧
屨
屩
屪
屬
屭
屮
屯
屰
山
屲
屳
屴
屵
屶
屷
屸
屹
屺
屻
屼
屽
屾
屿
岀
岁
岂
岃
岄
岅
岆
岇
岈
岉
岊
岋
岌
岍
岎
岏
岐
岑
岒
岓
岔
岕
岖
岗
岘
岙
岚
岛
岜
岝
岞
岟
岠
岡
岢
岣
岤
岥
岦
岧
岨
岩
岪
岫
岬
岭
岮
岯
岰
岱
岲
岳
岴
岵
岶
岷
岸
岹
岺
岻
岼
岽
岾
岿
峀
峁
峂
峃
峄
峅
峆
峇
峈
峉
峊
峋
峌
峍
峎
峏
峐
峑
峒
峓
峔
峕
峖
峗
峘
峙
峚
峛
峜
峝
峞
峟
峠
峡
峣
峤
峥
峦
峧
峨
峩
峪
峫
峬
峭
峮
峯
峰
峱
峲
峳
峴
峵
島
峷
峸
峹
峺
峻
峼
峽
峿
崀
崁
崂
崃
崄
崆
崇
崈
崉
崊
崋
崌
崍
崎
崏
崐
崑
崒
崓
崔
崕
崖
崗
崘
崙
崚
崛
崜
崝
崞
崟
崠
崡
崢
崤
崥
崦
崧
崨
崩
崪
崫
崬
崭
崮
崯
崰
崱
崲
崳
崴
崵
崶
崷
崸
崺
崻
崼
崽
崾
崿
嵀
嵁
嵂
嵃
嵄
嵅
嵆
嵇
嵈
嵉
嵊
嵋
嵌
嵍
嵎
嵏
嵐
嵑
嵒
嵓
嵔
嵕
嵖
嵗
嵘
嵙
嵚
嵛
嵜
嵝
嵞
嵟
嵠
嵡
嵢
嵣
嵤
嵥
嵦
嵧
嵨
嵩
嵪
嵫
嵬
嵭
嵮
嵯
嵰
嵱
嵲
嵴
嵵
嵶
嵷
嵸
嵹
嵺
嵻
嵼
嵽
嵾
嵿
嶀
嶁
嶂
嶃
嶄
嶅
嶆
嶇
嶈
嶉
嶊
嶋
嶌
嶍
嶎
嶏
嶐
嶑
嶒
嶓
嶔
嶕
嶖
嶗
嶙
嶚
嶛
嶜
嶝
嶞
嶟
嶠
嶡
嶢
嶣
嶤
嶥
嶦
嶧
嶨
嶩
嶪
嶫
嶬
嶭
嶮
嶯
嶰
嶱
嶲
嶴
嶵
嶶
嶷
嶸
嶹
嶺
嶻
嶼
嶽
嶾
巀
巁
巂
巃
巄
巅
巆
巇
巈
巉
巋
巌
巍
巎
巏
巐
巑
巒
巓
巔
巕
巖
巗
巘
巙
巚
巛
巜
川
州
巟
巠
巡
巢
巣
巤
工
左
巧
巨
巩
巪
巫
巬
巭
差
巯
巰
己
已
巳
巴
巵
巶
巷
巸
巹
巺
巻
巼
巽
巾
巿
帀
币
市
布
帄
帅
帆
帇
师
帉
帊
帋
希
帍
帎
帏
帐
帑
帒
帓
帔
帕
帖
帗
帘
帙
帚
帛
帜
帝
帞
帟
帠
帡
帢
帣
帤
帥
带
帧
帨
帩
帪
師
帬
席
帮
帯
帰
帱
帲
帳
帴
帵
帶
帷
常
帹
帺
帻
帼
帽
帾
帿
幀
幁
幂
幃
幄
幅
幆
幇
幈
幉
幊
幋
幌
幍
幎
幏
幐
幑
幒
幔
幕
幖
幗
幘
幙
幚
幛
幜
幝
幞
幟
幠
幡
幢
幣
幤
幥
幦
幧
幨
幩
幪
幫
幬
幭
幮
幯
幰
幱
干
平
年
幵
并
幷
幸
幹
幺
幻
幼
幽
幾
广
庀
庁
庂
広
庄
庅
庆
庇
庈
庉
床
庋
庌
庍
庎
序
庐
庑
庒
库
应
底
庖
店
庘
庙
庚
庛
府
庝
庞
废
庠
庡
庢
庣
庤
庥
度
座
庨
庩
庪
庫
庬
庭
庮
庯
庰
庱
庲
庳
庴
庵
庶
康
庸
庹
庺
庻
庼
庽
庾
庿
廀
廁
廂
廃
廄
廅
廆
廇
廈
廉
廊
廋
廌
廍
廎
廏
廐
廑
廒
廓
廔
廕
廖
廗
廘
廙
廚
廛
廜
廝
廞
廟
廠
廡
廢
廣
廤
廥
廦
廧
廨
廩
廪
廫
廬
廭
廮
廯
廰
廱
廲
廳
廴
廵
延
廷
廸
廹
建
廻
廼
廽
廾
廿
开
弁
异
弃
弄
弅
弆
弇
弈
弉
弊
弋
弌
弍
弎
式
弐
弑
弒
弓
弔
引
弖
弗
弘
弙
弚
弛
弜
弝
弞
弟
张
弡
弢
弣
弤
弥
弦
弧
弨
弩
弪
弫
弬
弭
弮
弯
弰
弱
弲
弳
弴
張
弶
強
弸
弹
强
弻
弼
弽
弾
弿
彀
彁
彂
彃
彄
彅
彆
彇
彈
彉
彊
彋
彌
彍
彎
彏
彐
彑
归
当
彔
录
彖
彗
彘
彙
彚
彛
彜
彝
彞
彟
彠
彡
形
彣
彤
彥
彦
彧
彨
彩
彪
彫
彬
彭
彮
彯
彰
影
彲
彳
彴
彵
彶
彷
彸
役
彺
彻
彼
彽
彾
彿
往
征
徂
徃
径
待
徆
徇
很
徉
徊
律
後
徍
徎
徏
徐
徑
徒
従
徔
徕
徖
得
徘
徙
徚
徛
徜
徝
從
徟
徠
御
徢
徣
徤
徥
徦
徧
徨
復
循
徫
徬
徭
微
徯
徰
徱
徲
徳
徴
徵
徶
德
徸
徹
徺
徻
徼
徽
徾
忀
忁
忂
心
忄
必
忆
忇
忈
忉
忊
忋
忌
忍
忎
忏
忐
忑
忒
忓
忔
忕
忖
志
忘
忙
忚
忛
応
忝
忞
忟
忠
忡
忢
忣
忤
忥
忦
忧
忨
忩
忪
快
忬
忭
忮
忯
忰
忱
忲
忳
忴
念
忶
忷
忸
忹
忺
忻
忼
忽
忾
忿
怀
态
怂
怃
怄
怅
怆
怇
怈
怉
怊
怋
怌
怍
怎
怏
怐
怑
怒
怓
怔
怕
怖
怗
怘
怙
怚
怛
怜
思
怞
怟
怠
怡
怢
怣
怤
急
怦
性
怨
怩
怪
怫
怬
怭
怮
怯
怰
怱
怲
怳
怴
怵
怶
怷
怸
怹
怺
总
怼
怽
怾
怿
恀
恁
恂
恃
恄
恅
恆
恇
恈
恉
恊
恋
恌
恍
恏
恐
恑
恒
恓
恔
恕
恖
恗
恘
恙
恚
恛
恜
恝
恞
恟
恠
恡
恢
恣
恤
恥
恦
恧
恨
恩
恪
恫
恬
恭
恮
息
恰
恱
恲
恳
恴
恵
恶
恷
恸
恹
恺
恻
恼
恽
恾
恿
悀
悁
悂
悃
悄
悅
悆
悇
悈
悉
悊
悋
悌
悍
悎
悏
悐
悑
悒
悓
悔
悕
悖
悗
悘
悙
悚
悛
悜
悝
悞
悟
悠
悡
悢
患
悤
悥
悦
悧
您
悩
悪
悫
悬
悭
悮
悯
悰
悱
悲
悳
悴
悵
悶
悷
悸
悹
悺
悻
悼
悽
悾
悿
惀
惁
惂
惃
惄
情
惆
惇
惈
惉
惊
惋
惌
惍
惎
惏
惐
惑
惒
惓
惔
惕
惖
惗
惘
惙
惚
惛
惜
惝
惞
惟
惠
惡
惢
惣
惤
惥
惦
惧
惨
惩
惪
惫
惬
惭
惮
惯
惰
惱
惲
想
惴
惵
惶
惷
惸
惹
惺
惻
惼
惽
惾
惿
愀
愁
愂
愃
愄
愅
愆
愇
愈
愉
愊
愋
愌
愍
愎
意
愐
愑
愒
愓
愔
愕
愖
愗
愘
愙
愚
愛
愜
愝
愞
感
愠
愡
愢
愣
愤
愥
愦
愧
愨
愩
愪
愫
愬
愭
愮
愯
愰
愱
愲
愳
愴
愵
愶
愷
愸
愹
愺
愻
愼
愽
愾
愿
慀
慁
慂
慃
慄
慅
慆
慇
慈
慉
慊
態
慌
慍
慎
慏
慐
慑
慒
慓
慔
慕
慖
慗
慘
慙
慚
慛
慜
慝
慞
慟
慠
慡
慢
慣
慤
慥
慦
慧
慨
慩
慪
慫
慬
慭
慮
慯
慰
慱
慲
慳
慴
慵
慶
慷
慸
慹
慺
慻
慼
慽
慾
慿
憀
憁
憂
憃
憅
憆
憇
憈
憉
憊
憋
憌
憍
憎
憏
憐
憑
憒
憓
憔
憕
憖
憗
憘
憙
憚
憛
憜
憝
憞
憟
憠
憡
憣
憤
憥
憦
憧
憨
憩
憪
憫
憬
憭
憮
憯
憰
憱
憲
憳
憴
憵
憶
憷
憸
憹
憺
憻
憼
憽
憾
憿
懀
懁
懂
懃
懅
懆
懇
懈
應
懊
懋
懌
懍
懎
懏
懐
懑
懒
懓
懔
懕
懖
懗
懘
懙
懚
懛
懜
懝
懞
懟
懠
懡
懢
懣
懤
懥
懦
懧
懨
懩
懪
懫
懬
懭
懮
懯
懰
懲
懳
懴
懵
懶
懷
懸
懹
懺
懻
懼
懽
懾
懿
戀
戁
戂
戃
戄
戅
戆
戇
戈
戉
戊
戋
戌
戍
戎
戏
成
我
戒
戓
戔
戕
或
戗
战
戙
戚
戛
戜
戝
戞
戟
戠
戡
戢
戣
戤
戥
戦
戧
戨
戩
截
戫
戬
戭
戮
戯
戰
戱
戲
戳
戴
戵
戶
户
戸
戹
戺
戻
戼
戽
戾
房
所
扁
扂
扃
扄
扅
扆
扇
扈
扉
扊
手
扌
才
扎
扏
扐
扑
扒
打
扔
払
扖
扗
托
扙
扚
扛
扜
扝
扞
扟
扠
扡
扢
扣
扤
扥
扦
执
扨
扩
扪
扫
扬
扭
扮
扯
扰
扱
扲
扳
扴
扵
扶
扷
扸
批
扺
扻
扼
扽
找
承
技
抁
抂
抃
抄
抅
抆
抇
抈
抉
把
抋
抌
抍
抎
抏
抐
抑
抒
抓
抔
投
抖
抗
折
抙
抚
抛
抜
抝
択
抟
抠
抡
抢
抣
护
报
抦
抧
抨
抩
抪
披
抬
抭
抮
抯
抰
抱
抲
抳
抴
抵
抶
抷
抸
抹
抺
抻
押
抽
抾
抿
拀
拁
拂
拃
拄
担
拆
拇
拈
拉
拊
拋
拌
拍
拎
拏
拐
拑
拒
拓
拔
拕
拖
拗
拘
拙
拚
招
拜
拝
拞
拟
拠
拡
拢
拣
拤
拥
拦
拧
拨
择
拪
拫
括
拭
拮
拯
拰
拱
拲
拳
拴
拵
拶
拷
拸
拹
拺
拻
拼
拽
拾
拿
挀
持
挂
挃
挄
挅
挆
指
挈
按
挊
挋
挌
挍
挎
挏
挐
挑
挒
挓
挔
挕
挖
挗
挘
挙
挚
挛
挜
挝
挞
挟
挠
挡
挢
挣
挤
挥
挦
挧
挨
挩
挪
挫
挬
挭
挮
振
挰
挱
挲
挳
挴
挵
挶
挷
挸
挹
挺
挻
挼
挽
挾
挿
捀
捁
捂
捃
捄
捅
捆
捇
捈
捉
捊
捋
捌
捍
捎
捏
捐
捑
捒
捓
捔
捕
捖
捗
捘
捙
捚
捛
捜
捝
捞
损
捡
换
捣
捤
捥
捦
捧
捨
捩
捪
捫
捭
据
捯
捰
捱
捲
捳
捴
捵
捶
捷
捸
捹
捺
捻
捼
捽
捾
捿
掀
掁
掂
掃
掄
掅
掆
掇
授
掉
掊
掋
掌
掍
掎
掏
掐
掑
排
掓
掔
掕
掖
掗
掘
掙
掛
掜
掝
掞
掟
掠
採
探
掣
掤
接
掦
控
推
掩
措
掫
掬
掭
掮
掯
掰
掱
掲
掳
掴
掵
掷
掸
掹
掺
掻
掼
掽
掾
掿
揀
揁
揂
揃
揄
揅
揆
揇
揈
揉
揊
揌
揍
揎
描
提
揑
插
揓
揔
揕
揖
揗
揘
揙
揚
換
揜
揝
揞
揟
揠
握
揢
揣
揤
揥
揦
揧
揨
揩
揪
揫
揬
揭
揮
揰
揱
揲
揳
援
揵
揶
揷
揸
揹
揺
揻
揼
揽
揾
揿
搀
搁
搂
搃
搄
搅
搆
搇
搈
搉
搊
搋
搌
損
搎
搏
搐
搑
搒
搓
搔
搕
搖
搗
搘
搙
搚
搛
搜
搞
搟
搠
搡
搢
搣
搤
搥
搦
搧
搨
搩
搪
搫
搬
搭
搮
搯
搰
搱
搲
搳
搴
搵
搶
搷
搸
搹
携
搻
搼
搽
搾
搿
摀
摁
摂
摃
摄
摅
摆
摇
摈
摉
摊
摋
摌
摍
摎
摏
摐
摑
摒
摓
摔
摕
摖
摗
摘
摙
摚
摛
摜
摝
摞
摟
摠
摡
摢
摣
摤
摥
摦
摧
摨
摩
摪
摫
摬
摭
摮
摯
摰
摱
摲
摳
摴
摵
摶
摷
摸
摹
摺
摻
摼
摽
摾
摿
撀
撁
撂
撃
撄
撅
撆
撇
撈
撉
撋
撌
撍
撎
撏
撐
撑
撒
撓
撔
撕
撖
撗
撘
撙
撚
撛
撜
撝
撞
撟
撠
撡
撢
撣
撤
撥
撦
撧
撨
撩
撪
撫
撬
播
撮
撯
撰
撱
撲
撳
撴
撵
撶
撷
撸
撹
撺
撻
撼
撽
撾
撿
擀
擁
擂
擃
擄
擅
擆
擇
擈
擉
擊
擋
擌
操
擎
擏
擐
擑
擒
擓
擔
擕
擖
擗
擘
擙
據
擛
擜
擝
擞
擠
擡
擢
擣
擤
擥
擦
擧
擨
擩
擪
擫
擬
擭
擮
擯
擰
擱
擲
擳
擴
擵
擶
擷
擸
擹
擺
擻
擼
擽
擾
擿
攀
攂
攃
攄
攅
攆
攈
攉
攊
攋
攌
攍
攏
攐
攑
攒
攓
攔
攕
攖
攗
攘
攙
攚
攛
攜
攝
攞
攟
攠
攡
攢
攣
攤
攥
攦
攧
攨
攩
攪
攫
攬
攭
攮
支
攰
攱
攲
攴
攵
收
攷
攸
改
攺
攻
攼
攽
放
政
敀
敁
敂
敃
敄
故
敆
敇
效
敉
敊
敋
敌
敍
敎
敏
敐
救
敒
敓
敔
敕
敖
敗
敘
教
敚
敛
敜
敝
敞
敟
敠
敡
敢
散
敤
敥
敦
敧
敨
敩
敪
敫
敬
敭
敮
敯
数
敱
敲
敳
整
敵
敶
敷
數
敹
敺
敻
敼
敽
敾
敿
斀
斁
斂
斃
斄
斅
斆
文
斈
斉
斊
斋
斌
斍
斎
斏
斐
斑
斒
斓
斔
斕
斖
斗
斘
料
斚
斛
斜
斝
斟
斠
斡
斢
斣
斤
斥
斦
斧
斨
斩
斪
斫
斬
断
斮
斯
新
斱
斲
斳
斴
斵
斶
斷
斸
方
斺
斻
於
施
斾
斿
旀
旁
旂
旃
旄
旅
旆
旇
旈
旉
旊
旋
旌
旍
旎
族
旐
旑
旒
旓
旔
旕
旖
旗
旘
旙
旚
旛
旜
旝
旞
旟
无
旡
既
旣
旤
日
旦
旧
旨
早
旪
旫
旬
旭
旮
旯
旰
旱
旲
旳
旴
旵
时
旷
旸
旹
旺
旻
旼
旽
旾
旿
昀
昂
昃
昄
昅
昆
昇
昈
昉
昊
昋
昌
昍
明
昏
昐
昑
昒
易
昔
昕
昖
昗
昘
昙
昚
昛
昜
昝
昞
星
映
昡
昢
昣
昤
春
昦
昧
昨
昩
昪
昫
昬
昭
昮
是
昰
昱
昲
昳
昴
昵
昶
昷
昸
昹
昺
昻
昼
昽
显
昿
晀
晁
時
晃
晄
晅
晆
晇
晈
晉
晊
晋
晌
晍
晎
晏
晐
晑
晒
晓
晔
晕
晖
晗
晘
晙
晚
晛
晜
晝
晞
晟
晠
晡
晢
晣
晤
晥
晦
晧
晨
晩
晪
晫
晬
晭
普
景
晰
晱
晲
晳
晴
晵
晶
晷
晸
晹
智
晻
晼
晽
晾
晿
暀
暁
暂
暃
暄
暅
暆
暇
暈
暉
暊
暋
暌
暍
暎
暏
暐
暑
暒
暓
暔
暕
暖
暗
暘
暙
暚
暛
暜
暝
暞
暟
暠
暡
暢
暣
暤
暥
暦
暧
暨
暩
暪
暫
暬
暭
暮
暯
暰
暱
暲
暳
暴
暵
暶
暷
暸
暹
暺
暻
暼
暽
暾
暿
曀
曁
曂
曃
曄
曅
曆
曇
曈
曉
曋
曌
曍
曎
曏
曐
曑
曒
曓
曔
曕
曖
曗
曘
曙
曚
曛
曜
曝
曞
曟
曠
曡
曢
曣
曤
曥
曦
曧
曨
曩
曪
曫
曬
曭
曮
曯
曰
曱
曲
曳
更
曵
曶
曷
書
曹
曺
曻
曼
曽
曾
替
最
朁
朂
會
朄
朅
朆
朇
月
有
朊
朋
朌
服
朎
朏
朐
朑
朒
朓
朔
朕
朖
朗
朘
朙
朚
望
朜
朝
朞
期
朠
朡
朢
朣
朤
朥
朦
朧
木
朩
未
末
本
札
朮
术
朰
朱
朲
朳
朴
朵
朶
朸
朹
机
朻
朽
朾
朿
杀
杁
杂
权
杄
杅
杆
杇
杈
杉
杊
杋
杌
杍
李
杏
材
村
杒
杓
杔
杕
杖
杗
杘
杙
杛
杜
杝
杞
束
杠
条
杢
杣
杤
来
杦
杧
杨
杩
杪
杫
杬
杭
杮
杯
杰
東
杲
杳
杴
杵
杶
杷
杸
杹
杺
杻
杼
杽
松
板
枀
极
枂
枃
构
枅
枆
枇
枈
枉
枊
枋
枌
枍
枎
枏
析
枑
枒
枓
枔
枕
枖
林
枘
枙
枚
枛
果
枝
枞
枟
枠
枡
枢
枣
枤
枥
枦
枧
枨
枩
枪
枫
枬
枭
枮
枯
枰
枱
枲
枳
枴
枵
架
枷
枸
枹
枺
枻
枼
枽
枾
枿
柀
柁
柂
柃
柄
柅
柆
柇
柈
柉
柊
柋
柌
柍
柎
柏
某
柑
柒
染
柔
柕
柖
柗
柘
柙
柚
柛
柜
柝
柞
柟
柠
柡
柢
柣
柤
查
柦
柧
柨
柩
柪
柫
柬
柭
柮
柯
柰
柱
柲
柳
柴
柵
柶
柷
柸
柹
柺
査
柼
柽
柾
柿
栀
栁
栂
栃
栄
栅
栆
标
栈
栉
栊
栋
栌
栍
栎
栏
栐
树
栒
栓
栔
栕
栖
栗
栘
栙
栛
栜
栝
栞
栟
栠
校
栢
栣
栤
栥
栦
栧
栨
栩
株
栫
栬
栭
栮
栯
栰
栱
栲
栳
栴
栵
栶
样
核
根
栺
栻
格
栽
栾
栿
桀
桁
桂
桃
桄
桅
框
桇
案
桉
桊
桋
桌
桍
桎
桐
桑
桒
桓
桔
桕
桖
桗
桘
桙
桚
桛
桜
桝
桞
桟
桠
桡
桢
档
桤
桥
桦
桧
桨
桩
桪
桫
桬
桭
桮
桯
桰
桱
桲
桳
桴
桵
桶
桷
桸
桹
桻
桼
桽
桾
桿
梀
梁
梂
梃
梄
梅
梆
梇
梈
梉
梊
梋
梌
梍
梎
梏
梐
梑
梒
梓
梔
梕
梖
梗
梘
梙
梚
梛
梜
條
梞
梟
梠
梡
梢
梣
梤
梥
梦
梧
梨
梩
梪
梫
梭
梮
梯
械
梱
梲
梳
梴
梵
梶
梷
梸
梹
梺
梻
梼
梽
梾
梿
检
棁
棂
棃
棄
棅
棆
棇
棈
棉
棊
棋
棌
棍
棎
棏
棐
棑
棒
棓
棔
棕
棖
棗
棘
棙
棚
棛
棜
棝
棞
棟
棠
棡
棢
棣
棤
棥
棦
棧
棨
棩
棪
棫
棬
棭
森
棯
棰
棱
棲
棳
棴
棵
棶
棷
棸
棹
棺
棻
棼
棽
棾
棿
椀
椁
椂
椃
椄
椅
椆
椇
椈
椉
椊
椋
椌
植
椎
椏
椐
椑
椒
椓
椔
椕
椖
椗
椘
椙
椚
椛
検
椝
椞
椟
椠
椡
椢
椣
椤
椥
椦
椧
椨
椩
椪
椫
椬
椭
椮
椯
椰
椱
椲
椳
椴
椵
椶
椷
椸
椹
椺
椻
椼
椽
椾
椿
楀
楁
楂
楃
楄
楅
楆
楇
楈
楉
楊
楋
楌
楍
楎
楏
楐
楑
楒
楓
楔
楕
楖
楗
楘
楙
楚
楛
楜
楝
楞
楟
楠
楡
楢
楣
楤
楥
楦
楧
楨
楩
楪
楫
楬
業
楮
楯
楰
楱
楲
楳
楴
極
楶
楷
楸
楹
楺
楻
楼
楽
楾
楿
榀
榁
概
榃
榄
榅
榆
榇
榈
榉
榊
榋
榌
榍
榎
榏
榐
榑
榒
榓
榔
榕
榖
榗
榘
榙
榚
榛
榜
榝
榞
榟
榠
榡
榢
榣
榤
榥
榦
榧
榨
榩
榪
榫
榬
榭
榮
榯
榰
榱
榲
榳
榴
榵
榶
榷
榸
榹
榺
榻
榼
榽
榾
榿
槀
槁
槂
槃
槄
槅
槆
槇
槈
槉
槊
構
槌
槍
槎
槏
槐
槑
槒
槓
槔
槕
槖
槗
様
槙
槚
槛
槜
槝
槞
槟
槠
槡
槢
槣
槤
槥
槦
槧
槨
槩
槪
槫
槬
槭
槮
槯
槰
槱
槲
槳
槴
槵
槶
槷
槸
槹
槺
槻
槼
槽
槾
槿
樀
樁
樂
樃
樄
樅
樆
樇
樈
樉
樊
樋
樌
樍
樎
樏
樐
樑
樒
樓
樔
樕
樖
樗
樘
標
樚
樛
樜
樝
樞
樟
樠
模
樢
樣
樤
樥
樦
樧
樨
権
横
樫
樬
樭
樮
樯
樰
樱
樲
樴
樵
樶
樷
樸
樹
樺
樻
樼
樽
樾
樿
橀
橁
橂
橃
橄
橅
橆
橇
橈
橉
橋
橌
橍
橎
橏
橐
橑
橒
橓
橔
橕
橖
橗
橘
橙
橚
橛
橜
橝
橞
機
橠
橡
橢
橣
橤
橥
橦
橧
橨
橩
橪
橫
橬
橭
橮
橰
橱
橲
橳
橴
橵
橶
橷
橸
橹
橺
橻
橼
橽
橾
橿
檀
檁
檂
檃
檄
檅
檆
檇
檈
檉
檊
檋
檌
檍
檎
檏
檐
檑
檒
檓
檔
檕
檖
檗
檘
檙
檚
檛
檜
檝
檞
檟
檠
檡
檢
檣
檤
檥
檦
檧
檨
檩
檪
檫
檬
檮
檯
檰
檱
檲
檳
檴
檵
檶
檷
檸
檹
檺
檻
檼
檽
檾
檿
櫀
櫁
櫂
櫃
櫄
櫆
櫇
櫈
櫉
櫊
櫋
櫌
櫍
櫎
櫏
櫐
櫑
櫒
櫓
櫔
櫕
櫖
櫗
櫘
櫙
櫚
櫛
櫜
櫝
櫞
櫟
櫡
櫢
櫣
櫤
櫥
櫦
櫧
櫨
櫪
櫫
櫬
櫮
櫯
櫰
櫱
櫲
櫳
櫴
櫵
櫶
櫷
櫸
櫹
櫺
櫻
櫼
櫽
櫾
櫿
欀
欁
欂
欃
欄
欅
欆
欇
欈
欉
權
欋
欌
欎
欏
欐
欑
欒
欓
欔
欖
欗
欘
欙
欚
欛
欜
欝
欞
欟
欠
次
欢
欣
欤
欥
欦
欧
欨
欩
欪
欫
欬
欭
欮
欯
欰
欱
欲
欳
欴
欵
欶
欷
欸
欹
欺
欻
欼
欽
款
欿
歀
歁
歂
歃
歄
歅
歆
歇
歈
歉
歊
歋
歌
歍
歎
歏
歐
歑
歒
歓
歔
歕
歖
歗
歘
歙
歚
歛
歜
歞
歟
歠
歡
止
正
此
步
武
歧
歨
歩
歪
歫
歬
歭
歮
歯
歰
歱
歲
歳
歴
歵
歶
歷
歸
歹
歺
死
歼
歽
歾
歿
殀
殁
殂
殃
殄
殅
殆
殇
殈
殉
殊
残
殍
殎
殏
殐
殑
殒
殓
殔
殕
殖
殗
殘
殙
殚
殛
殜
殝
殞
殟
殠
殡
殢
殣
殤
殥
殦
殧
殨
殩
殪
殫
殬
殭
殮
殯
殰
殱
殲
殳
殴
段
殶
殷
殸
殹
殺
殻
殼
殽
殾
殿
毀
毁
毂
毃
毄
毅
毆
毇
毈
毉
毊
毋
毌
母
毎
每
毐
毑
毒
毓
比
毕
毖
毗
毘
毙
毚
毛
毜
毝
毞
毟
毠
毡
毢
毣
毤
毥
毦
毧
毨
毩
毪
毫
毬
毭
毮
毯
毰
毱
毲
毳
毴
毵
毶
毷
毸
毹
毺
毻
毼
毽
毾
毿
氀
氁
氂
氃
氄
氅
氆
氇
氈
氉
氊
氋
氌
氍
氎
氏
氐
民
氒
氓
气
氕
氖
気
氘
氙
氚
氛
氜
氝
氞
氟
氠
氡
氢
氣
氤
氥
氦
氧
氨
氩
氪
氫
氬
氮
氯
氰
氱
氲
氳
水
氵
氶
氷
永
氹
氺
氻
氼
氽
氾
氿
汀
汁
求
汃
汄
汅
汆
汇
汈
汉
汊
汋
汌
汍
汎
汏
汐
汑
汒
汓
汔
汕
汖
汗
汘
汙
汚
汛
汜
汝
汞
江
池
污
汢
汣
汤
汥
汦
汧
汨
汩
汪
汫
汬
汭
汮
汯
汰
汱
汲
汳
汴
汵
汶
汷
汸
汹
決
汻
汼
汽
汾
沀
沁
沂
沃
沄
沅
沆
沇
沈
沉
沊
沋
沌
沍
沎
沏
沐
沑
沒
沓
沔
沕
沖
沗
沘
沙
沚
沛
沜
沝
沞
沟
沠
没
沢
沣
沤
沥
沦
沧
沨
沩
沪
沫
沬
沭
沮
沯
沰
沱
沲
河
沴
沵
沶
沷
沸
油
沺
治
沼
沽
沾
沿
況
泂
泃
泄
泅
泆
泇
泈
泉
泊
泋
泌
泍
泎
泏
泐
泑
泒
泓
泔
法
泖
泗
泘
泙
泚
泛
泜
泝
泞
泟
泠
泡
波
泣
泤
泥
泦
泧
注
泩
泪
泫
泬
泭
泮
泯
泰
泱
泲
泳
泴
泵
泶
泷
泸
泹
泺
泻
泼
泽
泾
泿
洀
洁
洂
洃
洄
洅
洆
洇
洈
洉
洊
洋
洌
洍
洎
洏
洐
洑
洒
洓
洔
洕
洖
洗
洘
洙
洚
洛
洜
洝
洞
洟
洠
洡
洢
洣
洤
津
洦
洧
洨
洩
洪
洫
洬
洭
洮
洯
洰
洱
洲
洳
洴
洵
洶
洷
洸
洹
洺
活
洼
洽
派
洿
浀
流
浂
浃
浄
浅
浆
浇
浈
浉
浊
测
浌
浍
济
浏
浐
浑
浒
浓
浔
浕
浖
浗
浘
浙
浚
浛
浜
浞
浟
浠
浡
浢
浣
浤
浥
浦
浧
浩
浪
浫
浬
浭
浮
浯
浰
浱
浲
浳
浴
浵
浶
海
浸
浹
浺
浻
浼
浽
浾
浿
涀
涁
涂
涃
涄
涅
涆
涇
消
涉
涊
涋
涌
涍
涎
涏
涐
涑
涒
涓
涔
涕
涖
涗
涘
涙
涚
涛
涜
涝
涞
涟
涠
涡
涢
涣
涤
涥
润
涧
涨
涩
涪
涫
涬
涭
涮
涯
涰
涱
液
涳
涴
涵
涶
涷
涸
涹
涺
涻
涼
涽
涾
涿
淀
淁
淂
淃
淄
淅
淆
淇
淈
淉
淊
淋
淌
淍
淎
淏
淐
淑
淒
淓
淔
淕
淖
淗
淘
淙
淚
淛
淜
淝
淞
淟
淠
淡
淢
淤
淥
淦
淧
淨
淩
淪
淫
淬
淭
淮
淯
淰
深
淲
淳
淴
淵
淶
混
淸
淹
淺
添
淼
淽
淾
淿
渀
渁
渂
渃
渄
清
渆
渇
済
渉
渊
渋
渌
渍
渎
渏
渐
渑
渒
渓
渔
渕
渖
渗
渘
渙
渚
減
渜
渝
渞
渟
渠
渡
渢
渣
渤
渥
渦
渧
渨
温
渪
渫
測
渭
渮
港
渰
渱
渲
渳
渴
渵
渶
渷
游
渹
渺
渻
渼
渽
渾
渿
湀
湁
湂
湃
湄
湅
湆
湇
湈
湉
湊
湋
湌
湍
湎
湏
湐
湑
湒
湓
湔
湕
湖
湗
湘
湙
湚
湛
湜
湝
湞
湟
湠
湡
湢
湣
湤
湥
湦
湧
湨
湩
湪
湫
湬
湭
湮
湯
湰
湱
湲
湳
湴
湵
湶
湷
湸
湹
湺
湻
湼
湾
湿
満
溁
溂
溃
溄
溅
溆
溇
溈
溉
溊
溋
溌
溍
溎
溏
源
溑
溒
溓
溔
溕
準
溗
溘
溙
溚
溛
溜
溝
溞
溟
溠
溡
溢
溣
溤
溥
溦
溧
溨
溩
溪
溫
溭
溮
溯
溰
溱
溲
溳
溴
溵
溶
溷
溸
溹
溺
溻
溼
溽
溾
溿
滀
滁
滂
滃
滄
滅
滆
滇
滈
滉
滊
滋
滌
滍
滎
滏
滐
滑
滒
滓
滔
滕
滖
滗
滘
滙
滚
滛
滜
滝
滞
滟
滠
满
滢
滣
滤
滥
滦
滧
滨
滩
滪
滫
滬
滭
滮
滯
滰
滱
滲
滳
滴
滵
滶
滷
滸
滹
滺
滻
滼
滽
滾
滿
漀
漁
漂
漃
漄
漅
漆
漇
漈
漉
漊
漋
漌
漍
漎
漏
漐
漑
漒
漓
演
漕
漖
漘
漙
漚
漛
漝
漞
漟
漠
漡
漢
漣
漤
漥
漦
漧
漨
漩
漪
漫
漬
漭
漮
漯
漰
漱
漲
漳
漴
漵
漶
漷
漸
漹
漺
漻
漼
漽
漾
漿
潀
潁
潂
潃
潄
潅
潆
潇
潈
潉
潊
潋
潌
潍
潎
潏
潐
潑
潒
潓
潔
潕
潖
潗
潘
潙
潚
潛
潜
潝
潞
潟
潠
潡
潢
潣
潤
潥
潦
潧
潨
潩
潪
潫
潬
潭
潮
潯
潰
潱
潲
潴
潵
潶
潷
潸
潹
潺
潻
潼
潽
潾
潿
澀
澁
澂
澃
澄
澅
澆
澇
澈
澉
澊
澋
澌
澍
澎
澏
澐
澑
澒
澓
澔
澕
澖
澗
澘
澙
澚
澛
澜
澝
澞
澟
澠
澡
澢
澣
澤
澥
澦
澧
澨
澩
澪
澫
澬
澭
澮
澯
澰
澱
澲
澳
澴
澵
澶
澷
澸
澹
澺
澻
澼
澽
澾
澿
激
濁
濂
濃
濄
濅
濆
濇
濈
濉
濊
濋
濌
濍
濎
濏
濐
濑
濒
濓
濔
濕
濖
濗
濘
濙
濚
濛
濜
濝
濞
濟
濠
濡
濢
濣
濤
濥
濦
濨
濩
濪
濫
濬
濭
濮
濯
濰
濱
濲
濳
濴
濵
濶
濸
濹
濺
濻
濼
濽
濾
濿
瀀
瀁
瀂
瀃
瀄
瀅
瀆
瀇
瀈
瀉
瀊
瀋
瀌
瀍
瀎
瀏
瀐
瀑
瀒
瀓
瀔
瀕
瀖
瀗
瀘
瀙
瀚
瀛
瀜
瀝
瀞
瀟
瀠
瀡
瀢
瀣
瀤
瀥
瀦
瀧
瀨
瀪
瀫
瀬
瀭
瀮
瀯
瀰
瀱
瀲
瀳
瀴
瀵
瀶
瀷
瀸
瀹
瀺
瀻
瀼
瀽
瀾
瀿
灀
灁
灂
灃
灄
灅
灆
灇
灈
灉
灊
灋
灌
灎
灏
灐
灑
灒
灓
灔
灕
灖
灘
灙
灚
灛
灜
灝
灞
灟
灠
灡
灢
灣
灤
灥
灦
灧
灨
灩
灪
火
灬
灭
灮
灯
灰
灱
灲
灳
灴
灵
灶
灷
灸
灹
灺
灻
灼
災
灾
灿
炀
炁
炂
炃
炄
炅
炆
炇
炈
炉
炊
炋
炌
炎
炏
炐
炑
炒
炓
炔
炕
炖
炗
炘
炙
炚
炛
炜
炝
炞
炟
炠
炡
炢
炣
炤
炥
炦
炧
炨
炩
炪
炫
炬
炭
炮
炯
炰
炱
炲
炳
炴
炵
炶
炷
炸
点
為
炻
炼
炽
炾
炿
烀
烁
烂
烃
烄
烅
烆
烇
烈
烉
烊
烋
烌
烍
烎
烏
烐
烑
烒
烓
烔
烕
烖
烗
烘
烙
烚
烛
烜
烝
烞
烟
烠
烡
烢
烣
烤
烥
烦
烧
烨
烩
烪
烫
烬
热
烮
烯
烰
烱
烳
烴
烵
烶
烷
烸
烹
烺
烻
烼
烽
烿
焀
焁
焂
焃
焄
焅
焆
焇
焈
焉
焊
焋
焌
焍
焎
焏
焐
焑
焓
焔
焕
焖
焗
焘
焙
焚
焛
焜
焝
焞
焟
焠
無
焢
焣
焤
焥
焦
焧
焨
焩
焪
焫
焬
焭
焮
焯
焰
焱
焲
焳
焴
焵
然
焷
焸
焹
焺
焻
焼
焽
焾
焿
煀
煁
煂
煃
煄
煅
煆
煇
煈
煉
煊
煋
煌
煍
煎
煏
煐
煑
煒
煓
煔
煕
煖
煗
煘
煙
煚
煛
煜
煝
煞
煟
煠
煡
煢
煣
煤
煥
煦
照
煨
煩
煪
煫
煬
煭
煮
煯
煰
煱
煲
煳
煴
煵
煶
煷
煸
煹
煺
煻
煼
煽
煾
煿
熀
熁
熂
熃
熄
熅
熆
熇
熈
熉
熊
熋
熌
熎
熏
熐
熑
熒
熓
熔
熕
熖
熗
熘
熙
熚
熛
熜
熝
熞
熟
熠
熡
熢
熣
熤
熥
熦
熧
熨
熩
熪
熫
熬
熮
熯
熰
熱
熲
熳
熴
熵
熶
熷
熸
熹
熺
熻
熼
熽
熾
熿
燀
燁
燂
燃
燄
燅
燆
燇
燈
燉
燊
燋
燌
燍
燎
燏
燐
燑
燒
燓
燔
燕
燖
燗
燘
燙
燚
燛
燜
燝
燞
營
燠
燡
燢
燣
燤
燥
燦
燧
燨
燩
燪
燫
燬
燭
燮
燯
燰
燱
燲
燳
燴
燵
燶
燷
燸
燹
燺
燻
燼
燽
燾
燿
爀
爁
爂
爃
爄
爅
爆
爇
爈
爉
爊
爋
爌
爍
爎
爏
爐
爑
爒
爓
爔
爕
爖
爗
爘
爙
爚
爛
爜
爝
爞
爟
爠
爡
爢
爣
爤
爦
爧
爨
爩
爪
爫
爬
爭
爮
爯
爰
爱
爲
爳
爴
爵
父
爷
爸
爹
爺
爻
爼
爽
爾
爿
牀
牁
牂
牃
牄
牅
牆
片
版
牉
牊
牋
牌
牍
牎
牏
牐
牑
牒
牓
牔
牕
牖
牗
牘
牙
牚
牛
牜
牝
牞
牟
牠
牡
牢
牣
牤
牥
牦
牧
牨
物
牪
牫
牬
牭
牮
牯
牰
牱
牲
牳
牴
牵
牶
牷
牸
特
牺
牻
牼
牽
牾
牿
犀
犁
犂
犃
犄
犅
犆
犇
犈
犉
犊
犋
犌
犍
犎
犏
犐
犑
犒
犓
犔
犕
犖
犗
犘
犙
犚
犛
犜
犝
犟
犠
犡
犢
犣
犤
犥
犦
犧
犨
犩
犪
犫
犬
犭
犮
犯
犰
犱
犲
犳
犴
犵
状
犷
犸
犹
犺
犻
犼
犽
犾
犿
狀
狁
狂
狃
狄
狅
狆
狇
狈
狉
狊
狋
狌
狍
狎
狐
狑
狒
狓
狔
狕
狖
狗
狘
狙
狚
狛
狜
狝
狞
狟
狠
狡
狢
狣
狤
狥
狦
狧
狨
狩
狪
狫
独
狭
狮
狯
狰
狱
狲
狳
狴
狵
狶
狷
狸
狹
狺
狻
狼
狽
狾
狿
猀
猁
猂
猃
猄
猅
猆
猇
猈
猉
猊
猋
猍
猎
猐
猑
猒
猓
猔
猕
猖
猗
猘
猙
猛
猜
猝
猞
猟
猠
猡
猢
猣
猤
猥
猦
猧
猨
猩
猪
猫
猬
猭
献
猯
猰
猱
猲
猳
猴
猵
猶
猷
猸
猹
猺
猻
猼
猽
猾
猿
獀
獁
獂
獃
獄
獅
獆
獇
獈
獉
獋
獌
獍
獎
獏
獐
獑
獒
獓
獔
獕
獖
獗
獘
獙
獚
獛
獜
獝
獞
獟
獠
獡
獢
獣
獤
獥
獦
獧
獨
獩
獪
獫
獬
獭
獮
獯
獰
獱
獲
獳
獴
獵
獶
獷
獸
獹
獺
獻
獼
獽
獾
獿
玀
玁
玂
玃
玄
玅
玆
率
玈
玉
玊
王
玌
玍
玎
玏
玐
玑
玒
玓
玔
玕
玖
玗
玘
玙
玚
玛
玜
玝
玞
玟
玠
玡
玢
玣
玤
玥
玦
玧
玨
玩
玪
玫
玬
玭
玮
环
现
玱
玲
玳
玴
玵
玶
玷
玸
玹
玺
玻
玼
玽
玾
玿
珀
珁
珂
珃
珄
珅
珆
珇
珈
珉
珊
珋
珌
珍
珎
珏
珐
珑
珒
珓
珔
珕
珖
珗
珘
珙
珚
珛
珜
珝
珞
珟
珠
珡
珢
珣
珤
珥
珦
珧
珨
珩
珪
珫
班
珮
珯
珰
珱
珲
珳
珴
珵
珶
珷
珸
珹
珺
珻
珼
珽
現
珿
琀
琁
琂
球
琄
琅
理
琇
琈
琉
琊
琋
琌
琍
琎
琏
琐
琑
琒
琓
琔
琕
琖
琗
琘
琙
琚
琛
琜
琝
琞
琟
琠
琡
琢
琣
琤
琥
琦
琧
琨
琩
琪
琫
琬
琭
琮
琯
琰
琱
琲
琳
琴
琵
琶
琷
琸
琹
琺
琻
琼
琽
琾
琿
瑀
瑁
瑂
瑃
瑄
瑅
瑆
瑇
瑈
瑉
瑊
瑋
瑌
瑍
瑎
瑏
瑐
瑑
瑒
瑓
瑔
瑕
瑖
瑗
瑘
瑙
瑚
瑛
瑜
瑝
瑞
瑟
瑠
瑡
瑢
瑣
瑤
瑥
瑧
瑨
瑩
瑪
瑫
瑬
瑭
瑮
瑯
瑰
瑱
瑲
瑳
瑴
瑵
瑶
瑷
瑸
瑹
瑺
瑼
瑽
瑾
瑿
璀
璁
璂
璃
璄
璅
璆
璇
璈
璉
璊
璋
璌
璍
璎
璏
璐
璑
璒
璓
璔
璕
璖
璗
璘
璙
璚
璛
璜
璝
璞
璟
璠
璡
璢
璣
璤
璥
璦
璧
璨
璩
璪
璫
璬
璭
璮
璯
環
璱
璲
璳
璴
璵
璶
璷
璸
璹
璺
璻
璽
璿
瓀
瓁
瓂
瓃
瓄
瓅
瓆
瓇
瓈
瓉
瓊
瓋
瓌
瓍
瓎
瓏
瓐
瓑
瓒
瓓
瓔
瓕
瓖
瓗
瓘
瓙
瓚
瓛
瓜
瓝
瓞
瓟
瓠
瓡
瓢
瓣
瓤
瓥
瓦
瓧
瓨
瓩
瓪
瓫
瓬
瓭
瓮
瓯
瓰
瓱
瓲
瓳
瓴
瓵
瓶
瓷
瓸
瓹
瓺
瓻
瓼
瓽
瓾
瓿
甀
甁
甂
甃
甄
甅
甆
甇
甈
甉
甊
甋
甌
甍
甎
甏
甐
甑
甒
甓
甔
甕
甖
甗
甘
甙
甚
甛
甜
甝
甞
生
甠
甡
產
産
甤
甥
甦
甧
用
甩
甪
甫
甬
甭
甮
甯
田
由
甲
申
甴
电
甶
男
甸
甹
町
画
甼
甽
甾
甿
畀
畁
畂
畃
畄
畅
畆
畇
畈
畉
畊
畋
界
畍
畎
畏
畐
畑
畒
畓
畔
畕
畖
畗
畘
留
畚
畛
畜
畝
畞
畟
畠
畡
畢
畣
畤
略
畦
畧
畨
畩
番
畫
畬
畭
畮
畯
異
畱
畲
畳
畴
畵
當
畷
畸
畹
畺
畻
畼
畽
畾
畿
疀
疁
疂
疃
疄
疅
疆
疇
疈
疉
疊
疋
疌
疍
疎
疏
疐
疑
疒
疓
疔
疕
疖
疗
疘
疙
疚
疜
疝
疞
疟
疠
疡
疢
疣
疤
疥
疦
疧
疨
疩
疪
疫
疬
疭
疮
疯
疰
疱
疲
疳
疴
疵
疶
疷
疸
疹
疺
疻
疼
疽
疾
疿
痀
痁
痂
痃
痄
病
痆
症
痈
痉
痊
痋
痌
痍
痎
痏
痐
痑
痒
痓
痔
痕
痖
痗
痘
痙
痚
痛
痜
痝
痞
痟
痠
痡
痢
痣
痤
痥
痦
痧
痨
痩
痪
痫
痬
痭
痯
痰
痱
痲
痳
痴
痵
痶
痷
痸
痹
痺
痻
痼
痽
痾
痿
瘀
瘁
瘂
瘃
瘄
瘅
瘆
瘇
瘈
瘉
瘊
瘋
瘌
瘍
瘎
瘏
瘐
瘑
瘒
瘓
瘔
瘕
瘖
瘗
瘘
瘙
瘚
瘛
瘜
瘝
瘞
瘟
瘠
瘡
瘢
瘣
瘤
瘥
瘦
瘧
瘨
瘩
瘪
瘫
瘬
瘭
瘮
瘯
瘰
瘱
瘲
瘳
瘴
瘵
瘶
瘷
瘸
瘹
瘺
瘻
瘼
瘽
瘾
瘿
癀
癁
療
癃
癄
癅
癆
癇
癈
癉
癊
癋
癌
癍
癎
癏
癐
癑
癒
癓
癔
癕
癖
癗
癘
癙
癚
癛
癜
癝
癞
癟
癠
癡
癢
癣
癤
癥
癦
癧
癨
癩
癪
癫
癬
癭
癮
癯
癰
癱
癲
癳
癴
癵
癶
癷
癸
癹
発
登
發
白
百
癿
皀
皁
皂
皃
的
皅
皆
皇
皈
皉
皊
皋
皎
皏
皐
皑
皒
皓
皔
皕
皖
皗
皘
皙
皚
皛
皜
皝
皞
皠
皡
皢
皣
皤
皥
皦
皧
皪
皫
皬
皭
皮
皯
皰
皱
皲
皳
皴
皵
皶
皷
皸
皹
皺
皻
皼
皽
皾
皿
盀
盁
盂
盃
盄
盅
盆
盇
盈
盉
益
盋
盌
盍
盎
盏
盐
监
盒
盓
盔
盕
盖
盗
盘
盙
盚
盛
盜
盝
盞
盟
盠
盡
盢
監
盤
盥
盦
盧
盨
盩
盪
盫
盬
盭
目
盯
盰
盱
盲
盳
直
盵
盶
盷
相
盹
盺
盻
盼
盽
盾
盿
眀
省
眂
眃
眄
眅
眆
眇
眈
眉
眊
看
県
眍
眎
眏
眐
眑
眒
眓
眔
眕
眖
眗
眘
眙
眚
眛
眜
眝
眞
真
眠
眡
眢
眣
眤
眥
眦
眧
眨
眩
眪
眫
眬
眭
眮
眯
眰
眱
眲
眳
眴
眵
眶
眷
眸
眹
眺
眻
眼
眽
眾
着
睁
睂
睃
睄
睅
睆
睇
睈
睉
睊
睋
睌
睍
睎
睏
睐
睑
睒
睓
睔
睕
睖
睗
睘
睙
睚
睛
睜
睞
睟
睠
睡
睢
督
睤
睥
睦
睧
睨
睩
睪
睫
睬
睭
睮
睯
睰
睱
睲
睳
睴
睵
睶
睷
睸
睹
睺
睻
睼
睽
睾
睿
瞀
瞁
瞂
瞃
瞄
瞅
瞆
瞇
瞈
瞉
瞊
瞋
瞌
瞍
瞎
瞏
瞐
瞑
瞒
瞓
瞔
瞕
瞖
瞗
瞘
瞙
瞚
瞛
瞜
瞝
瞞
瞟
瞠
瞡
瞢
瞣
瞤
瞥
瞦
瞧
瞨
瞩
瞪
瞫
瞬
瞭
瞮
瞯
瞰
瞱
瞲
瞳
瞴
瞵
瞶
瞷
瞸
瞹
瞺
瞻
瞼
瞽
瞾
瞿
矀
矁
矂
矅
矆
矇
矈
矉
矊
矋
矌
矍
矎
矏
矐
矑
矒
矓
矔
矕
矖
矗
矘
矙
矚
矛
矜
矝
矞
矟
矠
矡
矢
矣
矤
知
矦
矧
矨
矩
矪
矫
矬
短
矮
矯
矰
矱
矲
石
矴
矵
矶
矷
矸
矹
矺
矻
矼
矽
矾
矿
砀
码
砂
砃
砄
砅
砆
砇
砈
砉
砊
砋
砌
砍
砎
砏
砐
砑
砒
砓
研
砕
砖
砗
砘
砙
砚
砛
砜
砝
砞
砟
砠
砡
砢
砣
砤
砥
砦
砧
砨
砩
砪
砫
砬
砭
砮
砯
砰
砱
砲
砳
破
砵
砶
砷
砸
砹
砺
砻
砼
砽
砾
砿
础
硁
硂
硃
硄
硅
硆
硇
硈
硉
硊
硋
硌
硍
硎
硏
硐
硑
硒
硓
硔
硕
硖
硗
硘
硙
硚
硛
硜
硝
硞
硟
硠
硡
硢
硣
硤
硥
硦
硧
硨
硩
硪
硫
硬
硭
确
硯
硰
硱
硲
硳
硴
硵
硶
硷
硸
硹
硺
硻
硼
硾
硿
碀
碁
碂
碃
碄
碅
碆
碇
碈
碉
碊
碋
碌
碍
碎
碏
碐
碑
碒
碓
碔
碕
碖
碗
碘
碙
碚
碛
碜
碝
碞
碟
碠
碡
碢
碣
碤
碥
碦
碧
碨
碩
碪
碫
碬
碭
碯
碰
碱
碲
碳
碴
碵
碶
碷
碸
碹
確
碻
碼
碽
碾
碿
磀
磁
磂
磃
磄
磅
磆
磇
磈
磉
磊
磋
磌
磍
磎
磏
磐
磑
磒
磓
磔
磕
磖
磗
磘
磙
磚
磜
磝
磞
磟
磠
磡
磢
磣
磤
磥
磦
磧
磨
磩
磪
磬
磭
磮
磯
磰
磱
磲
磳
磴
磵
磶
磷
磸
磹
磺
磻
磼
磽
磾
磿
礀
礁
礂
礃
礄
礅
礇
礈
礉
礊
礋
礌
礍
礎
礏
礐
礑
礒
礓
礔
礕
礖
礗
礘
礙
礚
礛
礜
礝
礞
礟
礠
礡
礢
礣
礤
礥
礦
礧
礨
礩
礪
礫
礬
礭
礮
礯
礰
礱
礲
礳
礴
礵
礶
礷
礸
礹
示
礻
礼
礽
社
礿
祀
祁
祂
祃
祄
祅
祆
祇
祈
祉
祊
祋
祌
祍
祎
祏
祐
祑
祒
祓
祔
祕
祖
祗
祘
祙
祚
祛
祜
祝
神
祟
祠
祡
祢
祣
祤
祥
祦
祧
票
祩
祪
祫
祬
祭
祮
祯
祰
祱
祲
祳
祴
祵
祶
祷
祸
祹
祺
祼
祽
祾
祿
禀
禁
禂
禃
禄
禅
禆
禇
禈
禉
禊
禋
禌
禍
禎
福
禐
禑
禒
禓
禔
禕
禖
禗
禘
禙
禚
禛
禜
禝
禞
禟
禠
禡
禢
禣
禤
禥
禦
禧
禨
禩
禪
禫
禬
禭
禮
禯
禰
禱
禲
禳
禴
禵
禶
禷
禸
禹
禺
离
禼
禽
禾
禿
秀
私
秂
秃
秄
秅
秆
秇
秈
秉
秊
秋
秌
种
秎
秏
秐
科
秒
秓
秔
秕
秖
秗
秘
秙
秚
秛
秜
秝
秞
租
秠
秡
秢
秣
秤
秥
秦
秧
秨
秩
秪
秫
秬
秭
秮
积
称
秱
秲
秳
秴
秵
秶
秷
秸
秹
秺
移
秼
秽
秾
秿
稀
稁
稂
稃
稄
稅
稆
稇
稈
稉
稊
程
稌
稍
税
稐
稑
稒
稓
稔
稕
稖
稗
稘
稙
稚
稛
稜
稝
稞
稟
稠
稡
稢
稣
稤
稥
稦
稧
稨
稩
稪
稫
稬
稭
種
稯
稰
稱
稲
稳
稴
稵
稶
稷
稸
稹
稺
稻
稼
稽
稾
稿
穀
穂
穃
穄
穅
穆
穇
穈
穉
穊
穋
穌
積
穎
穏
穐
穑
穒
穔
穕
穖
穗
穘
穙
穚
穛
穜
穝
穞
穟
穠
穡
穢
穣
穤
穥
穦
穧
穨
穩
穪
穫
穬
穮
穯
穰
穱
穲
穳
穴
穵
究
穷
穸
穹
空
穻
穼
穽
穾
穿
窀
突
窂
窃
窄
窅
窆
窇
窈
窉
窊
窋
窌
窍
窎
窏
窐
窑
窒
窓
窔
窕
窖
窗
窘
窙
窚
窛
窜
窝
窞
窟
窠
窡
窢
窣
窤
窥
窦
窧
窨
窩
窪
窫
窬
窭
窮
窯
窰
窱
窲
窳
窴
窵
窶
窷
窸
窹
窺
窻
窼
窽
窾
窿
竀
竁
竂
竃
竄
竅
竆
竇
竈
竉
竊
立
竌
竍
竎
竏
竐
竑
竒
竓
竔
竕
竖
竗
竘
站
竚
竛
竜
竝
竞
竟
章
竡
竢
竣
竤
童
竦
竧
竨
竩
竪
竫
竬
竭
竮
端
竰
竱
竲
竳
竴
竵
競
竷
竸
竹
竺
竻
竼
竽
竾
竿
笀
笁
笂
笃
笄
笅
笆
笇
笈
笉
笊
笋
笌
笍
笎
笏
笐
笑
笒
笓
笔
笕
笖
笗
笘
笙
笚
笛
笝
笞
笟
笠
笡
笢
笣
笤
笥
符
笧
笨
笩
笪
笫
第
笭
笮
笯
笰
笱
笲
笳
笴
笵
笶
笷
笸
笹
笺
笻
笼
笽
笾
笿
筀
筁
筂
筃
筄
筅
筆
筇
筈
等
筊
筋
筌
筍
筎
筏
筐
筑
筒
筓
答
筕
策
筗
筘
筙
筚
筛
筜
筝
筞
筟
筠
筡
筢
筣
筤
筥
筦
筧
筨
筩
筪
筫
筬
筭
筮
筯
筰
筱
筲
筳
筴
筵
筶
筷
筸
筹
筺
筻
筼
筽
签
筿
简
箁
箂
箃
箄
箅
箆
箇
箈
箉
箊
箋
箌
箍
箎
箏
箐
箑
箒
箓
箔
箕
箖
算
箘
箙
箚
箛
箜
箝
箞
箟
箠
管
箢
箣
箤
箥
箦
箧
箨
箩
箪
箫
箬
箭
箮
箯
箰
箱
箲
箳
箴
箶
箷
箸
箹
箺
箻
箼
箽
箾
箿
節
篁
篂
篃
範
篅
篆
篇
篈
築
篊
篋
篌
篎
篏
篐
篑
篒
篓
篔
篕
篖
篗
篘
篙
篚
篛
篜
篝
篞
篟
篠
篡
篢
篣
篤
篥
篦
篧
篨
篩
篪
篫
篬
篭
篮
篯
篰
篱
篲
篳
篴
篵
篶
篷
篸
篹
篺
篻
篼
篽
篾
篿
簀
簁
簃
簄
簆
簇
簈
簉
簊
簋
簌
簍
簎
簏
簐
簑
簒
簓
簔
簕
簖
簗
簘
簙
簚
簜
簝
簞
簟
簠
簡
簣
簤
簥
簦
簧
簨
簩
簪
簫
簬
簭
簮
簯
簰
簱
簲
簳
簴
簵
簶
簷
簸
簹
簺
簻
簼
簽
簾
簿
籀
籁
籂
籃
籆
籇
籈
籉
籊
籋
籌
籍
籎
籏
籐
籑
籒
籓
籔
籕
籖
籗
籘
籙
籚
籛
籜
籝
籞
籟
籠
籡
籢
籣
籤
籥
籦
籧
籨
籩
籪
籫
籬
籭
籮
籯
籰
籱
籲
米
籴
籵
籶
籷
籸
籹
籺
类
籼
籽
籾
籿
粀
粁
粂
粃
粄
粅
粆
粇
粈
粉
粊
粋
粌
粍
粎
粏
粐
粑
粒
粓
粔
粕
粖
粗
粘
粙
粚
粛
粜
粝
粞
粟
粠
粡
粢
粣
粤
粥
粦
粧
粨
粩
粪
粫
粬
粭
粮
粯
粰
粱
粲
粳
粴
粵
粶
粷
粸
粹
粺
粻
粼
粽
精
粿
糀
糁
糂
糃
糄
糅
糆
糇
糈
糉
糊
糋
糌
糍
糎
糏
糑
糒
糓
糔
糕
糖
糗
糘
糙
糚
糛
糜
糝
糞
糟
糠
糡
糢
糣
糥
糦
糧
糨
糪
糫
糬
糭
糮
糯
糰
糱
糲
糳
糴
糵
糶
糷
糸
糹
糺
系
糼
糽
糾
糿
紀
紁
紂
紃
約
紅
紆
紇
紈
紉
紊
紋
紌
納
紎
紏
紐
紑
紒
紓
純
紕
紖
紗
紘
紙
級
紛
紜
紝
紞
紟
素
紡
索
紣
紤
紥
紦
紧
紨
紩
紪
紫
紬
紭
紮
累
細
紱
紲
紳
紴
紵
紶
紷
紸
紹
紺
紻
紼
紽
紾
紿
絀
絁
終
絃
組
絅
絆
絇
絈
絉
絊
絋
経
絍
絎
絏
結
絑
絒
絓
絔
絕
絖
絗
絘
絙
絚
絛
絜
絝
絞
絟
絠
絡
絢
絣
絤
給
絧
絨
絩
絪
絫
絬
絭
絮
絯
絰
統
絲
絳
絴
絵
絶
絷
絸
絹
絺
絻
絼
絽
絾
絿
綀
綁
綂
綃
綄
綅
綆
綈
綉
綊
綋
綌
綍
綎
綏
綐
綑
綒
經
綔
綕
綖
綗
綘
継
続
綛
綜
綝
綞
綟
綠
綡
綢
綣
綤
綥
綦
綧
綨
綩
綪
綫
綬
維
綮
綯
綰
綱
網
綳
綴
綵
綶
綷
綸
綹
綺
綻
綼
綽
綾
綿
緁
緂
緃
緄
緅
緆
緇
緈
緉
緊
緋
緌
緍
緎
総
緐
緑
緒
緓
緕
緖
緗
緘
緙
線
緛
緜
緝
緞
緟
締
緡
緢
緣
緤
緥
緦
緧
編
緩
緪
緫
緬
緭
緯
緰
緱
緲
緳
練
緵
緶
緷
緹
緺
緻
緼
緽
緾
緿
縀
縁
縂
縃
縄
縅
縆
縇
縈
縉
縊
縋
縌
縏
縐
縑
縓
縔
縕
縖
縗
縘
縙
縚
縛
縜
縝
縞
縟
縠
縡
縢
縣
縤
縥
縦
縧
縨
縩
縪
縫
縭
縮
縯
縰
縱
縲
縳
縴
縵
縶
縷
縸
縹
縺
縻
縼
總
績
縿
繀
繁
繃
繄
繅
繆
繇
繈
繉
繊
繋
繌
繍
繎
繐
繑
繒
繓
織
繕
繖
繗
繘
繙
繚
繛
繜
繝
繞
繟
繠
繡
繢
繣
繤
繥
繦
繧
繨
繩
繪
繫
繬
繭
繮
繯
繰
繱
繲
繳
繴
繵
繶
繷
繸
繹
繺
繻
繼
繽
繾
繿
纀
纁
纂
纃
纄
纅
纆
纇
纈
纉
纊
纋
續
纍
纎
纏
纐
纑
纒
纓
纔
纕
纖
纘
纙
纚
纛
纜
纝
纞
纟
纠
纡
红
纣
纤
纥
约
级
纨
纩
纪
纫
纬
纭
纮
纯
纰
纱
纲
纳
纴
纵
纶
纷
纸
纹
纺
纻
纼
纽
纾
线
绀
绁
绂
练
组
绅
细
织
终
绉
绊
绋
绌
绍
绎
经
绐
绑
绒
结
绔
绕
绖
绗
绘
给
绚
绛
络
绝
绞
统
绠
绡
绢
绣
绤
绥
绦
继
绨
绩
绪
绫
绬
续
绮
绯
绰
绱
绲
绳
维
绵
绶
绷
绸
绹
绺
绻
综
绽
绾
绿
缀
缁
缂
缃
缄
缅
缆
缇
缈
缉
缊
缋
缌
缍
缎
缏
缐
缑
缒
缓
缔
缕
编
缗
缘
缙
缚
缛
缜
缝
缞
缟
缠
缡
缢
缣
缤
缥
缦
缧
缨
缩
缪
缫
缬
缭
缮
缯
缰
缱
缲
缳
缴
缵
缶
缷
缸
缹
缺
缻
缼
缽
缾
缿
罀
罁
罂
罃
罄
罅
罇
罈
罉
罊
罋
罌
罍
罎
罏
罐
网
罒
罓
罔
罕
罖
罗
罘
罙
罚
罛
罜
罝
罞
罟
罠
罡
罢
罣
罥
罦
罧
罨
罩
罪
罫
罬
罭
置
罯
罰
罱
署
罳
罴
罵
罶
罷
罸
罹
罺
罻
罼
罽
罾
罿
羀
羁
羂
羃
羄
羅
羆
羇
羈
羉
羊
羋
羌
羍
美
羏
羐
羑
羒
羓
羔
羕
羖
羗
羘
羙
羚
羛
羜
羝
羞
羟
羠
羡
羢
羣
群
羥
羦
羧
羨
義
羪
羫
羬
羭
羮
羯
羰
羱
羲
羳
羴
羵
羶
羷
羸
羹
羺
羻
羼
羽
羾
羿
翀
翁
翂
翃
翄
翅
翆
翇
翈
翊
翋
翌
翍
翎
翏
翐
翑
習
翓
翔
翕
翖
翗
翘
翙
翚
翛
翜
翝
翞
翟
翠
翡
翢
翣
翤
翥
翦
翧
翨
翩
翪
翫
翬
翭
翮
翯
翰
翱
翲
翳
翴
翵
翶
翷
翸
翹
翺
翻
翼
翽
翾
翿
耀
老
耂
考
耄
者
耆
耇
耈
耉
耊
耋
而
耍
耎
耏
耐
耑
耒
耓
耔
耕
耖
耗
耘
耙
耚
耛
耜
耝
耞
耟
耠
耡
耢
耣
耤
耥
耦
耧
耨
耩
耪
耫
耬
耭
耮
耯
耰
耱
耲
耳
耴
耵
耶
耷
耸
耹
耺
耻
耼
耽
耾
耿
聁
聂
聃
聄
聅
聆
聇
聈
聉
聊
聋
职
聍
聎
聏
聐
聑
聒
聓
联
聕
聖
聗
聘
聚
聛
聜
聝
聞
聟
聠
聡
聢
聣
聤
聥
聦
聧
聨
聩
聪
聫
聬
聭
聮
聯
聰
聱
聲
聳
聴
聵
聶
職
聸
聹
聻
聼
聽
聾
聿
肀
肁
肂
肃
肄
肅
肆
肇
肈
肉
肊
肋
肌
肍
肎
肏
肐
肑
肒
肓
肔
肕
肖
肗
肘
肙
肚
肛
肜
肝
肞
肟
肠
股
肢
肣
肤
肥
肦
肧
肨
肩
肪
肫
肬
肭
肮
肯
肰
肱
育
肳
肴
肵
肶
肷
肸
肹
肺
肻
肼
肽
肾
肿
胀
胁
胂
胃
胄
胅
胆
胇
胈
胉
胊
胋
背
胍
胎
胏
胐
胑
胒
胓
胔
胕
胖
胗
胘
胙
胚
胛
胜
胝
胞
胟
胠
胡
胢
胣
胤
胥
胦
胧
胨
胩
胪
胫
胬
胭
胮
胯
胰
胱
胲
胳
胴
胵
胶
胷
胸
胹
胺
胻
胼
能
胾
胿
脀
脁
脂
脃
脄
脅
脆
脇
脈
脉
脊
脋
脌
脍
脎
脏
脐
脑
脒
脓
脔
脕
脖
脗
脘
脙
脚
脛
脜
脝
脞
脟
脠
脡
脢
脣
脤
脥
脦
脧
脨
脩
脪
脫
脬
脭
脮
脯
脰
脱
脲
脳
脵
脶
脷
脸
脹
脺
脻
脼
脽
脾
脿
腀
腁
腂
腃
腄
腅
腆
腇
腈
腉
腊
腋
腌
腍
腎
腏
腐
腑
腒
腓
腔
腕
腖
腗
腘
腙
腚
腛
腜
腝
腞
腟
腠
腡
腢
腣
腤
腥
腦
腧
腨
腩
腫
腬
腭
腮
腯
腰
腱
腲
腳
腴
腵
腶
腷
腸
腹
腺
腻
腼
腽
腾
腿
膀
膁
膂
膃
膄
膅
膆
膇
膈
膉
膊
膋
膌
膍
膎
膏
膐
膑
膒
膓
膔
膕
膖
膗
膘
膙
膚
膛
膜
膝
膞
膟
膠
膡
膢
膣
膤
膥
膦
膧
膨
膩
膪
膫
膬
膭
膮
膯
膰
膱
膲
膳
膴
膵
膶
膷
膸
膹
膺
膻
膼
膽
膾
膿
臀
臁
臂
臃
臄
臅
臆
臇
臈
臉
臊
臋
臌
臍
臎
臏
臐
臑
臒
臓
臔
臕
臖
臗
臘
臙
臚
臛
臜
臝
臞
臟
臠
臡
臢
臣
臤
臥
臦
臧
臨
臩
自
臫
臬
臭
臮
臯
臱
臲
至
致
臵
臶
臷
臸
臹
臺
臻
臼
臽
臾
臿
舀
舁
舂
舃
舄
舅
舆
與
興
舉
舊
舋
舌
舍
舎
舏
舐
舑
舒
舓
舔
舕
舖
舗
舘
舙
舚
舛
舜
舝
舞
舟
舠
舡
舢
舣
舤
舥
舦
舧
舨
舩
航
舫
般
舭
舮
舯
舰
舱
舲
舳
舴
舵
舶
舷
舸
船
舺
舻
舼
舽
舾
舿
艀
艁
艂
艃
艄
艅
艆
艇
艈
艉
艊
艋
艌
艍
艎
艏
艐
艑
艒
艓
艔
艕
艖
艗
艘
艙
艚
艛
艜
艝
艞
艟
艠
艡
艢
艣
艤
艥
艦
艨
艩
艪
艫
艬
艭
艮
良
艰
艱
色
艳
艴
艵
艶
艷
艸
艹
艺
艻
艼
艽
艾
艿
芀
芁
节
芃
芄
芅
芆
芇
芈
芉
芊
芋
芌
芍
芎
芏
芐
芑
芒
芓
芔
芕
芖
芗
芘
芙
芚
芛
芜
芝
芞
芟
芠
芡
芢
芣
芤
芥
芦
芧
芨
芩
芪
芫
芬
芭
芮
芯
芰
花
芲
芳
芴
芵
芶
芷
芸
芹
芺
芻
芼
芽
芾
芿
苀
苁
苂
苃
苄
苅
苆
苇
苈
苉
苊
苋
苌
苍
苎
苏
苐
苑
苒
苓
苔
苕
苖
苗
苘
苙
苚
苛
苜
苝
苞
苟
苠
苡
苢
苣
苤
若
苦
苧
苨
苩
苪
苫
苬
苭
苮
苯
苰
英
苲
苳
苴
苵
苶
苷
苸
苹
苺
苻
苼
苽
苾
苿
茀
茁
茂
范
茄
茅
茆
茇
茈
茉
茊
茋
茌
茍
茎
茏
茐
茑
茒
茓
茔
茕
茖
茗
茘
茙
茚
茛
茜
茝
茞
茟
茠
茡
茢
茣
茤
茥
茦
茧
茨
茩
茪
茫
茬
茭
茮
茯
茱
茲
茳
茴
茵
茶
茷
茸
茹
茺
茻
茼
茽
茾
茿
荀
荁
荂
荃
荄
荅
荆
荇
荈
草
荊
荋
荌
荍
荎
荏
荐
荑
荒
荓
荔
荕
荖
荗
荘
荙
荚
荛
荜
荝
荞
荟
荠
荡
荢
荣
荤
荥
荦
荧
荨
荩
荪
荫
荬
荭
荮
药
荰
荱
荲
荳
荴
荵
荶
荷
荸
荹
荺
荻
荼
荽
荾
荿
莀
莁
莂
莃
莄
莅
莆
莇
莈
莉
莊
莋
莌
莍
莎
莏
莐
莑
莒
莓
莔
莕
莖
莗
莘
莙
莚
莛
莜
莝
莞
莟
莠
莡
莢
莣
莤
莥
莦
莧
莨
莩
莪
莫
莬
莭
莮
莯
莰
莱
莲
莳
莴
莵
莶
获
莸
莹
莺
莻
莼
莽
莾
莿
菀
菁
菂
菃
菄
菅
菆
菇
菈
菉
菊
菋
菌
菍
菎
菏
菐
菑
菒
菓
菔
菕
菖
菗
菘
菙
菚
菛
菜
菝
菞
菟
菠
菡
菢
菣
菤
菥
菦
菧
菨
菩
菪
菫
菬
菭
菮
華
菰
菱
菲
菳
菴
菵
菶
菷
菸
菹
菺
菻
菼
菽
菾
菿
萀
萁
萂
萃
萄
萅
萆
萇
萈
萉
萊
萋
萌
萍
萎
萏
萐
萑
萒
萓
萔
萕
萖
萘
萙
萚
萛
萜
萝
萞
萟
萠
萡
萢
萣
萤
营
萦
萧
萨
萩
萪
萫
萬
萭
萮
萯
萰
萱
萲
萳
萴
萵
萶
萷
萸
萹
萻
萼
落
萾
萿
葀
葁
葂
葃
葄
葅
葆
葇
葈
葉
葊
葋
葌
葍
葎
葏
葐
葑
葒
葓
葔
葕
葖
著
葘
葙
葚
葛
葜
葝
葞
葟
葠
葡
葢
董
葥
葦
葧
葨
葩
葪
葫
葬
葭
葮
葯
葰
葱
葲
葳
葴
葵
葶
葷
葸
葹
葺
葻
葼
葽
葾
葿
蒀
蒁
蒂
蒃
蒄
蒅
蒆
蒇
蒈
蒉
蒊
蒋
蒌
蒍
蒎
蒏
蒐
蒑
蒒
蒓
蒔
蒕
蒖
蒗
蒘
蒙
蒚
蒛
蒜
蒝
蒞
蒟
蒠
蒡
蒢
蒣
蒤
蒥
蒦
蒧
蒨
蒩
蒪
蒫
蒬
蒭
蒮
蒯
蒰
蒱
蒲
蒳
蒴
蒵
蒶
蒷
蒸
蒹
蒺
蒻
蒼
蒽
蒾
蒿
蓀
蓁
蓂
蓃
蓄
蓅
蓆
蓇
蓈
蓉
蓊
蓋
蓌
蓍
蓎
蓏
蓐
蓑
蓒
蓓
蓔
蓕
蓖
蓗
蓘
蓙
蓚
蓛
蓜
蓝
蓞
蓟
蓠
蓡
蓢
蓣
蓤
蓥
蓦
蓧
蓨
蓩
蓪
蓫
蓬
蓭
蓮
蓯
蓰
蓱
蓲
蓳
蓴
蓵
蓶
蓷
蓸
蓹
蓺
蓻
蓼
蓽
蓾
蓿
蔀
蔁
蔂
蔃
蔄
蔅
蔆
蔇
蔈
蔉
蔊
蔋
蔌
蔍
蔎
蔏
蔑
蔒
蔓
蔔
蔕
蔖
蔗
蔘
蔙
蔚
蔛
蔜
蔝
蔞
蔟
蔠
蔡
蔢
蔣
蔤
蔥
蔦
蔧
蔨
蔩
蔪
蔫
蔬
蔭
蔮
蔯
蔰
蔱
蔲
蔳
蔴
蔵
蔶
蔷
蔸
蔹
蔺
蔻
蔼
蔽
蔾
蔿
蕀
蕁
蕂
蕃
蕄
蕅
蕆
蕇
蕈
蕉
蕊
蕋
蕌
蕍
蕎
蕏
蕐
蕑
蕒
蕓
蕔
蕕
蕖
蕗
蕘
蕙
蕚
蕛
蕜
蕝
蕞
蕟
蕠
蕡
蕢
蕣
蕤
蕥
蕦
蕧
蕨
蕩
蕪
蕫
蕬
蕭
蕮
蕯
蕰
蕱
蕲
蕳
蕴
蕵
蕶
蕷
蕸
蕹
蕺
蕻
蕼
蕾
蕿
薀
薁
薃
薄
薅
薆
薇
薈
薉
薊
薋
薌
薍
薎
薏
薐
薑
薒
薓
薔
薕
薖
薗
薘
薙
薚
薛
薜
薝
薞
薟
薠
薡
薢
薣
薤
薥
薦
薧
薨
薩
薪
薫
薬
薭
薮
薯
薰
薱
薲
薳
薴
薵
薶
薷
薸
薹
薺
薻
薼
薽
薾
薿
藁
藂
藃
藄
藅
藇
藈
藉
藊
藋
藌
藍
藎
藏
藐
藑
藒
藓
藔
藕
藖
藗
藘
藙
藚
藛
藜
藝
藞
藟
藠
藡
藢
藣
藤
藥
藦
藧
藨
藩
藪
藫
藭
藮
藯
藰
藱
藲
藳
藴
藵
藶
藷
藸
藹
藺
藻
藼
藽
藾
藿
蘀
蘁
蘂
蘄
蘅
蘆
蘇
蘈
蘉
蘊
蘋
蘍
蘎
蘏
蘐
蘑
蘒
蘓
蘔
蘕
蘖
蘗
蘘
蘙
蘚
蘛
蘜
蘝
蘞
蘠
蘡
蘢
蘤
蘥
蘦
蘧
蘩
蘪
蘫
蘬
蘭
蘮
蘯
蘰
蘱
蘲
蘳
蘴
蘵
蘶
蘷
蘸
蘹
蘺
蘻
蘼
蘽
蘾
蘿
虀
虁
虂
虃
虄
虅
虆
虇
虈
虉
虊
虋
虌
虍
虎
虏
虐
虑
虒
虓
虔
處
虖
虗
虘
虙
虚
虛
虜
虝
虞
號
虠
虡
虢
虣
虤
虥
虦
虧
虨
虩
虪
虫
虬
虭
虮
虯
虰
虱
虲
虳
虴
虵
虶
虷
虸
虹
虺
虻
虼
虽
虾
虿
蚀
蚁
蚂
蚃
蚄
蚅
蚆
蚇
蚈
蚉
蚊
蚋
蚌
蚍
蚎
蚏
蚐
蚑
蚒
蚓
蚔
蚕
蚖
蚗
蚘
蚙
蚚
蚛
蚜
蚝
蚞
蚟
蚠
蚡
蚢
蚣
蚤
蚥
蚦
蚧
蚨
蚩
蚪
蚫
蚬
蚭
蚮
蚯
蚰
蚱
蚲
蚳
蚴
蚵
蚶
蚷
蚸
蚹
蚺
蚻
蚼
蚽
蚾
蚿
蛀
蛁
蛂
蛃
蛄
蛅
蛆
蛇
蛈
蛉
蛊
蛋
蛌
蛍
蛎
蛏
蛐
蛑
蛒
蛓
蛔
蛕
蛖
蛗
蛘
蛙
蛚
蛛
蛜
蛝
蛞
蛟
蛠
蛡
蛢
蛣
蛤
蛥
蛦
蛧
蛨
蛩
蛫
蛬
蛭
蛮
蛯
蛰
蛱
蛲
蛳
蛴
蛵
蛶
蛷
蛸
蛹
蛺
蛻
蛼
蛽
蛾
蛿
蜀
蜂
蜃
蜄
蜅
蜆
蜇
蜈
蜉
蜊
蜋
蜌
蜍
蜎
蜏
蜐
蜑
蜒
蜓
蜔
蜕
蜖
蜗
蜘
蜙
蜚
蜛
蜜
蜝
蜞
蜟
蜠
蜡
蜢
蜣
蜤
蜥
蜦
蜧
蜨
蜩
蜪
蜫
蜭
蜮
蜯
蜰
蜱
蜲
蜳
蜴
蜵
蜶
蜷
蜸
蜹
蜺
蜻
蜼
蜽
蜾
蜿
蝀
蝁
蝂
蝃
蝄
蝅
蝆
蝇
蝈
蝉
蝊
蝋
蝌
蝍
蝎
蝏
蝐
蝑
蝒
蝓
蝔
蝕
蝖
蝗
蝘
蝙
蝚
蝛
蝜
蝝
蝞
蝟
蝠
蝡
蝢
蝣
蝤
蝥
蝦
蝧
蝨
蝩
蝪
蝫
蝬
蝭
蝮
蝯
蝰
蝱
蝲
蝳
蝴
蝵
蝶
蝷
蝸
蝹
蝺
蝻
蝼
蝽
蝾
蝿
螀
螁
螂
螃
螄
螅
螆
螇
螈
螉
螊
螋
螌
融
螎
螏
螐
螑
螒
螓
螔
螕
螖
螗
螘
螙
螚
螛
螜
螝
螞
螟
螠
螡
螢
螣
螤
螥
螦
螧
螨
螩
螪
螫
螬
螭
螮
螯
螰
螱
螲
螳
螴
螵
螶
螷
螸
螹
螺
螻
螼
螽
螾
螿
蟀
蟁
蟂
蟃
蟄
蟅
蟆
蟇
蟈
蟉
蟊
蟋
蟌
蟍
蟎
蟏
蟐
蟑
蟒
蟓
蟔
蟕
蟖
蟗
蟙
蟚
蟛
蟜
蟝
蟞
蟟
蟠
蟡
蟢
蟣
蟤
蟥
蟦
蟧
蟨
蟩
蟪
蟫
蟬
蟭
蟮
蟯
蟰
蟱
蟲
蟳
蟴
蟵
蟶
蟷
蟸
蟹
蟺
蟻
蟼
蟽
蟾
蟿
蠁
蠂
蠃
蠄
蠅
蠆
蠇
蠈
蠉
蠊
蠋
蠌
蠍
蠎
蠏
蠐
蠑
蠒
蠓
蠔
蠕
蠖
蠗
蠘
蠙
蠚
蠛
蠜
蠝
蠞
蠟
蠠
蠡
蠢
蠣
蠤
蠥
蠦
蠧
蠨
蠩
蠪
蠫
蠭
蠮
蠯
蠰
蠱
蠲
蠳
蠴
蠵
蠶
蠷
蠸
蠹
蠺
蠻
蠼
蠽
蠿
血
衁
衂
衃
衄
衅
衆
衇
衈
衉
衊
衋
行
衍
衎
衏
衐
衑
衒
術
衔
衕
衖
街
衘
衙
衚
衛
衜
衝
衞
衟
衠
衡
衢
衣
衤
补
衦
衧
表
衩
衪
衫
衬
衭
衮
衯
衰
衱
衲
衳
衴
衵
衶
衷
衸
衹
衺
衻
衼
衽
衾
衿
袀
袁
袂
袃
袄
袅
袆
袇
袈
袉
袊
袋
袌
袍
袎
袏
袐
袑
袒
袓
袔
袕
袖
袗
袘
袙
袚
袛
袜
袝
袞
袟
袠
袡
袢
袣
袤
袥
袦
袧
袨
袩
袪
被
袬
袭
袮
袯
袰
袱
袲
袳
袴
袵
袶
袷
袸
袹
袺
袻
袼
袽
袾
袿
裀
裁
裂
裃
裄
装
裆
裇
裈
裉
裊
裋
裌
裍
裎
裏
裐
裑
裒
裓
裔
裕
裖
裗
裘
裙
裚
裛
補
裝
裞
裟
裠
裡
裢
裣
裤
裥
裦
裧
裨
裩
裪
裫
裬
裭
裮
裯
裰
裱
裲
裳
裴
裵
裶
裷
裸
裹
裺
裻
裼
製
裾
裿
褀
褁
褂
褃
褄
褅
褆
複
褈
褉
褊
褋
褌
褍
褎
褏
褐
褑
褒
褓
褔
褕
褖
褗
褘
褙
褚
褛
褜
褝
褞
褟
褠
褡
褢
褣
褥
褦
褧
褨
褩
褪
褫
褬
褭
褯
褰
褱
褲
褳
褴
褵
褶
褷
褸
褹
褺
褻
褼
褽
褾
褿
襀
襁
襂
襃
襄
襅
襆
襇
襈
襉
襊
襋
襌
襍
襎
襏
襐
襑
襒
襓
襔
襕
襖
襗
襘
襙
襚
襛
襜
襝
襞
襟
襠
襡
襢
襣
襤
襥
襦
襧
襨
襩
襪
襫
襬
襭
襮
襯
襱
襲
襳
襴
襵
襶
襷
襸
襹
襺
襻
襼
襽
襾
西
覀
要
覂
覃
覄
覅
覆
覇
覈
覉
覊
見
覌
覍
覎
規
覐
覑
覒
覓
覔
覕
視
覗
覘
覙
覚
覛
覜
覝
覞
覡
覣
覤
覥
覦
覧
覩
親
覫
覬
覭
覯
覰
覱
覲
観
覴
覵
覶
覷
覸
覺
覻
覼
覽
覾
覿
觀
见
观
觃
规
觅
视
觇
览
觉
觊
觋
觌
觍
觎
觏
觐
觑
角
觓
觔
觕
觖
觗
觘
觙
觚
觛
觜
觝
觞
觟
觠
觡
觢
解
觤
觥
触
觧
觨
觩
觪
觫
觬
觭
觮
觯
觰
觱
觲
觳
觴
觵
觶
觷
觸
觹
觺
觻
觼
觽
觾
觿
言
訁
訂
訃
訄
訅
訆
訇
計
訉
訊
訋
訌
討
訏
訐
訑
訒
訓
訔
訕
訖
託
記
訙
訚
訛
訝
訞
訟
訠
訡
訢
訣
訤
訥
訦
訧
訩
訪
訫
訬
設
訮
訯
訰
許
訲
訳
訴
訵
訶
訷
訸
訹
診
註
証
訽
訾
訿
詀
詁
詂
詃
詄
詅
詆
詇
詈
詉
詋
詌
詍
詎
詏
詐
詑
詒
詓
詔
評
詖
詗
詘
詙
詚
詛
詜
詝
詞
詟
詠
詡
詢
詣
詤
詥
試
詧
詨
詩
詪
詫
詬
詭
詮
詰
話
該
詳
詴
詵
詶
詷
詸
詹
詺
詻
詼
詽
詾
詿
誀
誁
誂
誃
誄
誅
誆
誇
誈
誉
誊
誋
誌
認
誎
誏
誐
誑
誒
誓
誔
誕
誖
誗
誘
誙
誚
誛
誜
誝
語
誟
誠
誡
誢
誣
誤
誥
誦
誧
誨
誩
說
説
読
誮
誯
誰
誱
課
誴
誵
誶
誷
誸
誹
誺
誻
誼
誽
誾
調
諀
諁
諂
諃
諄
諅
諆
談
諈
諉
諊
請
諌
諍
諎
諏
諐
諑
諒
諓
諔
諕
論
諗
諘
諙
諚
諛
諜
諝
諞
諟
諠
諡
諢
諤
諦
諧
諨
諩
諪
諫
諬
諭
諮
諰
諱
諲
諳
諴
諵
諶
諷
諸
諹
諺
諻
諼
諽
諾
諿
謀
謁
謂
謃
謄
謅
謇
謈
謊
謋
謌
謍
謎
謏
謐
謑
謒
謓
謔
謕
謖
謗
謘
謙
謚
講
謜
謝
謞
謟
謠
謡
謢
謣
謤
謥
謦
謨
謩
謪
謫
謬
謮
謯
謰
謱
謲
謳
謴
謵
謶
謷
謸
謹
謺
謻
謼
謾
謿
譀
譁
譃
譄
譅
譆
譇
證
譊
譋
譌
譍
譎
譏
譐
譒
譓
譔
譕
譖
譗
識
譙
譚
譛
譜
譝
譞
譟
譠
譡
譢
譣
譤
譥
警
譧
譨
譩
譪
譫
譬
譭
譮
譯
議
譱
譲
譳
譴
譵
譶
護
譸
譹
譺
譻
譼
譽
譾
譿
讀
讁
讃
讄
讅
讆
讇
讉
變
讋
讌
讍
讎
讏
讐
讑
讒
讓
讔
讕
讖
讗
讘
讙
讚
讛
讜
讝
讞
讟
讠
计
订
讣
认
讥
讦
讧
讨
让
讪
讫
讬
训
议
讯
记
讱
讲
讳
讴
讵
讶
讷
许
讹
论
讻
讼
讽
设
访
诀
证
诂
诃
评
诅
识
诇
诈
诉
诊
诋
诌
词
诎
诏
诐
译
诒
诓
诔
试
诖
诗
诘
诙
诚
诛
诜
话
诞
诟
诠
诡
询
诣
诤
该
详
诧
诨
诩
诪
诫
诬
语
诮
误
诰
诱
诲
诳
说
诵
诶
请
诸
诹
诺
读
诼
诽
课
诿
谀
谁
谂
调
谄
谅
谆
谇
谈
谉
谊
谋
谌
谍
谎
谏
谐
谑
谒
谓
谔
谕
谖
谗
谘
谙
谚
谛
谜
谝
谞
谟
谠
谡
谢
谣
谤
谥
谦
谧
谨
谩
谪
谫
谬
谭
谮
谯
谰
谱
谲
谳
谴
谵
谶
谷
谸
谹
谺
谻
谼
谽
谾
谿
豀
豁
豂
豃
豄
豅
豆
豇
豈
豉
豊
豋
豌
豍
豎
豏
豐
豑
豒
豓
豔
豕
豖
豗
豘
豙
豚
豛
豜
豝
豞
豟
豠
象
豢
豣
豤
豥
豦
豧
豨
豩
豪
豫
豬
豭
豮
豯
豰
豱
豲
豳
豴
豵
豶
豷
豸
豹
豺
豻
豼
豽
豾
豿
貀
貁
貂
貃
貄
貅
貆
貇
貈
貉
貊
貋
貌
貍
貎
貏
貐
貑
貒
貓
貔
貕
貖
貗
貘
貙
貚
貛
貜
貝
貞
貟
負
財
貢
貣
貤
貥
貦
貧
貨
販
貪
貫
責
貭
貮
貯
貰
貱
貲
貳
貴
貵
貶
買
貸
貹
貺
費
貼
貽
貾
貿
賀
賁
賂
賃
賄
賅
賆
資
賈
賉
賊
賋
賌
賍
賎
賏
賐
賑
賒
賓
賔
賕
賖
賗
賘
賙
賚
賛
賜
賝
賞
賟
賠
賡
賢
賣
賤
賥
賦
賧
賨
賩
質
賫
賬
賭
賮
賯
賰
賱
賲
賳
賴
賵
賶
賷
賸
賹
賺
賻
購
賽
賾
賿
贀
贁
贄
贅
贆
贇
贈
贊
贋
贌
贍
贎
贏
贐
贑
贒
贓
贔
贕
贖
贗
贘
贙
贛
贜
贝
贞
负
贠
贡
财
责
贤
败
账
货
质
贩
贪
贫
贬
购
贮
贯
贰
贱
贲
贳
贴
贵
贶
贷
贸
费
贺
贻
贼
贽
贾
贿
赀
赁
赂
赃
资
赅
赆
赇
赈
赉
赊
赋
赌
赍
赎
赏
赐
赑
赒
赓
赔
赕
赖
赗
赘
赙
赚
赛
赜
赝
赞
赟
赠
赡
赢
赣
赤
赥
赦
赧
赨
赩
赪
赫
赬
赭
赮
赯
走
赱
赲
赳
赴
赵
赶
起
赸
赹
赺
赻
赼
赽
赾
赿
趀
趁
趂
趃
趄
超
趆
趇
趈
趉
越
趋
趌
趍
趎
趏
趐
趑
趒
趓
趔
趕
趖
趗
趘
趙
趚
趛
趜
趝
趞
趟
趠
趡
趢
趣
趤
趦
趧
趨
趩
趪
趫
趬
趭
趮
趯
趱
趲
足
趴
趵
趶
趷
趸
趹
趺
趻
趼
趽
趾
趿
跀
跁
跂
跃
跄
跅
跆
跇
跈
跉
跊
跋
跌
跍
跎
跏
跐
跑
跒
跓
跔
跕
跖
跗
跘
跙
跚
跛
跜
距
跞
跟
跠
跡
跢
跣
跤
跥
跦
跧
跨
跩
跪
跫
跬
跭
跮
路
跰
跱
跲
跳
跴
践
跶
跷
跸
跹
跺
跻
跼
跽
跾
跿
踀
踁
踂
踃
踄
踅
踆
踇
踈
踉
踊
踋
踌
踍
踎
踏
踐
踑
踒
踓
踔
踕
踖
踗
踘
踙
踚
踛
踜
踝
踞
踟
踠
踡
踢
踣
踤
踥
踦
踧
踨
踩
踪
踫
踬
踭
踮
踯
踰
踱
踲
踳
踴
踵
踶
踷
踸
踹
踺
踻
踼
踽
踾
踿
蹀
蹁
蹂
蹃
蹄
蹅
蹆
蹇
蹈
蹉
蹊
蹋
蹌
蹍
蹎
蹏
蹐
蹑
蹒
蹓
蹔
蹕
蹖
蹗
蹘
蹙
蹚
蹛
蹜
蹝
蹞
蹟
蹠
蹡
蹢
蹣
蹤
蹥
蹦
蹧
蹨
蹩
蹪
蹫
蹬
蹭
蹮
蹯
蹰
蹱
蹲
蹳
蹴
蹵
蹶
蹷
蹸
蹹
蹺
蹻
蹼
蹽
蹾
蹿
躀
躁
躂
躃
躄
躅
躆
躇
躈
躉
躊
躋
躌
躍
躏
躐
躑
躒
躓
躔
躕
躖
躗
躘
躙
躚
躛
躜
躝
躞
躟
躠
躡
躢
躣
躤
躥
躦
躧
躩
躪
身
躬
躭
躮
躯
躰
躱
躲
躳
躴
躵
躶
躸
躹
躺
躻
躼
躽
躾
躿
軀
軁
軂
軃
軄
軆
軇
軈
車
軋
軌
軍
軎
軏
軐
軑
軒
軓
軔
軖
軘
軙
軚
軛
軜
軝
軞
軟
軠
転
軣
軥
軦
軧
軨
軩
軪
軫
軬
軭
軮
軯
軰
軱
軲
軳
軴
軵
軶
軷
軸
軹
軺
軻
軼
軽
軾
軿
輀
輁
輂
較
輄
輅
輆
輇
輈
載
輊
輋
輌
輍
輎
輏
輐
輑
輒
輓
輔
輕
輖
輗
輘
輙
輚
輛
輜
輝
輞
輟
輠
輡
輢
輣
輤
輥
輦
輧
輨
輩
輪
輫
輬
輭
輮
輯
輰
輱
輲
輳
輴
輵
輶
輷
輸
輹
輺
輻
輼
輾
輿
轀
轁
轂
轃
轄
轅
轆
轇
轈
轉
轊
轋
轌
轍
轎
轏
轐
轑
轒
轓
轔
轕
轖
轗
轘
轙
轚
轛
轜
轝
轞
轟
轠
轡
轢
轣
轤
轥
车
轧
轨
轩
轪
轫
转
轭
轮
软
轰
轱
轲
轳
轴
轵
轶
轷
轸
轹
轺
轻
轼
载
轾
轿
辀
辁
辂
较
辄
辅
辆
辇
辈
辉
辊
辋
辌
辍
辎
辏
辐
辑
辒
输
辔
辕
辖
辗
辘
辙
辚
辛
辜
辝
辞
辟
辠
辡
辢
辣
辤
辥
辦
辧
辨
辩
辪
辫
辬
辭
辮
辯
辰
辱
農
辳
辴
辵
辶
辷
辸
边
辺
辻
込
辽
达
辿
迀
迁
迂
迃
迄
迅
迆
过
迈
迉
迊
迋
迌
迍
迎
迏
运
近
迒
迓
返
迕
迖
迗
还
这
迚
进
远
违
连
迟
迠
迡
迢
迣
迤
迥
迦
迧
迨
迩
迪
迫
迬
迭
迮
迯
述
迱
迲
迳
迴
迵
迷
迸
迹
迺
迻
迼
追
迾
迿
退
送
适
逃
逄
逅
逆
逇
逈
选
逊
逋
逌
逍
逎
透
逐
逑
递
逓
途
逕
逖
逗
逘
這
通
逛
逜
逝
逞
速
造
逡
逢
連
逤
逥
逦
逧
逨
逩
逪
逫
逬
逭
逮
逯
逰
週
進
逳
逴
逵
逶
逷
逸
逹
逺
逻
逼
逽
逾
逿
遀
遁
遂
遃
遄
遅
遆
遇
遈
遉
遊
運
遌
遍
過
遏
遐
遑
遒
道
達
違
遖
遗
遘
遙
遚
遛
遜
遝
遞
遟
遠
遡
遢
遣
遤
遥
遦
遧
遨
適
遪
遫
遬
遭
遮
遯
遰
遲
遳
遴
遵
遶
遷
選
遹
遺
遻
遼
遽
遾
避
邀
邁
邂
邃
還
邅
邆
邇
邈
邉
邊
邋
邌
邍
邎
邏
邐
邑
邓
邔
邕
邖
邗
邘
邙
邚
邛
邜
邝
邞
邟
邠
邡
邢
那
邤
邥
邦
邧
邨
邩
邪
邫
邬
邮
邯
邰
邱
邲
邳
邴
邵
邶
邸
邹
邺
邻
邼
邽
邾
邿
郀
郁
郂
郃
郄
郅
郆
郇
郈
郉
郊
郋
郌
郍
郎
郏
郐
郑
郒
郓
郔
郕
郖
郗
郘
郙
郚
郛
郜
郝
郞
郟
郠
郡
郢
郣
郤
郥
郦
郧
部
郩
郪
郫
郭
郮
郯
郰
郱
郲
郳
郴
郵
郶
郷
郸
郹
郺
郻
郼
都
郾
郿
鄀
鄁
鄂
鄃
鄄
鄅
鄆
鄇
鄈
鄉
鄊
鄋
鄌
鄍
鄎
鄏
鄐
鄑
鄒
鄓
鄔
鄕
鄖
鄗
鄘
鄙
鄚
鄛
鄜
鄝
鄞
鄟
鄠
鄡
鄢
鄣
鄤
鄥
鄦
鄧
鄨
鄩
鄪
鄫
鄬
鄭
鄮
鄯
鄰
鄱
鄲
鄳
鄴
鄵
鄶
鄷
鄸
鄹
鄺
鄼
鄽
鄾
鄿
酀
酁
酂
酃
酄
酅
酆
酇
酈
酉
酊
酋
酌
配
酎
酏
酐
酑
酒
酓
酔
酕
酖
酗
酘
酙
酚
酛
酜
酝
酞
酟
酠
酡
酢
酣
酤
酥
酦
酧
酨
酩
酪
酫
酬
酭
酮
酯
酰
酱
酲
酳
酴
酵
酶
酷
酸
酹
酺
酻
酼
酽
酾
酿
醀
醁
醂
醃
醄
醅
醆
醇
醈
醉
醊
醋
醌
醍
醎
醏
醐
醑
醒
醓
醔
醕
醖
醗
醘
醙
醚
醛
醜
醝
醞
醟
醠
醡
醢
醣
醤
醥
醦
醧
醨
醩
醪
醫
醬
醭
醮
醯
醰
醱
醲
醳
醴
醵
醶
醷
醸
醹
醺
醻
醼
醽
醾
醿
釀
釁
釂
釃
釄
釅
釆
采
釈
釉
释
釋
里
重
野
量
釐
金
釒
釓
釔
釕
釖
釗
釘
釙
釚
釛
釜
針
釞
釟
釠
釡
釢
釣
釤
釥
釦
釧
釨
釩
釪
釫
釬
釭
釮
釯
釰
釱
釲
釳
釴
釵
釶
釷
釸
釹
釺
釻
釼
釽
釾
釿
鈀
鈁
鈂
鈃
鈄
鈅
鈆
鈇
鈈
鈉
鈊
鈋
鈌
鈍
鈎
鈏
鈐
鈑
鈒
鈓
鈔
鈕
鈖
鈗
鈘
鈙
鈚
鈛
鈜
鈝
鈞
鈟
鈡
鈢
鈣
鈤
鈥
鈦
鈧
鈨
鈩
鈪
鈫
鈬
鈭
鈮
鈰
鈱
鈳
鈴
鈵
鈶
鈷
鈸
鈹
鈺
鈻
鈼
鈽
鈾
鈿
鉀
鉁
鉂
鉃
鉄
鉅
鉆
鉇
鉈
鉉
鉊
鉋
鉌
鉍
鉎
鉏
鉐
鉑
鉒
鉓
鉕
鉖
鉗
鉘
鉙
鉚
鉛
鉜
鉝
鉞
鉟
鉠
鉡
鉢
鉣
鉤
鉥
鉦
鉧
鉨
鉩
鉪
鉫
鉬
鉭
鉮
鉯
鉰
鉱
鉲
鉳
鉴
鉵
鉶
鉷
鉸
鉹
鉺
鉻
鉼
鉽
鉾
鉿
銀
銂
銃
銄
銅
銆
銇
銈
銉
銊
銋
銌
銍
銎
銏
銐
銑
銒
銓
銔
銕
銖
銗
銘
銙
銚
銛
銜
銝
銞
銠
銡
銢
銣
銤
銥
銦
銧
銨
銩
銪
銫
銬
銭
銮
銯
銰
銱
銲
銳
銴
銵
銶
銷
銸
銹
銺
銻
銼
銽
銾
銿
鋀
鋁
鋂
鋃
鋄
鋅
鋆
鋇
鋈
鋉
鋊
鋋
鋌
鋍
鋎
鋏
鋐
鋑
鋒
鋓
鋔
鋕
鋖
鋗
鋘
鋙
鋛
鋜
鋝
鋞
鋟
鋠
鋡
鋢
鋣
鋤
鋥
鋦
鋧
鋨
鋩
鋪
鋫
鋬
鋭
鋮
鋯
鋰
鋱
鋲
鋳
鋴
鋵
鋶
鋷
鋸
鋹
鋺
鋻
鋼
鋽
鋾
鋿
錀
錁
錂
錃
錄
錅
錆
錇
錉
錊
錋
錌
錍
錎
錏
錐
錑
錒
錓
錔
錕
錖
錗
錘
錙
錚
錛
錝
錞
錟
錠
錡
錢
錣
錤
錦
錧
錨
錩
錪
錫
錬
錭
錮
錯
錰
錱
録
錳
錴
錵
錶
錷
錸
錹
錺
錻
錼
錾
錿
鍀
鍁
鍂
鍃
鍄
鍅
鍆
鍇
鍈
鍉
鍊
鍋
鍌
鍍
鍎
鍏
鍐
鍑
鍒
鍓
鍔
鍕
鍖
鍗
鍘
鍙
鍚
鍛
鍜
鍝
鍞
鍟
鍠
鍡
鍢
鍣
鍤
鍥
鍦
鍧
鍨
鍩
鍪
鍫
鍬
鍭
鍮
鍯
鍰
鍱
鍲
鍳
鍴
鍵
鍶
鍷
鍸
鍹
鍺
鍻
鍼
鍽
鍾
鍿
鎀
鎁
鎂
鎃
鎄
鎅
鎆
鎇
鎉
鎊
鎋
鎌
鎎
鎏
鎐
鎑
鎒
鎓
鎔
鎕
鎖
鎗
鎘
鎙
鎚
鎛
鎜
鎝
鎞
鎟
鎠
鎡
鎢
鎣
鎤
鎦
鎧
鎨
鎩
鎪
鎫
鎬
鎭
鎮
鎯
鎰
鎱
鎲
鎳
鎴
鎵
鎶
鎷
鎸
鎹
鎺
鎻
鎼
鎽
鎾
鎿
鏀
鏁
鏂
鏃
鏄
鏅
鏆
鏇
鏈
鏊
鏋
鏌
鏍
鏏
鏐
鏑
鏒
鏓
鏔
鏕
鏖
鏗
鏘
鏙
鏚
鏛
鏜
鏝
鏞
鏟
鏠
鏡
鏢
鏣
鏤
鏦
鏧
鏨
鏩
鏪
鏫
鏬
鏭
鏮
鏯
鏱
鏲
鏳
鏴
鏵
鏶
鏷
鏸
鏹
鏺
鏻
鏼
鏽
鏿
鐀
鐁
鐃
鐄
鐅
鐆
鐇
鐈
鐉
鐊
鐋
鐌
鐍
鐎
鐏
鐐
鐑
鐒
鐓
鐔
鐕
鐖
鐗
鐘
鐙
鐚
鐛
鐜
鐝
鐞
鐟
鐠
鐡
鐢
鐣
鐤
鐥
鐦
鐧
鐨
鐩
鐪
鐫
鐬
鐭
鐮
鐰
鐱
鐲
鐳
鐴
鐵
鐶
鐷
鐸
鐹
鐺
鐻
鐼
鐽
鐾
鐿
鑀
鑁
鑂
鑃
鑄
鑅
鑆
鑇
鑈
鑉
鑊
鑋
鑌
鑍
鑎
鑏
鑐
鑑
鑒
鑓
鑔
鑕
鑖
鑗
鑘
鑙
鑚
鑛
鑜
鑝
鑞
鑟
鑠
鑡
鑢
鑣
鑤
鑥
鑧
鑨
鑩
鑪
鑫
鑬
鑭
鑮
鑯
鑰
鑱
鑲
鑳
鑴
鑵
鑶
鑷
鑸
鑹
鑺
鑻
鑼
鑽
鑾
鑿
钀
钁
钂
钃
钄
钅
钆
钇
针
钉
钊
钋
钌
钍
钎
钏
钐
钑
钒
钓
钔
钕
钖
钗
钘
钙
钚
钛
钜
钝
钞
钟
钠
钡
钢
钣
钤
钥
钦
钧
钨
钩
钪
钫
钬
钭
钮
钯
钰
钱
钲
钳
钴
钵
钶
钷
钸
钹
钺
钻
钼
钽
钾
钿
铀
铁
铂
铃
铄
铅
铆
铇
铈
铉
铊
铋
铌
铍
铎
铏
铐
铑
铒
铓
铔
铕
铖
铗
铘
铙
铚
铛
铜
铝
铞
铟
铠
铡
铢
铣
铤
铥
铦
铧
铨
铩
铪
铫
铬
铭
铮
铯
铰
铱
铲
铳
铴
铵
银
铷
铸
铹
铺
铻
铼
铽
链
铿
销
锁
锂
锃
锄
锅
锆
锇
锈
锉
锊
锋
锌
锍
锎
锏
锐
锑
锒
锓
锔
锕
锖
锗
锘
错
锚
锛
锜
锝
锞
锟
锠
锡
锢
锣
锤
锥
锦
锧
锨
锩
锪
锫
锬
锭
键
锯
锰
锱
锲
锳
锴
锵
锶
锷
锸
锹
锺
锻
锼
锽
锾
锿
镀
镁
镂
镃
镄
镅
镆
镇
镈
镉
镊
镋
镌
镍
镎
镏
镐
镑
镒
镓
镔
镕
镖
镗
镘
镙
镚
镛
镜
镝
镞
镟
镠
镡
镢
镣
镤
镥
镦
镧
镨
镩
镪
镫
镬
镭
镮
镯
镰
镱
镲
镳
镴
镵
镶
長
镸
镹
镺
镻
镼
镽
镾
长
門
閁
閂
閃
閄
閅
閆
閇
閈
閉
閊
開
閌
閎
閏
閑
閒
間
閔
閕
閖
閗
閘
閙
閚
閛
閜
閞
閟
閠
閡
関
閣
閤
閥
閦
閧
閨
閩
閪
閫
閬
閭
閮
閯
閰
閱
閲
閳
閴
閵
閶
閷
閸
閹
閺
閻
閼
閽
閾
閿
闀
闁
闂
闃
闄
闅
闆
闇
闈
闉
闊
闋
闌
闍
闎
闏
闐
闑
闒
闓
闔
闕
闖
闗
闘
闚
闛
關
闝
闞
闟
闠
闡
闢
闣
闤
闥
闦
闧
门
闩
闪
闫
闬
闭
问
闯
闰
闱
闲
闳
间
闵
闶
闷
闸
闹
闺
闻
闼
闽
闾
闿
阀
阁
阂
阃
阄
阅
阆
阇
阈
阉
阊
阋
阌
阍
阎
阏
阐
阑
阒
阓
阔
阕
阖
阗
阘
阙
阚
阛
阜
阝
阞
队
阠
阡
阢
阣
阤
阥
阦
阧
阨
阩
阪
阫
阬
阭
阮
阯
阰
阱
防
阳
阴
阵
阶
阷
阸
阹
阺
阻
阼
阽
阾
阿
陀
陁
陂
陃
附
际
陆
陇
陈
陉
陊
陋
陌
降
陎
陏
限
陑
陓
陔
陕
陖
陗
陘
陙
陚
陛
陜
陝
陞
陟
陠
陡
院
陣
除
陥
陦
陧
陨
险
陪
陫
陬
陭
陮
陯
陰
陱
陲
陳
陴
陵
陶
陷
陸
陹
険
陻
陼
陽
陾
陿
隀
隁
隂
隃
隄
隅
隆
隇
隈
隉
隊
隋
隌
隍
階
随
隐
隑
隒
隓
隔
隕
隖
隗
隘
隙
隚
際
障
隝
隞
隟
隠
隡
隢
隣
隤
隥
隦
隧
隨
隩
險
隫
隬
隭
隮
隰
隱
隲
隳
隴
隵
隶
隷
隸
隹
隺
隻
隼
隽
难
隿
雀
雁
雂
雃
雄
雅
集
雇
雈
雉
雊
雋
雌
雍
雎
雏
雐
雑
雒
雓
雔
雕
雖
雗
雘
雙
雚
雛
雜
雝
雞
雟
雠
雡
離
難
雤
雥
雦
雧
雨
雩
雪
雫
雬
雭
雮
雯
雰
雱
雲
雳
雴
雵
零
雷
雸
雹
雺
電
雼
雽
雾
雿
需
霁
霂
霄
霅
霆
震
霈
霉
霊
霋
霍
霎
霏
霐
霑
霒
霓
霔
霕
霖
霗
霘
霙
霚
霛
霜
霝
霞
霟
霠
霡
霢
霣
霤
霥
霦
霧
霨
霩
霪
霫
霬
霭
霮
霯
霰
霱
露
霳
霴
霵
霶
霷
霸
霹
霺
霻
霼
霽
霾
霿
靀
靁
靂
靃
靄
靅
靆
靇
靈
靉
靊
靋
靌
靍
靎
靏
靐
靑
青
靓
靔
靕
靖
靗
靘
静
靚
靛
靜
靝
非
靟
靠
靡
面
靣
靤
靥
靦
靧
靨
革
靪
靫
靬
靭
靮
靯
靰
靱
靲
靳
靴
靵
靶
靷
靸
靹
靺
靻
靼
靽
靾
靿
鞀
鞁
鞂
鞃
鞄
鞅
鞆
鞇
鞈
鞉
鞊
鞋
鞌
鞍
鞎
鞏
鞐
鞑
鞒
鞓
鞔
鞕
鞖
鞗
鞘
鞙
鞚
鞜
鞞
鞟
鞠
鞡
鞢
鞣
鞤
鞥
鞦
鞧
鞨
鞩
鞪
鞫
鞬
鞭
鞮
鞯
鞰
鞱
鞲
鞳
鞴
鞵
鞶
鞷
鞸
鞹
鞺
鞻
鞼
鞽
鞾
鞿
韀
韁
韂
韃
韄
韅
韆
韇
韈
韉
韊
韋
韌
韍
韎
韏
韐
韑
韒
韓
韔
韕
韖
韗
韘
韙
韛
韜
韝
韞
韟
韠
韡
韣
韤
韥
韦
韧
韨
韩
韪
韫
韬
韭
韮
韯
韰
韱
韲
音
韴
韵
韶
韷
韸
韹
韺
韻
韼
韽
韾
響
頀
頁
頂
頃
頄
項
順
頇
須
頉
頊
頋
頌
頍
頎
頏
預
頑
頒
頓
頔
頕
頖
頗
領
頙
頚
頜
頝
頞
頟
頠
頡
頢
頣
頤
頥
頦
頧
頨
頩
頪
頫
頬
頭
頮
頯
頰
頱
頲
頳
頴
頵
頶
頷
頸
頹
頺
頻
頼
頽
頾
頿
顀
顁
顄
顅
顆
顇
顈
顉
顊
顋
題
額
顎
顏
顐
顑
顒
顓
顔
顕
顖
顗
願
顙
顚
顛
顜
顝
類
顟
顠
顡
顢
顣
顤
顥
顦
顧
顨
顩
顫
顬
顭
顯
顰
顱
顲
顳
顴
页
顶
顷
顸
项
顺
须
顼
顽
顾
顿
颀
颁
颂
颃
预
颅
领
颇
颈
颉
颊
颋
颌
颍
颎
颏
颐
频
颒
颓
颔
颕
颖
颗
题
颙
颚
颛
颜
额
颞
颟
颠
颡
颢
颣
颤
颥
颦
颧
風
颩
颪
颫
颬
颭
颮
颯
颰
颱
颲
颳
颴
颵
颶
颷
颸
颹
颺
颻
颼
颽
颾
颿
飀
飁
飂
飃
飄
飅
飆
飇
飈
飉
飊
飋
飌
飍
风
飏
飐
飑
飒
飓
飔
飕
飖
飗
飘
飙
飚
飛
飜
飝
飞
食
飠
飡
飢
飣
飤
飥
飧
飨
飩
飪
飫
飬
飭
飮
飯
飰
飱
飲
飳
飴
飵
飶
飷
飸
飹
飺
飻
飼
飽
飾
飿
餀
餁
餂
餃
餄
餅
餆
餇
餈
餉
養
餋
餌
餍
餎
餏
餐
餑
餒
餓
餔
餕
餖
餗
餘
餙
餚
餛
餜
餝
餞
餟
餠
餡
餢
餣
餤
餥
餦
餧
館
餩
餪
餫
餬
餭
餮
餯
餰
餱
餲
餳
餴
餵
餶
餷
餸
餹
餺
餻
餼
餽
餾
餿
饀
饁
饂
饃
饄
饅
饆
饈
饉
饊
饋
饌
饍
饎
饏
饐
饑
饒
饓
饔
饕
饖
饗
饘
饙
饚
饛
饜
饝
饞
饟
饠
饡
饢
饣
饤
饥
饦
饧
饨
饩
饪
饫
饬
饭
饮
饯
饰
饱
饲
饳
饴
饵
饶
饷
饸
饹
饺
饻
饼
饽
饾
饿
馀
馁
馂
馃
馄
馅
馆
馇
馈
馉
馊
馋
馌
馍
馎
馏
馐
馑
馒
馓
馔
馕
首
馗
馘
香
馚
馛
馜
馝
馞
馟
馠
馡
馢
馣
馤
馥
馦
馧
馨
馪
馫
馬
馭
馮
馯
馰
馱
馲
馳
馴
馵
馶
馷
馸
馹
馺
馻
馼
馽
馾
馿
駀
駁
駂
駃
駄
駅
駆
駇
駈
駉
駊
駋
駌
駍
駏
駐
駑
駒
駓
駔
駕
駖
駗
駘
駙
駛
駜
駝
駞
駟
駠
駡
駢
駣
駤
駥
駦
駨
駩
駪
駬
駭
駮
駯
駰
駱
駲
駳
駴
駵
駷
駸
駹
駺
駻
駼
駽
駾
駿
騀
騁
騂
騃
騄
騅
騆
騈
騉
騊
騋
騌
騍
騎
騏
騐
騑
騒
験
騔
騕
騖
騗
騘
騙
騚
騛
騜
騞
騟
騠
騡
騢
騣
騤
騥
騦
騧
騨
騩
騪
騫
騬
騭
騮
騯
騰
騱
騲
騳
騴
騵
騶
騷
騸
騹
騺
騻
騽
騾
騿
驀
驁
驂
驃
驄
驅
驆
驈
驉
驊
驌
驍
驎
驏
驐
驑
驒
驓
驔
驕
驖
驗
驘
驙
驚
驛
驜
驝
驞
驟
驠
驡
驢
驣
驤
驥
驦
驧
驩
驪
驫
马
驭
驮
驯
驰
驱
驲
驳
驴
驵
驶
驷
驸
驹
驺
驻
驼
驽
驾
驿
骀
骁
骂
骃
骄
骅
骆
骇
骈
骉
骊
骋
验
骍
骎
骏
骐
骑
骒
骓
骔
骕
骖
骗
骘
骙
骚
骛
骜
骝
骞
骟
骠
骡
骢
骣
骤
骥
骦
骧
骨
骩
骫
骭
骮
骯
骰
骱
骲
骳
骴
骵
骶
骷
骸
骹
骺
骻
骼
骽
骾
骿
髀
髁
髂
髃
髄
髅
髆
髇
髈
髉
髊
髋
髌
髍
髎
髏
髐
髑
髒
髓
體
髕
髖
髗
高
髙
髚
髛
髜
髝
髞
髟
髠
髡
髢
髣
髤
髥
髦
髧
髨
髩
髪
髫
髬
髭
髮
髯
髰
髱
髲
髳
髴
髵
髶
髷
髸
髹
髺
髻
髼
髽
髾
髿
鬀
鬁
鬂
鬃
鬄
鬅
鬆
鬇
鬈
鬉
鬊
鬋
鬌
鬍
鬎
鬏
鬐
鬑
鬒
鬓
鬔
鬕
鬖
鬗
鬘
鬙
鬚
鬛
鬜
鬝
鬞
鬟
鬠
鬡
鬢
鬣
鬤
鬥
鬦
鬧
鬨
鬩
鬪
鬫
鬬
鬭
鬮
鬯
鬰
鬱
鬲
鬳
鬴
鬵
鬶
鬷
鬸
鬹
鬺
鬻
鬼
鬽
鬾
鬿
魀
魁
魂
魃
魄
魅
魆
魇
魈
魉
魊
魋
魌
魍
魎
魏
魐
魑
魒
魓
魔
魕
魖
魗
魘
魙
魚
魛
魜
魝
魞
魟
魠
魡
魢
魣
魤
魥
魦
魧
魨
魩
魫
魬
魭
魮
魯
魰
魱
魲
魳
魴
魶
魷
魸
魹
魺
魻
魼
魽
魾
魿
鮀
鮁
鮂
鮃
鮄
鮅
鮆
鮇
鮈
鮉
鮊
鮋
鮌
鮍
鮎
鮏
鮐
鮑
鮒
鮓
鮔
鮕
鮖
鮗
鮘
鮙
鮚
鮜
鮝
鮞
鮟
鮠
鮡
鮢
鮣
鮤
鮥
鮦
鮧
鮨
鮩
鮪
鮫
鮬
鮭
鮮
鮯
鮰
鮱
鮲
鮴
鮶
鮷
鮸
鮹
鮻
鮼
鮽
鮾
鮿
鯀
鯁
鯃
鯅
鯆
鯇
鯈
鯉
鯊
鯋
鯎
鯏
鯑
鯒
鯓
鯔
鯕
鯖
鯗
鯘
鯙
鯚
鯛
鯜
鯝
鯟
鯠
鯡
鯢
鯣
鯤
鯥
鯦
鯧
鯨
鯩
鯪
鯫
鯭
鯮
鯯
鯰
鯱
鯲
鯳
鯵
鯶
鯷
鯸
鯹
鯺
鯻
鯼
鯽
鯾
鯿
鰀
鰁
鰂
鰃
鰄
鰅
鰆
鰇
鰈
鰉
鰊
鰋
鰌
鰍
鰎
鰏
鰐
鰒
鰓
鰔
鰕
鰖
鰗
鰘
鰙
鰚
鰛
鰜
鰝
鰟
鰠
鰡
鰢
鰣
鰤
鰥
鰧
鰨
鰩
鰪
鰫
鰬
鰭
鰮
鰯
鰰
鰱
鰲
鰳
鰴
鰵
鰶
鰷
鰸
鰹
鰺
鰻
鰼
鰽
鰾
鰿
鱀
鱁
鱂
鱃
鱄
鱅
鱆
鱇
鱈
鱉
鱊
鱋
鱌
鱍
鱎
鱏
鱐
鱑
鱒
鱓
鱔
鱕
鱖
鱗
鱘
鱙
鱚
鱛
鱜
鱝
鱞
鱟
鱠
鱡
鱢
鱣
鱤
鱥
鱦
鱧
鱨
鱩
鱪
鱫
鱬
鱭
鱮
鱯
鱰
鱱
鱲
鱳
鱴
鱵
鱶
鱷
鱸
鱹
鱺
鱻
鱼
鱽
鱾
鱿
鲀
鲁
鲂
鲃
鲄
鲅
鲆
鲇
鲈
鲉
鲊
鲋
鲌
鲍
鲎
鲏
鲐
鲑
鲒
鲓
鲔
鲕
鲖
鲗
鲘
鲙
鲚
鲛
鲜
鲝
鲞
鲟
鲠
鲡
鲢
鲣
鲤
鲥
鲦
鲧
鲨
鲩
鲪
鲫
鲬
鲭
鲮
鲯
鲰
鲱
鲲
鲳
鲴
鲵
鲶
鲷
鲸
鲹
鲺
鲻
鲼
鲽
鲾
鲿
鳀
鳁
鳂
鳃
鳄
鳅
鳆
鳇
鳈
鳉
鳊
鳋
鳌
鳍
鳎
鳏
鳐
鳑
鳒
鳓
鳔
鳕
鳖
鳗
鳘
鳙
鳚
鳛
鳜
鳝
鳞
鳟
鳠
鳡
鳢
鳣
鳤
鳥
鳦
鳧
鳩
鳪
鳫
鳬
鳭
鳮
鳯
鳰
鳱
鳲
鳳
鳴
鳵
鳶
鳷
鳸
鳹
鳺
鳻
鳽
鳾
鳿
鴀
鴁
鴂
鴃
鴄
鴅
鴆
鴇
鴈
鴉
鴊
鴋
鴌
鴎
鴏
鴐
鴑
鴒
鴓
鴔
鴕
鴖
鴗
鴘
鴙
鴚
鴛
鴜
鴝
鴞
鴟
鴠
鴡
鴢
鴣
鴤
鴥
鴦
鴧
鴨
鴩
鴪
鴫
鴬
鴭
鴮
鴯
鴰
鴲
鴳
鴴
鴵
鴶
鴷
鴸
鴹
鴺
鴻
鴼
鴽
鴾
鴿
鵀
鵁
鵂
鵃
鵄
鵅
鵆
鵉
鵊
鵋
鵌
鵍
鵎
鵏
鵐
鵑
鵒
鵓
鵔
鵕
鵖
鵗
鵘
鵙
鵚
鵜
鵝
鵞
鵟
鵠
鵡
鵢
鵣
鵤
鵦
鵧
鵨
鵩
鵪
鵫
鵬
鵭
鵮
鵯
鵰
鵱
鵲
鵳
鵴
鵵
鵶
鵷
鵸
鵹
鵺
鵻
鵼
鵽
鵾
鵿
鶀
鶁
鶂
鶃
鶄
鶅
鶆
鶇
鶈
鶉
鶊
鶋
鶍
鶎
鶏
鶐
鶑
鶒
鶓
鶕
鶖
鶗
鶘
鶚
鶛
鶜
鶝
鶞
鶠
鶡
鶢
鶣
鶤
鶥
鶧
鶨
鶩
鶪
鶫
鶬
鶮
鶯
鶱
鶲
鶳
鶴
鶵
鶶
鶷
鶸
鶹
鶺
鶻
鶼
鶽
鶾
鶿
鷀
鷁
鷂
鷃
鷄
鷅
鷆
鷇
鷈
鷉
鷊
鷋
鷍
鷎
鷏
鷑
鷒
鷓
鷕
鷖
鷗
鷘
鷙
鷚
鷛
鷜
鷝
鷞
鷟
鷡
鷢
鷤
鷥
鷦
鷧
鷨
鷩
鷪
鷫
鷬
鷭
鷮
鷯
鷰
鷱
鷲
鷳
鷴
鷵
鷶
鷸
鷹
鷺
鷻
鷽
鷾
鷿
鸀
鸁
鸂
鸃
鸅
鸆
鸇
鸈
鸉
鸊
鸌
鸍
鸎
鸏
鸐
鸑
鸒
鸓
鸔
鸕
鸖
鸗
鸘
鸙
鸚
鸛
鸜
鸝
鸞
鸟
鸠
鸡
鸢
鸣
鸤
鸥
鸦
鸧
鸨
鸩
鸪
鸫
鸬
鸭
鸮
鸯
鸰
鸱
鸲
鸳
鸴
鸵
鸶
鸷
鸸
鸹
鸺
鸻
鸼
鸽
鸾
鸿
鹀
鹁
鹂
鹃
鹄
鹅
鹆
鹇
鹈
鹉
鹊
鹋
鹌
鹍
鹎
鹏
鹐
鹑
鹒
鹓
鹔
鹕
鹖
鹗
鹘
鹙
鹚
鹛
鹜
鹝
鹞
鹟
鹠
鹡
鹢
鹣
鹤
鹥
鹦
鹧
鹨
鹩
鹪
鹫
鹬
鹭
鹮
鹯
鹰
鹱
鹲
鹳
鹴
鹵
鹶
鹷
鹸
鹹
鹺
鹻
鹼
鹽
鹾
鹿
麀
麁
麂
麃
麄
麅
麆
麇
麈
麉
麊
麋
麌
麍
麎
麏
麐
麑
麒
麓
麔
麕
麖
麗
麘
麙
麚
麛
麜
麝
麞
麟
麠
麡
麢
麣
麤
麥
麦
麧
麨
麩
麪
麫
麭
麮
麯
麰
麱
麳
麴
麵
麶
麷
麸
麹
麺
麻
麼
麽
麾
麿
黀
黁
黂
黃
黄
黅
黆
黇
黈
黉
黊
黌
黍
黎
黏
黐
黑
黒
黓
黔
黕
黖
黗
默
黙
黚
黛
黜
黝
點
黟
黠
黡
黢
黣
黤
黥
黦
黧
黨
黩
黪
黫
黬
黭
黮
黯
黰
黱
黲
黳
黴
黵
黶
黷
黸
黹
黺
黻
黼
黽
黾
黿
鼀
鼁
鼂
鼃
鼄
鼅
鼆
鼇
鼈
鼉
鼊
鼋
鼌
鼍
鼎
鼏
鼐
鼑
鼒
鼓
鼔
鼕
鼖
鼗
鼘
鼙
鼚
鼛
鼜
鼝
鼞
鼟
鼠
鼡
鼢
鼣
鼤
鼥
鼦
鼧
鼩
鼪
鼫
鼬
鼭
鼮
鼯
鼰
鼱
鼲
鼳
鼴
鼵
鼶
鼷
鼸
鼹
鼺
鼻
鼼
鼽
鼾
鼿
齀
齁
齂
齃
齄
齅
齆
齇
齈
齉
齊
齋
齌
齍
齎
齏
齐
齑
齒
齓
齔
齕
齖
齗
齘
齙
齚
齛
齜
齝
齞
齟
齠
齡
齢
齣
齤
齥
齦
齧
齨
齪
齫
齬
齭
齮
齯
齰
齱
齲
齳
齵
齶
齷
齸
齹
齺
齻
齼
齽
齾
齿
龀
龁
龂
龃
龄
龅
龆
龇
龈
龉
龊
龋
龌
龍
龎
龏
龐
龑
龔
龕
龖
龗
龘
龙
龚
龛
龜
龝
龞
龟
龠
龡
龢
龣
龤
龥
龰
龹
龺
龻
鿃
鿍
鿎
鿏
鿔
鿕
鿞
鿠
鿫
鿬
鿿
ꀋ
ꀒ
ꁈ
ꂤ
ꂵ
ꂷ
ꃄ
ꃅ
ꄡ
ꄬ
ꄿ
ꆃ
ꆈ
ꆨ
ꆪ
ꇁ
ꇊ
ꇖ
ꇗ
ꈎ
ꈐ
ꈵ
ꈿ
ꉙ
ꉳ
ꉸ
ꉼ
ꊖ
ꊨ
ꊰ
ꋍ
ꌅ
ꌕ
ꌠ
ꍓ
ꎖ
ꎭ
ꏂ
ꏃ
ꏅ
ꏦ
ꐎ
꒰
꒱
ꓗ
ꓚ
ꓛ
ꓝ
ꓟ
ꓠ
ꓡ
ꓢ
ꓪ
ꓫ
ꓬ
ꓲ
ꓳ
ꓴ
ꓵ
ꓸ
ꓼ
ꓽ
꓾
꓿
꘍
꘎
꘏
Ꙁ
ꙁ
ꙃ
ꙅ
Ꙇ
ꙇ
Ꙉ
ꙉ
Ꙏ
ꙏ
Ꙑ
ꙑ
ꙓ
ꙕ
Ꙗ
ꙗ
Ꙟ
ꙟ
Ꙡ
ꙡ
Ꙣ
ꙣ
Ꙥ
ꙥ
Ꙧ
ꙧ
Ꙩ
ꙩ
Ꙫ
ꙫ
Ꙭ
ꙭ
ꙮ
꙰
꙱
꙲
꙳
꙾
Ꚁ
ꚁ
Ꚃ
ꚃ
Ꚅ
ꚅ
Ꚉ
ꚉ
Ꚋ
ꚋ
Ꚍ
ꚍ
Ꚏ
ꚏ
Ꚑ
ꚑ
Ꚗ
ꚗ
Ꚙ
ꚙ
Ꚛ
ꚛ
꛲
꛳
꛴
꛵
꛶
꛷
꜀
꜁
꜂
꜃
꜄
꜅
꜆
꜇
꜓
ꜛ
ꜜ
ꜣ
ꜥ
ꜩ
ꜫ
ꜭ
ꝏ
Ꝛ
ꞅ
ꞎ
Ꞓ
Ʞ
ꞵ
ꠁ
ꠇ
ꠊ
ꠍ
ꠐ
ꠘ
ꠟ
ꠣ
ꠤ
꡴
꡵
꡶
꡷
꣎
꣏
꣸
꣹
꣺
꣼
꤮
꤯
꥟
ꦑ
ꦗ
ꦠ
ꦢ
ꦥ
ꦩ
ꦪ
ꦭ
ꦮ
ꦯ
ꦱ
ꦲ
ꦴ
ꦺ
ꦿ
꧀
꧁
꧂
꧃
꧄
꧅
꧆
꧇
꧈
꧉
꧊
꧋
꧌
꧍
꧞
꧟
ꨈ
ꨝ
ꨰ
ꩉ
꩜
꩝
꩞
꩟
꫞
꫟
꫰
꫱
ꭓ
꯫
﨎
﨏
﨑
﨔
﨡
﨣
﨤
﨧
﨨
﨩
ﬀ
ﬁ
ﬂ
ﬃ
ﬄ
ﬅ
ﬆ
ﭼ
ﮪ
ﮭ
ﮮ
ﯩ
﴾
﴿
ﷲ
ﷺ
﷼
︐
︑
︒
︓
︔
︕
︖
︗
︘
︙
︰
︱
︲
︳
︴
︵
︶
︷
︸
︹
︺
︻
︼
︽
︾
︿
﹀
﹁
﹂
﹃
﹄
﹅
﹆
﹇
﹈
﹉
﹊
﹋
﹌
﹍
﹎
﹏
﹐
﹑
﹒
﹔
﹕
﹖
﹗
﹘
﹙
﹚
﹛
﹜
﹝
﹞
﹟
﹠
﹡
﹢
﹣
﹤
﹥
﹦
﹨
﹩
﹪
﹫
ﹰ
ﺁ
ﺍ
ﺎ
ﺐ
ﺑ
ﺒ
ﺓ
ﺔ
ﺙ
ﺝ
ﺡ
ﺣ
ﺤ
ﺩ
ﺪ
ﺭ
ﺮ
ﻉ
ﻋ
ﻌ
ﻍ
ﻐ
ﻓ
ﻔ
ﻕ
ﻙ
ﻞ
ﻟ
ﻠ
ﻣ
ﻧ
ﻪ
ﻫ
ﻬ
ﻭ
ﻮ
ﻱ
ﻲ
ﻴ
ﻻ
＀
！
＂
＃
＄
％
＆
＇
（
）
＊
＋
，
－
．
／
０
１
２
３
４
５
６
７
８
９
：
；
＜
＝
＞
？
＠
Ａ
Ｂ
Ｃ
Ｄ
Ｅ
Ｆ
Ｇ
Ｈ
Ｉ
Ｊ
Ｋ
Ｌ
Ｍ
Ｎ
Ｏ
Ｐ
Ｑ
Ｒ
Ｓ
Ｔ
Ｕ
Ｖ
Ｗ
Ｘ
Ｙ
Ｚ
［
＼
］
＾
＿
｀
ａ
ｂ
ｃ
ｄ
ｅ
ｆ
ｇ
ｈ
ｉ
ｊ
ｋ
ｌ
ｍ
ｎ
ｏ
ｐ
ｑ
ｒ
ｓ
ｔ
ｕ
ｖ
ｗ
ｘ
ｙ
ｚ
｛
｜
｝
～
｟
｠
｡
｢
｣
､
･
ｦ
ｧ
ｨ
ｪ
ｫ
ｬ
ｭ
ｯ
ｰ
ｱ
ｲ
ｳ
ｴ
ｵ
ｶ
ｷ
ｸ
ｹ
ｺ
ｻ
ｼ
ｽ
ｾ
ｿ
ﾀ
ﾁ
ﾂ
ﾃ
ﾄ
ﾅ
ﾆ
ﾈ
ﾉ
ﾊ
ﾋ
ﾌ
ﾍ
ﾎ
ﾏ
ﾐ
ﾑ
ﾒ
ﾓ
ﾔ
ﾕ
ﾗ
ﾘ
ﾙ
ﾚ
ﾛ
ﾜ
ﾝ
ﾞ
ﾟ
ￚ
￠
￡
￢
￣
￤
￥
￦
￭
￮
￳
￼
𐀁
𐀄
𐀈
𐀏
𐀙
𐀣
𐀩
𐀫
𐀭
𐀯
𐀷
𐄀
𐄁
𐄂
𐇐
𐇑
𐇒
𐇓
𐇔
𐇕
𐇖
𐇗
𐇘
𐇙
𐇚
𐇛
𐇜
𐇝
𐇞
𐇟
𐇠
𐇡
𐇢
𐇣
𐇤
𐇥
𐇦
𐇧
𐇨
𐇩
𐇪
𐇫
𐇬
𐇭
𐇮
𐇯
𐇰
𐇱
𐇲
𐇳
𐇴
𐇵
𐇶
𐇷
𐇸
𐇹
𐇺
𐇻
𐇼
𐌀
𐌄
𐌉
𐌓
𐌕
𐌰
𐌳
𐌻
𐌼
𐌿
𐍈
𐎊
𐎌
𐎍
𐎗
𐎛
𐎟
𐎠
𐎡
𐎢
𐎣
𐎧
𐎩
𐎭
𐎰
𐎱
𐎴
𐎶
𐎹
𐎺
𐎼
𐎿
𐏁
𐏂
𐏃
𐏐
𐐷
𐓁
𐓂
𐓏
𐓘
𐓟
𐓣
𐓤
𐓯
𐓻
𐕯
𐡗
𐤀
𐤃
𐤄
𐤅
𐤇
𐤉
𐤌
𐤏
𐤟
𐤿
𐩐
𐩑
𐩒
𐩓
𐩔
𐩕
𐩖
𐩗
𐩘
𐩢
𐩣
𐩧
𐩨
𐩪
𐩬
𐩯
𐩱
𐩵
𐩶
𐩺
𐩽
𐩿
𐫰
𐫱
𐫲
𐫳
𐫴
𐫵
𐫶
𐬹
𐬺
𐬻
𐬼
𐬽
𐬾
𐬿
𐭀
𐭃
𐭉
𐭎
𐭐
𐭓
𐭕
𐭠
𐭢
𐭣
𐭥
𐭦
𐭧
𐭩
𐭪
𐭫
𐭬
𐭭
𐭮
𐭯
𐭱
𐭲
𐮙
𐮚
𐮛
𐮜
𐰇
𐰉
𐰍
𐰛
𐰜
𐰰
𐰲
𐰼
𐱃
𐱅
𐽕
𐽖
𐽗
𐽘
𐽙
𑁇
𑁈
𑁉
𑁊
𑁋
𑁌
𑁍
𑂻
𑂼
𑂾
𑂿
𑃀
𑃁
𑅀
𑅁
𑅂
𑅃
𑅴
𑅵
𑇅
𑇆
𑇇
𑇈
𑇍
𑇛
𑇝
𑇞
𑇟
𑈸
𑈹
𑈺
𑈻
𑈼
𑈽
𑊩
𑑋
𑑌
𑑍
𑑎
𑑏
𑑛
𑑝
𑓆
𑖕
𑖗
𑖦
𑖨
𑖪
𑖫
𑖮
𑖯
𑖰
𑖱
𑗁
𑗂
𑗃
𑗄
𑗅
𑗆
𑗇
𑗈
𑗉
𑗊
𑗋
𑗌
𑗍
𑗎
𑗏
𑗐
𑗑
𑗒
𑗓
𑗔
𑗕
𑗖
𑗗
𑙁
𑙂
𑙃
𑙠
𑙡
𑙢
𑙣
𑙤
𑙥
𑙦
𑙧
𑙨
𑙩
𑙪
𑙫
𑙬
𑜼
𑜽
𑜾
𑠻
𑨿
𑩀
𑩁
𑩂
𑩃
𑩄
𑩅
𑩆
𑪚
𑪛
𑪜
𑪞
𑪟
𑪠
𑪡
𑪢
𑱁
𑱂
𑱃
𑱄
𑱅
𑱰
𑱱
𑻷
𑻸
𒀯
𒀳
𒁺
𒂗
𒃷
𒄿
𒅋
𒅖
𒆕
𒆠
𒈪
𒈬
𒉌
𒉏
𒊏
𒌇
𒌑
𒑰
𒑱
𒑲
𒑳
𒑴
𓁹
𓂋
𓃣
𓃱
𓄿
𓅓
𓅱
𓆎
𓆑
𓆰
𓇋
𓇍
𓇽
𓈉
𓈖
𓊖
𓊪
𓊵
𓍘
𓎡
𓏏
𓏺
𖩮
𖩯
𖫵
𖬄
𖬌
𖬖
𖬝
𖬟
𖬣
𖬷
𖬸
𖬹
𖬺
𖬻
𖭄
𖺗
𖺘
𖺙
𖺚
𛀆
𛲟
𝄫
𝌀
𝐹
𝑃
𝑆
𝑈
𝑝
𝑥
𝑧
𝑮
𝓁
𝕄
𝕊
𝕡
𝖟
𝘋
𝘌
𝘏
𝘐
𝘓
𝘗
𝘛
𝘢
𝘤
𝘥
𝘦
𝘧
𝘨
𝘩
𝘪
𝘭
𝘮
𝘯
𝘰
𝘴
𝘵
𝘺
𝛂
𝛿
𝜋
𝝰
𝝱
𝪇
𝪈
𝪉
𝪊
𝪋
𞄀
𞄂
𞄄
𞄎
𞄐
𞄔
𞄚
𞄤
𞄦
𞄧
𞄩
𞄫
𞄬
𞄰
𞄱
𞄲
𞄳
𞠀
𞠁
𞠂
𞥞
𞥟
🆘
🇧
🇨
🇩
🇪
🇫
🇬
🇭
🇮
🇯
🇰
🇲
🇳
🇵
🇷
🇸
🇹
🇺
🇼
🇾
🈶
🈷
🌈
🌙
🌞
🌟
🌰
🌲
🌳
🌸
🌹
🌺
🌻
🍀
🍁
🍃
🍔
🍣
🍰
🍺
🎀
🎆
🎈
🎞
🎥
🎬
🎵
🎿
🏆
🏻
🏼
🏽
🏾
🏿
🐍
🐎
🐔
🐠
🐢
🐣
🐩
🐭
🐮
🐰
🐱
🐴
🐶
🐷
👀
👂
👃
👄
👅
👇
👈
👉
👋
👌
👏
👑
👗
👠
👡
👣
👧
👨
👩
👯
👺
👻
👿
💀
💄
💉
💋
💎
💐
💓
💙
💚
💝
💤
💧
💩
💪
💻
📅
📡
📢
📱
📺
📻
🔍
🔗
🔝
🔴
🔵
🖕
🖥
🗿
😁
😂
😃
😄
😇
😉
😊
😋
😌
😍
😎
😏
😐
😒
😓
😔
😖
😘
😚
😜
😝
😞
😟
😠
😡
😢
😣
😤
😥
😨
😩
😪
😫
😭
😰
😱
😲
😳
😴
😷
😹
🙈
🙋
🙏
🚀
🚗
🚫
🤣
🥰
🦁
🦋
🧂
𠀀
𠀑
𠀠
𠀤
𠀧
𠀾
𠁁
𠁞
𠁨
𠂇
𠂉
𠃉
𠃊
𠃋
𠃌
𠃍
𠃑
𠃵
𠄌
𠄎
𠄞
𠄩
𠄳
𠄼
𠅤
𠆢
𠆤
𠆭
𠆲
𠇇
𠇖
𠇶
𠇹
𠈅
𠉀
𠊎
𠊚
𠊪
𠊺
𠋆
𠌠
𠌯
𠍀
𠍇
𠍋
𠍲
𠍳
𠎀
𠐓
𠐔
𠐤
𠒇
𠔳
𠔻
𠕇
𠖫
𠗕
𠗟
𠘖
𠘨
𠙴
𠙶
𠚢
𠛅
𠛯
𠝹
𠞊
𠞰
𠟭
𠟼
𠡒
𠡠
𠢳
𠣬
𠤩
𠥀
𠦅
𠦌
𠦝
𠪱
𠪳
𠫊
𠫓
𠫤
𠫾
𠬝
𠬪
𠭯
𠮟
𠮶
𠮷
𠮾
𠮿
𠯆
𠯐
𠯟
𠯠
𠰢
𠰴
𠰷
𠱂
𠱓
𠱞
𠱸
𠱾
𠲍
𠲎
𠳲
𠳼
𠳿
𠴟
𠴲
𠵆
𠵇
𠵱
𠵼
𠶧
𠷈
𠷨
𠸍
𠸪
𠹌
𠺌
𠺕
𠺖
𠺘
𠺢
𠻇
𠻜
𠻠
𠻸
𠻹
𠼇
𠼞
𠼤
𠼪
𠽌
𠾴
𡁻
𡃁
𡃶
𡄣
𡄵
𡈼
𡈾
𡉚
𡉺
𡋣
𡋤
𡋧
𡋱
𡌵
𡍌
𡍲
𡎊
𡎚
𡎜
𡐓
𡐤
𡑞
𡑡
𡑤
𡑵
𡒄
𡒉
𡓁
𡓭
𡓱
𡔈
𡕀
𡕒
𡕧
𡖓
𡗦
𡗨
𡙇
𡚒
𡠄
𡠍
𡠟
𡡉
𡢃
𡣗
𡤕
𡥧
𡥵
𡦂
𡦹
𡧖
𡧽
𡨂
𡨃
𡨊
𡨢
𡨧
𡨸
𡨽
𡩀
𡩄
𡩈
𡩋
𡩏
𡩜
𡩡
𡩢
𡪠
𡪿
𡫁
𡫯
𡬐
𡭕
𡮐
𡮦
𡯁
𡰖
𡰢
𡰣
𡰥
𡰪
𡰳
𡱰
𡳅
𡳞
𡴶
𡴾
𡵻
𡶀
𡶛
𡶦
𡶲
𡶴
𡷗
𡸷
𡹘
𡹮
𡹾
𡺃
𡺄
𡺭
𡺯
𡺿
𡼹
𡽪
𡽫
𡽹
𡾊
𡾣
𡾼
𡿂
𡿨
𢀓
𢀖
𢀛
𢀿
𢁫
𢃇
𢃢
𢄂
𢄙
𢄺
𢆡
𢆥
𢆯
𢆶
𢇲
𢊄
𢋡
𢌛
𢍘
𢎘
𢐗
𢑥
𢒉
𢓨
𢔀
𢔶
𢕌
𢕟
𢖍
𢖥
𢘅
𢘆
𢘥
𢘿
𢙏
𢙐
𢙒
𢙓
𢚂
𢚝
𢜬
𢠁
𢢀
𢢝
𢢼
𢣐
𢣢
𢣴
𢤮
𢤱
𢥧
𢦏
𢧤
𢫆
𢫬
𢫾
𢬍
𢭀
𢯦
𢱟
𢱿
𢲵
𢳂
𢳚
𢴩
𢵄
𢶍
𢶏
𢶜
𢷋
𢹂
𢺋
𢼄
𢽲
𢽴
𢽾
𣁦
𣁳
𣁽
𣂺
𣃁
𣄃
𣅠
𣇐
𣇫
𣈥
𣈱
𣈴
𣉙
𣉿
𣊫
𣊬
𣋉
𣍇
𣍏
𣍐
𣍯
𣍰
𣎑
𣎴
𣎵
𣏌
𣏙
𣏞
𣏢
𣏴
𣐅
𣐕
𣐙
𣐤
𣐿
𣑚
𣑮
𣒃
𣒌
𣒱
𣒻
𣓞
𣓿
𣔌
𣔾
𣕃
𣕅
𣕲
𣗊
𣗋
𣗖
𣘁
𣘖
𣘴
𣙜
𣙼
𣚅
𣚏
𣚒
𣚚
𣚣
𣚦
𣚴
𣛣
𣛧
𣛮
𣜥
𣜬
𣝗
𣟄
𣡊
𣡌
𣣄
𣦻
𣨼
𣫏
𣬌
𣬠
𣬶
𣭈
𣭻
𣮤
𣰋
𣱝
𣱧
𣲗
𣲘
𣲤
𣲶
𣲷
𣲸
𣳫
𣴓
𣴖
𣴛
𣴣
𣵧
𣶏
𣶒
𣶩
𣶬
𣷭
𣸑
𣸣
𣸵
𣹟
𣹩
𣺺
𣺼
𣽤
𣽷
𣾢
𣾷
𣿅
𣿈
𣿭
𣿰
𤀹
𤂂
𤂬
𤄫
𤄷
𤅶
𤅷
𤆬
𤆵
𤆼
𤇃
𤇄
𤇜
𤇥
𤇭
𤇹
𤇼
𤈇
𤈜
𤈦
𤈶
𤉎
𤊐
𤊞
𤊟
𤊥
𤊨
𤊹
𤊻
𤋏
𤋮
𤌙
𤍘
𤎤
𤏳
𤏸
𤐤
𤑐
𤒩
𤒹
𤓂
𤓓
𤓪
𤓯
𤔡
𤕶
𤗶
𤘣
𤛎
𤝱
𤞃
𤞚
𤞤
𤞽
𤟤
𤟥
𤠣
𤢂
𤢗
𤣎
𤣥
𤣯
𤣰
𤣲
𤣹
𤣾
𤤁
𤤥
𤤦
𤤴
𤤺
𤤽
𤥒
𤥖
𤥢
𤥽
𤦀
𤦃
𤦎
𤦏
𤦲
𤧛
𤧣
𤨒
𤨠
𤩝
𤩪
𤩰
𤩹
𤩽
𤪉
𤪌
𤪙
𤪸
𤫉
𤬜
𤬪
𤭖
𤯔
𤰞
𤲅
𤴓
𤶊
𤷪
𤺧
𤽸
𤾀
𤾩
𤾫
𤿲
𥀖
𥃇
𥄳
𥆧
𥇍
𥇦
𥌓
𥍉
𥐟
𥐻
𥑮
𥒓
𥒖
𥒥
𥒦
𥔲
𥔿
𥕟
𥕢
𥖨
𥖩
𥗐
𥗝
𥗽
𥘥
𥙔
𥙫
𥙿
𥚃
𥚻
𥛰
𥜃
𥝱
𥞋
𥟍
𥠋
𥠢
𥡴
𥡷
𥣰
𥤱
𥦬
𥧌
𥩟
𥪰
𥫃
𥫣
𥫩
𥬞
𥬠
𥮾
𥴊
𥴨
𥸷
𥹆
𥹉
𥺊
𥺦
𥺪
𥻵
𥻹
𥾪
𥿝
𦀚
𦀰
𦀸
𦁄
𦃿
𦄿
𦅜
𦅫
𦇗
𦈉
𦈋
𦈌
𦈎
𦈏
𦈐
𦈑
𦈔
𦈚
𦈛
𦈝
𦈡
𦉢
𦉩
𦊚
𦍋
𦍌
𦐣
𦐥
𦐿
𦑘
𦒅
𦒎
𦒹
𦓿
𦔐
𦖛
𦖟
𦘗
𦘦
𦙍
𦙒
𦙶
𦛨
𦜐
𦜳
𦝼
𦠿
𦣻
𦤎
𦥑
𦧲
𦧺
𦨭
𦩍
𦪙
𦬨
𦭒
𦭜
𦭼
𦮙
𦰏
𦰡
𦱡
𦱢
𦱶
𦳋
𦳩
𦳲
𦵚
𦶜
𦶟
𦸉
𦹗
𦹛
𦺍
𦺻
𦻐
𦻙
𦻼
𦼖
𦾡
𦿏
𧀄
𧀲
𧁇
𧃍
𧃝
𧃲
𧆬
𧈢
𧈫
𧉚
𧉢
𧊀
𧊉
𧊒
𧊕
𧊲
𧌇
𧎜
𧎥
𧎾
𧏖
𧏗
𧏛
𧏡
𧏿
𧐴
𧐶
𧑏
𧑒
𧑙
𧒻
𧒽
𧓌
𧔊
𧔢
𧔥
𧖣
𧖽
𧗞
𧗠
𧗽
𧘹
𧙈
𧙗
𧙥
𧝁
𧝝
𧞔
𧟘
𧟰
𧢯
𧣌
𧤛
𧦦
𧦴
𧨳
𧩙
𧩡
𧪚
𧫻
𧬆
𧭈
𧮪
𧮫
𧯄
𧯢
𧯦
𧰵
𧴛
𧴭
𧵅
𧵏
𧶛
𧶠
𧶽
𧷡
𧷨
𧸘
𧹖
𧹗
𧹼
𧺯
𧽚
𧽻
𧿃
𧿆
𧿹
𨀁
𨀤
𨀴
𨁂
𨃚
𨃴
𨄫
𨅬
𨇆
𨇗
𨈓
𨉗
𨉹
𨊛
𨋄
𨋢
𨌥
𨌷
𨍭
𨏩
𨐅
𨐈
𨑨
𨑮
𨒂
𨕥
𨕱
𨙶
𨙷
𨙻
𨚗
𨚢
𨚲
𨜳
𨝥
𨞓
𨞚
𨠣
𨢇
𨣏
𨤎
𨤲
𨤸
𨥈
𨥌
𨥙
𨥤
𨦡
𨦫
𨧀
𨧆
𨧨
𨨏
𨨗
𨨞
𨨢
𨨣
𨪦
𨫃
𨫊
𨬐
𨬔
𨭆
𨭉
𨭎
𨭖
𨭘
𨮁
𨮞
𨮫
𨯵
𨰃
𨰎
𨰘
𨰜
𨰞
𨰥
𨰾
𨰿
𨱁
𨱂
𨱃
𨱄
𨱅
𨱆
𨱇
𨱈
𨱉
𨱋
𨱌
𨱍
𨱎
𨱏
𨱑
𨱒
𨱓
𨱔
𨲠
𨲢
𨳊
𨳍
𨳒
𨴱
𨶒
𨶙
𨸂
𨸃
𨸏
𨻧
𨻰
𨻻
𨻽
𨼪
𨽌
𨾿
𩀱
𩂍
𩃎
𩃙
𩃳
𩄍
𩄢
𩅦
𩅼
𩅽
𩆃
𩆜
𩆩
𩇐
𩇛
𩇯
𩈶
𩋤
𩎚
𩐅
𩑠
𩒛
𩓋
𩓥
𩔇
𩕏
𩕩
𩖃
𩖖
𩗬
𩗴
𩙣
𩙥
𩙪
𩙫
𩙻
𩙿
𩛿
𩜁
𩜱
𩜶
𩜼
𩟔
𩠌
𩡤
𩣑
𩣡
𩦸
𩧨
𩧪
𩧫
𩧯
𩧲
𩧴
𩧺
𩨀
𩨂
𩨄
𩨈
𩨊
𩫵
𩫻
𩫾
𩬆
𩭹
𩱈
𩲃
𩳁
𩵚
𩵦
𩶆
𩶉
𩶘
𩶚
𩶤
𩶯
𩷍
𩷓
𩷕
𩷶
𩹄
𩹇
𩹲
𩹷
𩹽
𩺬
𩺼
𩻸
𩼅
𩼣
𩽾
𩾀
𩾁
𩾃
𩾇
𩾌
𩿧
𪀘
𪁺
𪂡
𪃿
𪄳
𪆒
𪇱
𪇼
𪈮
𪈻
𪈿
𪉃
𪉆
𪉈
𪉊
𪉍
𪉑
𪉖
𪊨
𪎉
𪎊
𪎌
𪎭
𪏆
𪏙
𪔠
𪕌
𪕨
𪖈
𪗋
𪗾
𪘅
𪘲
𪘵
𪙴
𪙻
𪚥
𪜈
𪜳
𪞝
𪟝
𪠘
𪠳
𪠸
𪠽
𪡀
𪡃
𪡋
𪡏
𪡞
𪢕
𪢠
𪢮
𪢸
𪣆
𪣒
𪣻
𪤗
𪤚
𪥫
𪥰
𪥿
𪧀
𪧘
𪨗
𪨧
𪨶
𪨷
𪩎
𪩘
𪩸
𪪞
𪪼
𪫌
𪫺
𪬦
𪭢
𪭧
𪭵
𪭾
𪮖
𪮶
𪰶
𪱣
𪱥
𪱷
𪲎
𪲔
𪲛
𪲮
𪳍
𪴑
𪴙
𪵑
𪵣
𪵱
𪶄
𪷽
𪸕
𪸩
𪹚
𪹳
𪺭
𪺷
𪺽
𪻐
𪻨
𪻲
𪻶
𪻺
𪽈
𪽪
𪽷
𪾔
𪾢
𪾣
𪾦
𪾸
𪿫
𫁟
𫁡
𫁿
𫂃
𫂆
𫄙
𫄛
𫄟
𫄠
𫄡
𫄢
𫄤
𫄥
𫄧
𫄨
𫄫
𫄬
𫄭
𫄰
𫄱
𫄲
𫄳
𫄴
𫄶
𫄷
𫄸
𫄹
𫅗
𫆏
𫇛
𫇭
𫇴
𫇽
𫈉
𫈎
𫈟
𫈰
𫈵
𫉁
𫉄
𫊮
𫊸
𫊻
𫋇
𫋌
𫋷
𫋹
𫋻
𫌀
𫌇
𫌨
𫌪
𫌭
𫍙
𫍚
𫍛
𫍜
𫍡
𫍢
𫍣
𫍤
𫍥
𫍦
𫍧
𫍨
𫍩
𫍪
𫍬
𫍮
𫍯
𫍰
𫍱
𫍲
𫍳
𫍴
𫍵
𫍷
𫍸
𫍹
𫍻
𫍽
𫎆
𫎌
𫎦
𫎩
𫎫
𫎬
𫏃
𫏆
𫏋
𫏐
𫐄
𫐅
𫐆
𫐇
𫐈
𫐉
𫐊
𫐌
𫐎
𫐏
𫐐
𫐑
𫐒
𫐓
𫐕
𫐖
𫐗
𫐘
𫐙
𫐷
𫑘
𫑡
𫑷
𫒢
𫓥
𫓦
𫓧
𫓨
𫓩
𫓪
𫓬
𫓭
𫓯
𫓰
𫓱
𫓲
𫓴
𫓵
𫓶
𫓸
𫓹
𫓺
𫓻
𫓽
𫓾
𫔂
𫔄
𫔅
𫔇
𫔈
𫔊
𫔌
𫔍
𫔎
𫔔
𫔯
𫔰
𫔴
𫔶
𫕥
𫖃
𫖇
𫖒
𫖔
𫖮
𫖯
𫖳
𫖶
𫖹
𫗋
𫗠
𫗢
𫗥
𫗦
𫗧
𫗩
𫗪
𫗬
𫗮
𫗴
𫗵
𫘛
𫘜
𫘝
𫘞
𫘟
𫘠
𫘡
𫘣
𫘤
𫘥
𫘦
𫘧
𫘨
𫘩
𫘪
𫘫
𫘬
𫘭
𫘯
𫘰
𫘱
𫘽
𫙮
𫚈
𫚉
𫚊
𫚋
𫚌
𫚍
𫚑
𫚒
𫚓
𫚔
𫚕
𫚖
𫚗
𫚙
𫚛
𫚞
𫚡
𫚢
𫚣
𫚤
𫚥
𫚦
𫚧
𫚪
𫚫
𫚭
𫛚
𫛛
𫛜
𫛝
𫛞
𫛟
𫛡
𫛢
𫛤
𫛥
𫛦
𫛨
𫛩
𫛪
𫛫
𫛭
𫛯
𫛱
𫛳
𫛴
𫛵
𫛶
𫛷
𫛸
𫛽
𫜀
𫜁
𫜃
𫜄
𫜑
𫜪
𫜬
𫜭
𫜰
𫜲
𫝨
𫝩
𫝫
𫝬
𫝭
𫝮
𫞚
𫞠
𫞡
𫞥
𫞦
𫞨
𫞩
𫟃
𫟄
𫟅
𫟆
𫟞
𫟟
𫟠
𫟡
𫟲
𫟴
𫟵
𫟶
𫟷
𫟸
𫟹
𫟻
𫟼
𫟿
𫠁
𫠂
𫠅
𫠆
𫠋
𫠐
𫠒
𫠜
𫡰
𫧃
𫫇
𫲨
𫵾
𫾻
𬀩
𬃉
𬅠
𬇙
𬉺
𬊌
𬋞
𬌗
𬒗
𬓋
𬓑
𬘓
𬘩
𬜢
𬞟
𬟏
𬩽
𬬭
𬬻
𬭊
𬭎
𬭛
𬭩
𬭳
𬭶
𬭸
𬱟
𬲱
𬴊
𬶏
𬶐
𬶮
𬸦
𬺈
𬻷
𬼂
𬼷
𭁇
𭅃
𭍻
𭑊
𭑭
𭖂
𭚥
𭤪
𭥟
𭨡
𭫪
𭴊
𮄫
𮓠
𮡶
𮢅
𮥹
𰇠
𰉬
𰊊
𰊺
𰋀
𰗤
𰚼
𰡉
𰡓
𰥏
𰯼
𰻞
𰽽
##H
##O
##k
##W
##h
##y
##u
##a
##n
##s
##f
##e
##t
##4
##2
##1
##0
##9
##3
##i
##v
##r
##o
##L
##d
##8
##c
##p
##7
##5
##6
##い
##え
##は
##l
##q
##m
##z
##７
##○
##╮
##g
##j
##I
##V
##b
##x
##E
##र
##ष
##w
##A
##S
##P
##C
##K
##M
##ʰ
##N
##D
##U
##T
##G
##е
##с
##я
##т
##к
##и
##ゃ
##け
##ん
##B
##R
##F
##J
##て
##ー
##ト
##ル
##Q
##Z
##Ｆ
##よ
##く
##に
##し
##Y
##ᅧ
##ᄒ
##ᅬ
##а
##щ
##н
##м
##च
##ㄋ
##ᅩ
##ᆽ
##ᄅ
##ᅵ
##ᆫ
##ᄋ
##ホ
##イ
##Ｈ
##Ａ
##υ
##σ
##ι
##π
##ο
##ς
##ˠ
##ɾ
##ː
##р
##о
##X
##ᅡ
##ᆼ
##る
##ク
##ラ
##シ
##ッ
##ы
##б
##Б
##л
##ю
##д
##ᆸ
##れ
##な
##た
##г
##お
##め
##つ
##ێ
##ن
##د
##ر
##ۆ
##こ
##と
##か
##ら
##ケ
##ム
##æ
##Η
##ま
##っ
##Ｑ
##０
##８
##ン
##キ
##テ
##を
##み
##ш
##ɡ
##ʌ
##●
##ュ
##ア
##う
##す
##ᄆ
##ᅮ
##ᆷ
##´
##ｕ
##ｃ
##ｋ
##ð
##ロ
##コ
##の
##タ
##Ｅ
##Ｍ
##Ｐ
##マ
##و
##ل
##ي
##ة
##フ
##ハ
##ウ
##ス
##ツ
##ß
##ə
##Ð
##ョ
##ほ
##レ
##ャ
##カ
##ヤ
##ø
##τ
##ɔ
##ょ
##ち
##ᅢ
##ᄉ
##ε
##さ
##ゅ
##┅
##１
##６
##き
##⑥
##④
##②
##①
##⑤
##в
##↓
##ろ
##ʃ
##ɛ
##ɪ
##þ
##わ
##э
##з
##і
##オ
##ᄀ
##ᅣ
##ァ
##ᆯ
##⑦
##③
##ˈ
##ʐ
##ʷ
##ᄇ
##ᄌ
##ר
##י
##פ
##ע
##ט
##ש
##ק
##क
##ा
##ว
##ค
##ณ
##เ
##อ
##ง
##３
##５
##り
##も
##２
##ａ
##ェ
##đ
##ម
##ж
##￣
##ા
##ર
##સ
##ી
##ц
##ᅪ
##ᄐ
##Ｓ
##Ｊ
##Ｙ
##そ
##า
##ร
##ก
##ษ
##あ
##や
##ネ
##ナ
##９
##α
##ρ
##В
##ォ
##А
##Л
##И
##Н
##ъ
##４
##ᅱ
##ь
##ᄃ
##ا
##س
##β
##へ
##リ
##ィ
##ч
##サ
##せ
##ノ
##エ
##Ｏ
##Ｃ
##ｓ
##у
##▼
##ヘ
##ᆾ
##ᅴ
##ｘ
##ｗ
##ｔ
##＋
##ｂ
##セ
##ʲ
##ɐ
##ヒ
##ミ
##ニ
##ᅦ
##ᅥ
##モ
##ぇ
##◇
##◆
##ە
##θ
##Ⓡ
##ｒ
##ｉ
##ｌ
##ｅ
##ぬ
##Ｄ
##Ｉ
##ూ
##ᨑ
##ᨙ
##ᨄ
##チ
##∞
##∧
##ಕ
##ಷ
##ಣ
##ו
##ふ
##Ｌ
##Ｂ
##ђ
##ｎ
##ゆ
##Σ
##Χ
##Υ
##Ε
##Ι
##ぃ
##む
##ʁ
##ｏ
##λ
##δ
##η
##ｐ
##ひ
##┬
##│
##ʾ
##ᄂ
##ᆨ
##ɒ
##ʿ
##ق
##ı
##ｄ
##ˋ
##˥
##ｍ
##ล
##ย
##ม
##ต
##п
##χ
##Ｋ
##ɫ
##ŋ
##व
##त
##ω
##√
##×
##Ω
##γ
##κ
##Ｇ
##Ｔ
##х
##ɦ
##С
##Ж
##Д
##њ
##Ⅱ
##ᵻ
##ส
##ไ
##ท
##ˇ
##ㄧ
##ㄡ
##ɑ
##ぉ
##េ
##ច
##ព
##⑸
##⑻
##ҡ
##ソ
##ᄎ
##ɣ
##ʊ
##ｙ
##ᄁ
##ल
##ヲ
##□
##＜
##ᅲ
##ो
##ग
##य
##ज
##ʔ
##ㄠ
##स
##ी
##द
##Т
##ⅱ
##ʼ
##ރ
##އ
##ތ
##ޅ
##ב
##メ
##ν
##ᄑ
##ᅳ
##µ
##ڠ
##œ
##ပ
##ြ
##င
##ㄣ
##─
##┴
##┐
##ぁ
##א
##ל
##ی
##ت
##ک
##ہ
##م
##Ｕ
##⒏
##ł
##⒋
##ա
##յ
##ね
##★
##ب
##ع
##ك
##ɽ
##ת
##Φ
##▽
##ｖ
##°
##∠
##❸
##❶
##ם
##ｈ
##ｇ
##￥
##μ
##Ө
##＝
##ظ
##ف
##ʻ
##ɻ
##Ｒ
##ゥ
##ᅯ
##น
##ヌ
##𐇧
##𐇣
##𐇛
##⒕
##Ρ
##Ο
##ㄢ
##ᆻ
##ᆭ
##ה
##ր
##գ
##մ
##ն
##չ
##ց
##ɤ
##ᄏ
##☆
##└
##├
##┼
##┤
##╭
##┘
##╯
##ǝ
##ヨ
##П
##ى
##ز
##ۇ
##ေ
##က
##ာ
##း
##လ
##ˊ
##ㄓ
##կ
##տ
##ո
##ղ
##ւ
##թ
##ի
##ե
##দ
##া
##ワ
##º
##━
##═
##ѣ
##ห
##ด
##▲
##╳
##ه
##ʂ
##ผ
##ข
##ܠ
##ܝ
##ब
##∽
##ᴇ
##⒗
##😳
##Δ
##φ
##Ｎ
##ᅭ
##ط
##⁄
##О
##บ
##ㄚ
##מ
##ן
##▂
##ψ
##⒂
##←
##↙
##↘
##→
##ح
##ถ
##โ
##ศ
##พ
##ช
##㈡
##ㄥ
##ս
##𝘤
##𝘰
##𝘯
##𝘮
##𝘺
##ª
##ص
##ি
##ল
##ক
##Е
##Ә
##І
##У
##ʎ
##ฒ
##¤
##Ｖ
##ʒ
##ء
##ħ
##ˤ
##ใ
##Ｘ
##Π
##ะ
##म
##थ
##ျ
##မ
##စ
##⑧
##⑨
##┛
##ཙ
##ག
##ぅ
##ः
##ʝ
##ⲁ
##ⲡ
##Ф
##ᄊ
##𒊏
##𒅋
##┏
##┓
##┃
##Р
##К
##∇
##Ｚ
##נ
##ד
##＞
##♀
##¨
##Τ
##ང
##ɯ
##ฐ
##ธ
##จ
##┈
##╃
##ج
##┨
##ф
##⊥
##∥
##Ѡ
##Ъ
##ங
##க
##ள
##ش
##Œ
##خ
##ｷ
##ﾝ
##ｿ
##ﾞ
##ｯ
##ｸ
##ﾓ
##ｽ
##ﾀ
##ｰ
##ۈ
##چ
##¢
##ா
##ஞ
##ச
##ப
##ு
##ர
##ம
##ា
##ន
##⊙
##ী
##አ
##ሕ
##ዛ
##ብ
##ᥣ
##ᥢ
##ᥰ
##М
##｜
##ᥦ
##∶
##ㄌ
##ɚ
##ट
##ᥨ
##ᥝ
##Ø
##ㄛ
##～
##ि
##Γ
##ې
##𐇨
##𐇵
##𐇐
##ㄎ
##ܫ
##ܚ
##ܬ
##ܐ
##¦
##®
##ſ
##ह
##ξ
##￡
##￠
##♂
##≈
##≡
##∷
##∮
##∑
##∈
##ᠡ
##ᠴ
##ᠨ
##ㄇ
##ㄨ
##ᐦ
##ᐃ
##ᔭ
##ᐍ
##ᐏ
##ᐣ
##𐩨
##𐩱
##⒎
##ˀ
##ܕ
##ᄍ
##प
##ј
##ㄏ
##ㄜ
##ث
##ח
##ಾ
##ಂ
##ಡ
##ು
##ರ
##ಗ
##｀
##ɮ
##ذ
##≤
##⒒
##ম
##প
##Æ
##ɜ
##ำ
##Ц
##Э
##😒
##न
##ʀ
##ユ
##±
##བ
##ћ
##┌
##ץ
##╘
##╛
##ᆹ
##ﾆ
##ﾊ
##ｻ
##ﾙ
##ऽ
##∗
##դ
##ը
##غ
##Ш
##Х
##ᅨ
##║
##┗
##𐇗
##𐇜
##ა
##ោ
##ប
##រ
##ៈ
##ண
##ட
##ி
##ய
##ⅲ
##╢
##ೂ
##ೕ
##ˌ
##⑷
##Ⅵ
##ㄝ
##■
##ﾄ
##ﾌ
##ﾟ
##گ
##△
##ɬ
##ɟ
##Ⅲ
##၆
##၉
##छ
##ㄉ
##≥
##꜀
##＾
##˙
##ـ
##Ⅴ
##Ⅻ
##ʑ
##▅
##⠕
##⠂
##⠛
##⠫
##⠁
##⠀
##⠞
##⠲
##⠹
##⠍
##⠦
##⠒
##რ
##ძ
##ო
##ლ
##ⁿ
##ስ
##ታ
##ን
##ቲ
##ኖ
##ᆮ
##❷
##❹
##❺
##ㄤ
##ғ
##ে
##ট
##ဂ
##ض
##⽅
##𐇷
##𐇲
##ᇂ
##ھ
##ན
##ｊ
##▁
##ⱨ
##צ
##պ
##ٹ
##ז
##ⲓ
##ⲙ
##ϩ
##ｆ
##▌
##উ
##ন
##ই
##ড
##ζ
##ો
##દ
##כ
##ס
##⿲
##চ
##Ｗ
##ᇁ
##ㄘ
##য
##∴
##ල
##ත
##ව
##ᠠ
##ㄊ
##ˉ
##ত
##ঃ
##স
##থ
##🍰
##ゎ
##ད
##㈤
##⑺
##㈠
##㈥
##⑵
##㈣
##々
##ᧂ
##⾏
##Ⅶ
##╧
##£
##Ւ
##ស
##ទ
##ៅ
##យ
##វ
##ត
##ɲ
##ण
##ڈ
##ɳ
##ɖ
##ʳ
##〓
##﹥
##😥
##વ
##ન
##જ
##ⱦ
##ㄩ
##ﾘ
##ｦ
##Α
##Ν
##З
##Я
##բ
##հ
##↑
##ә
##ड
##Ⅳ
##ⲉ
##ⲛ
##ⲟ
##ⲩ
##ϯ
##ヽ
##แ
##ป
##ᄈ
##╋
##Ч
##ڊ
##゜
##ｶ
##ﾏ
##ᆰ
##ゝ
##ฤ
##𐇢
##ས
##┣
##ⅹ
##ｚ
##┊
##Ս
##Հ
##ɿ
##پ
##⊿
##ƿ
##ʉ
##÷
##∝
##∨
##∏
##∪
##∩
##∵
##≌
##⌒
##ɕ
##ㅂ
##ㅍ
##Ю
##ף
##კ
##ე
##დ
##ნ
##ი
##ാ
##ര
##സ
##ി
##റ
##ג
##ಭ
##ದ
##▉
##ɞ
##ⱪ
##⒅
##ᆺ
##ㆩ
##┾
##ㄟ
##Λ
##Ɔ
##ⴽ
##ⴻ
##ⵏ
##வ
##Κ
##љ
##ध
##ں
##Ψ
##😍
##ல
##┳
##๒
##๓
##▄
##∣
##መ
##ራ
##╲
##ግ
##ญ
##ల
##ం
##ব
##র
##ར
##◎
##ₐ
##ˢ
##ү
##ㄗ
##ㄙ
##თ
##ვ
##ბ
##⒌
##Ⅰ
##ꂷ
##ꏂ
##ꌅ
##ཀ
##▔
##ฟ
##ฬ
##ภ
##ণ
##ㄆ
##ƞ
##ʹ
##ᚢ
##ᛏ
##ᚨ
##ᚾ
##ᛁ
##ᛟ
##ᚹ
##█
##ڭ
##క
##ట
##³
##জ
##շ
##ന
##ത
##യ
##Θ
##▍
##┫
##Đ
##ᄄ
##∫
##ং
##ゐ
##Β
##Ξ
##ʋ
##श
##ɨ
##ረ
##ሪ
##╩
##╬
##╰
##ㆬ
##ఠ
##Ы
##ք
##Г
##ფ
##ხ
##ზ
##ს
##ʽ
##ດ
##ຕ
##ຍ
##ະ
##ன
##த
##ృ
##⒆
##😄
##Ⅹ
##⑶
##Ь
##¬
##ည
##ထ
##သ
##တ
##န
##အ
##ရ
##Щ
##╱
##ҷ
##ɰ
##㏑
##ჯ
##ⵎ
##ⴷ
##ⴰ
##𐭉
##𐭓
##𐭃
##𐭕
##ѧ
##┦
##ө
##າ
##ສ
##ບ
##ໂ
##ທ
##၂
##၈
##၇
##ञ
##😘
##⒔
##ཆ
##ⵓ
##ⵔ
##💉
##🙏
##ौ
##ង
##ក
##ជ
##ձ
##ɉ
##ټ
##╊
##↖
##↗
##˩
##⑩
##փ
##խ
##ை
##Ⅺ
##ˑ
##ㆲ
##ヱ
##ㄔ
##ㄕ
##ㄖ
##🇸
##⁸
##┄
##ែ
##ອ
##𐎠
##𐎼
##𐎹
##𐎢
##𐏁
##▃
##▆
##ঙ
##ৰ
##ɹ
##घ
##མ
##℡
##♫
##╡
##ދ
##ޕ
##ꊖ
##ꃅ
##ꈎ
##ꏅ
##ｲ
##ᥧ
##ꜜ
##∕
##ˣ
##ʏ
##ခ
##լ
##վ
##ழ
##ई
##𝘧
##🍣
##ｑ
##⒚
##ㅅ
##😱
##హ
##న
##ర
##ు
##⒊
##⒉
##ޝ
##ങ
##ക
##┷
##ㄅ
##ᇀ
##ㆿ
##ᥫ
##ᥒ
##ᥱ
##∆
##ռ
##ջ
##♪
##⒍
##⒐
##⒑
##ᖓ
##ᐅ
##ᓐ
##ゑ
##ჳ
##उ
##ᅫ
##ལ
##⒁
##ⵍ
##ˡ
##ܘ
##ܪ
##ܡ
##ཅ
##⋯
##ʱ
##ㄐ
##ර
##ෙ
##ෂ
##ඨ
##ා
##ධ
##ක
##ණ
##ය
##ញ
##ಮ
##ಯ
##ሬ
##ਰ
##ਿ
##ਮ
##ਦ
##⑫
##ฉ
##ટ
##ນ
##ລ
##〇
##ဆ
##𖬟
##ẞ
##−
##ײ
##⑹
##⑼
##⑽
##⒓
##⒖
##⒘
##⒙
##⒛
##⑾
##⑿
##⒀
##⒃
##⒄
##⒇
##ㄞ
##ए
##©
##ເ
##ກ
##ठ
##ⵉ
##˨
##˦
##ჟ
##უ
##Ն
##Ծ
##Ե
##ះ
##ܦ
##ܟ
##゛
##হ
##ঞ
##ۋ
##𐇻
##ᮝ
##ᵑ
##ঠ
##ஐ
##Ζ
##𐭯
##𐭠
##𐭧
##𐭲
##ງ
##ষ
##ヰ
##┽
##య
##ణ
##ᥳ
##ˁ
##🌺
##ᆿ
##ｫ
##ﾗ
##ວ
##ມ
##ெ
##٢
##٩
##٨
##ဟ
##ဝ
##ယ
##ↀ
##╀
##┮
##┞
##┯
##┰
##┭
##┍
##┑
##┠
##┿
##┱
##▏
##◢
##ᆲ
##⼆
##ਾ
##ਹ
##ਬ
##ល
##😭
##☺
##¯
##ᦎ
##ᧉ
##ᦆ
##ᦳ
##ᠢ
##ᠮ
##ᠳ
##ᠥ
##ᠷ
##ᠵ
##ನ
##ಪ
##ᑭ
##ᖅ
##ᑖ
##ᓗ
##ᒃ
##ꓲ
##ꓸ
##ঝ
##ⲏ
##¸
##ৱ
##গ
##ႄ
##ڵ
##ந
##ே
##Þ
##𐇡
##គ
##ភ
##Μ
##ӏ
##🌲
##भ
##ဖ
##ၿ
##¥
##ﾃ
##ｬ
##ﾋ
##ǁ
##▶
##ໄ
##ຟ
##ܒ
##ㅇ
##ㅌ
##ซ
##ਤ
##ਸ
##ᆩ
##ƀ
##చ
##ప
##მ
##ஜ
##ㄈ
##ㄑ
##ಸ
##ಥ
##👉
##Ӏ
##ᩅ
##ᩃ
##ᩣ
##ᨵ
##ᨾ
##ஸ
##Ϲ
##ㄍ
##ூ
##ₓ
##ㄦ
##ㄒ
##ɝ
##ॉ
##㈢
##㈦
##𐇸
##⺌
##ᠤ
##শ
##𓏺
##𓈖
##𓆎
##𓅓
##𓏏
##𓊖
##ޑ
##ಳ
##▎
##⑴
##ຣ
##ㄷ
##қ
##ƙ
##┝
##𒁺
##𒈬
##ദ
##𖬣
##ཿ
##ѵ
##և
##ዕ
##๕
##◡
##╹
##🇧
##ណ
##զ
##න
##ｱ
##ຄ
##ຫ
##ຽ
##ຈ
##લ
##℃
##╚
##╝
##ღ
##⋚
##╄
##Վ
##ⵙ
##ⵃ
##ⵡ
##ⵢ
##ཞ
##ȣ
##ﬁ
##ܣ
##𐇼
##𐇖
##ڤ
##ᴀ
##ױ
##┉
##ᓄ
##ᓱ
##ˆ
##ｾ
##ㆵ
##ך
##ற
##♥
##የ
##ደ
##འ
##ㅎ
##😞
##＄
##ฏ
##ѥ
##𐇮
##𐇩
##ક
##શ
##𐭦
##𐭣
##𐭪
##ｨ
##ᥴ
##≦
##ㅊ
##Ɛ
##ཤ
##𐇱
##𐇦
##ꠤ
##ꠟ
##ꠐ
##😔
##ᅤ
##ᧅ
##ᦰ
##ᶇ
##ⱬ
##ݢ
##ཚ
##◤
##ᡳ
##ᡠ
##ᡥ
##ᡵ
##𐇝
##ヶ
##ٽ
##ѡ
##𐭥
##𐭫
##𐭢
##𐭭
##ᡝ
##ƶ
##ප
##𐎣
##𐎴
##ꨰ
##ꨈ
##ꩉ
##⃝
##ﾛ
##ᠣ
##ᡴ
##ᡨ
##ᠪ
##№
##ይ
##ﻪ
##ﻣ
##ᥤ
##Ⅷ
##ճ
##ㅋ
##ං
##හ
##┻
##ƹ
##ᶦ
##⌃
##⌥
##⇧
##⇪
##ҙ
##≧
##ᥭ
##ᥘ
##ⵊ
##ට
##Ꭶ
##Ꭸ
##Ᏹ
##┆
##ⵛ
##ឡ
##👠
##ƽ
##ཉ
##ㅈ
##ᵽ
##შ
##ਗ
##ੜ
##ଂ
##ଶ
##ㆴ
##ㆠ
##ㆦ
##﹢
##Ə
##ཏ
##ཨ
##╟
##ฎ
##ㆭ
##გ
##Ա
##𐌄
##ʕ
##ම
##ජ
##ද
##ɴ
##𐇺
##է
##〵
##ܢ
##₄
##▇
##ɥ
##🇳
##ው
##⿱
##ಬ
##ㄫ
##ꓬ
##ꓽ
##ङ
##ｳ
##ｺ
##〒
##ฮ
##ਜ
##ੀ
##ভ
##ƚ
##┇
##ﬂ
##స
##త
##𐇰
##ಲ
##ծ
##ﺤ
##ქ
##წ
##ﺮ
##ﻕ
##ŉ
##✔
##⼀
##ヵ
##ヮ
##∟
##┖
##┚
##Ѣ
##ʈ
##🔍
##😪
##ܗ
##ᥥ
##🇾
##ꈐ
##వ
##ჭ
##ყ
##𐤃
##𐤌
##ᮛ
##𝑈
##Յ
##Դ
##𰻞
##𐓣
##⼯
##♦
##ᧆ
##🇷
##గ
##ස
##ǀ
##😂
##ㅁ
##⿰
##ᒡ
##ᓘ
##ᑲ
##🚗
##ᨚ
##ᨓ
##ᦟ
##ᖃ
##ᑑ
##ᑦ
##ᑎ
##ᐊ
##अ
##ᆶ
##ڌ
##ꜣ
##ꆨ
##ꋍ
##ढ
##𐀁
##𐀫
##ਨ
##ਵ
##ਲ
##ꦿ
##ꦮ
##ꦗ
##ꦪ
##😁
##ហ
##❓
##ϕ
##ር
##ነ
##ት
##ꙑ
##ឿ
##ខ
##ڬ
##ޔ
##ނ
##ގ
##⺗
##𐇠
##ฑ
##𐎺
##𐎩
##ȼ
##ﻴ
##ﺍ
##ﺝ
##ʇ
##╓
##╥
##❤
##ȷ
##є
##⒈
##ধ
##㊣
##ȥ
##╤
##ฯ
##ұ
##ֆ
##ܙ
##🏻
##ጥ
##ሰ
##ሐ
##ᨈ
##ដ
##😌
##😇
##ǃ
##ើ
##ܩ
##డ
##బ
##ຳ
##≒
##ᅰ
##ፍ
##ሄ
##ⲥ
##ⲧ
##ⲱ
##ཐ
##◥
##ʅ
##⊇
##ⲣ
##ⲗ
##ϸ
##ለ
##⾳
##𝘩
##𝘦
##པ
##फ
##ያ
##ң
##ঘ
##ʧ
##🎥
##📺
##ህ
##ወ
##ቅ
##జ
##మ
##ద
##ƒ
##ﾎ
##ㅔ
##ტ
##ჲ
##ᨴ
##ᩱ
##ᩭ
##ꓴ
##খ
##┟
##┡
##┢
##┲
##╁
##╂
##ฆ
##ᵿ
##👈
##۹
##۱
##ҳ
##ܔ
##⺻
##ធ
##ڑ
##օ
##ⵜ
##ㄱ
##😲
##▕
##ɵ
##ꉸ
##ꉳ
##ꆃ
##ꁈ
##ꊨ
##ꏦ
##ꍓ
##⼈
##𐓤
##𐓘
##𐓯
##ᧁ
##𐇓
##ɘ
##ꌠ
##ጋ
##ɶ
##ཡ
##ܥ
##ሥ
##ሓ
##ﾍ
##ළ
##ત
##ๆ
##इ
##ቡ
##ጊ
##ዳ
##ገ
##ድ
##♣
##𞄄
##𞄰
##𞄩
##😊
##ਠ
##ਕ
##ਟ
##˶
##ƍ
##ѫ
##𐇒
##⽹
##ኢ
##ዮ
##ጵ
##ᆪ
##ɋ
##Ꮝ
##Ꮿ
##ሜ
##ƣ
##ཕ
##𒈪
##ɗ
##വ
##പ
##ം
##ㄭ
##⼗
##ǂ
##ᐱ
##ᕐ
##ᔪ
##ฝ
##ϑ
##ല
##ബ
##ɭ
##ຮ
##𐎧
##𐎶
##𐎡
##џ
##𒀳
##𐇳
##၀
##၁
##Ħ
##▮
##ᥩ
##😨
##ગ
##ཁ
##ㆯ
##ژ
##భ
##ⵣ
##ⴼ
##ҧ
##৬
##Թ
##⼩
##ㅜ
##ᥛ
##ሀ
##һ
##◐
##┒
##ዝ
##ܛ
##⾊
##ᴍ
##ফ
##👧
##ⅰ
##ϟ
##⋅
##𐀙
##𐀭
##∀
##▓
##ៀ
##ಜ
##Ǝ
##ⵄ
##Ռ
##Ի
##ᮔ
##᮪
##ᮓ
##ឫ
##ᚱ
##ๅ
##ﾚ
##ĳ
##𝘵
##𝘴
##ཛ
##𒆠
##𒆕
##Ƭ
##²
##🇬
##ﮮ
##ః
##𑖰
##𑖮
##𑖯
##𑖨
##ஷ
##இ
##ᵝ
##ട
##ﻭ
##ﺎ
##ﮪ
##¹
##ℓ
##អ
##ឃ
##ဥ
##🇨
##ও
##ዘ
##በ
##ባ
##ᕙ
##ᓪ
##ᓕ
##ཟ
##𝘢
##ᥲ
##ᶷ
##ৎ
##ｼ
##ʙ
##ⴳ
##ၢ
##๙
##ﮭ
##ﻔ
##ﯩ
##ﻐ
##ސ
##މ
##ލ
##ฅ
##ކ
##ɓ
##ᤰ
##ᤌ
##ᤱ
##𐇕
##Ⅸ
##ⅳ
##ⅴ
##ⅵ
##ⅶ
##ⅷ
##ⅸ
##⌣
##˘
##ꓪ
##ꓼ
##װ
##ᑕ
##ᐢ
##ᑮ
##ﾜ
##ⓒ
##ꙗ
##๔
##𓊪
##𓅱
##𓃣
##⽆
##ㅙ
##ㅝ
##ㅞ
##ㅟ
##😩
##𐭮
##ƌ
##ᴗ
##ʘ
##ժ
##𐎿
##㌫
##㌶
##㍊
##㍍
##㍑
##˧
##┸
##ʮ
##ৗ
##𝘨
##٧
##ㆤ
##ৈ
##ቴ
##ⲅ
##ᓇ
##ᮞ
##ᩤ
##😢
##Ј
##✰
##ख
##ሚ
##ᛠ
##╗
##￢
##⼤
##⾯
##✕
##⁴
##℉
##ܓ
##झ
##㈧
##㈨
##㈩
##꒰
##♡
##ꎖ
##ꉙ
##Є
##ཇ
##ತ
##ష
##ㅓ
##꜓
##🇭
##๑
##㎡
##ے
##𓆑
##𓍘
##𓈉
##ɠ
##ᥖ
##ᥬ
##ᥑ
##ꐎ
##પ
##ଡ
##ା
##ማ
##😖
##ꙁ
##ખ
##ʯ
##┕
##ⵖ
##ҹ
##ឪ
##𐎌
##𐎗
##𐎛
##𐎍
##㎏
##𐇪
##𐇴
##𐇤
##ჱ
##ỻ
##𐏂
##𐎱
##╔
##ຜ
##ڪ
##👏
##ㆶ
##ｵ
##〢
##〣
##〤
##〥
##〦
##〧
##〨
##〩
##உ
##ຂ
##ळ
##𐎰
##ⴱ
##𐩣
##𐩺
##𐩧
##څ
##🌙
##ꂵ
##ꇁ
##ꄿ
##ٱ
##〡
##⛄
##ᠬ
##ᠭ
##¼
##ဌ
##┥
##𝘭
##𝘪
##🇵
##ဘ
##𐭐
##𐭀
##😣
##ც
##҉
##ᵚ
##ⲭ
##ႃ
##ႈ
##ɏ
##😠
##ಶ
##ㆷ
##ᓂ
##ᔅ
##ﬀ
##𐇥
##ㅕ
##ㅛ
##ㅠ
##ㅣ
##ㅒ
##ㅖ
##ↄ
##ከ
##ɢ
##ഫ
##ል
##ವ
##ᒪ
##ᒋ
##ᐧ
##◯
##ឋ
##ኲ
##Ƽ
##𐰇
##𐰛
##ಟ
##✿
##ಹ
##𐇯
##𐇶
##ᆳ
##ᵛ
##ᚷ
##ᚩ
##ᚦ
##𒌇
##₃
##✧
##🇺
##𐀏
##ѹ
##👌
##ছ
##ᨣ
##ᨦ
##𐇘
##⁺
##𖬝
##𐌉
##ਡ
##ಚ
##ቆ
##ﾅ
##პ
##😜
##⿻
##ശ
##ᴅ
##ᆱ
##ਧ
##ਆ
##ਣ
##ꓳ
##ៃ
##𐭱
##𐭩
##😉
##ｧ
##ﾔ
##ါ
##ဇ
##﹦
##𓊵
##ⵟ
##꜁
##☁
##മ
##ണ
##ŀ
##⿳
##⿴
##⿵
##⿶
##⿷
##⿸
##⿹
##⿺
##ሒ
##ꦲ
##ꦠ
##ƈ
##ބ
##Ђ
##😝
##ӈ
##ƭ
##𐩯
##𐩬
##𐩵
##ﾑ
##┙
##┪
##ዎ
##ዶ
##ፋ
##ŧ
##𐇚
##𐰉
##𐰍
##𐰲
##ᠰ
##ኽ
##ሱ
##ም
##እ
##१
##🇪
##ැ
##◣
##ꆪ
##ꃄ
##ꌕ
##ꄡ
##ጀ
##ಠ
##▋
##ԓ
##㏒
##㎜
##㎝
##㎞
##㏄
##㏎
##㏕
##Ꮃ
##Ꭹ
##ႁ
##ၼ
##⾺
##Ո
##🐶
##ସ
##ନ
##ሞ
##ክ
##ᓯ
##⾰
##𐓻
##𐓟
##ƻ
##ꠣ
##ꠘ
##ꠁ
##ꠊ
##Ꮄ
##Ꭿ
##Ꮜ
##Ꮕ
##ꓵ
##ڙ
##ڻ
##ހ
##╦
##ౄ
##☟
##ƅ
##⁵
##ᨯ
##ᨰ
##ឯ
##ӕ
##ዋ
##ཊ
##📢
##💤
##ଲ
##େ
##ଵ
##ର
##ᵐ
##ዴ
##⋛
##⋋
##😫
##𮄫
##ʟ
##𞄤
##𞄳
##𞄬
##𞄐
##𞄦
##𞄲
##𞄎
##𞄫
##𞄚
##𞄧
##𞄔
##𞄱
##𞄀
##०
##७
##२
##๖
##ˍ
##બ
##𐇭
##ܨ
##ƃ
##অ
##Ⓑ
##Ⓒ
##€
##ƛ
##ﾂ
##►
##ꦺ
##ꦴ
##ꦑ
##➖
##ള
##ඔ
##බ
##අ
##ශ
##Ր
##Պ
##Տ
##ҕ
##ᨅ
##ᨀ
##ᨔ
##ឌ
##▊
##┧
##ᴠ
##㎎
##ƴ
##ᵋ
##ဒ
##┩
##ବ
##җ
##ਉ
##𝝱
##˞
##ﻮ
##ﻞ
##ヿ
##👩
##🌹
##🌻
##🍁
##ꦱ
##꧀
##ꦢ
##ꦩ
##ꦥ
##ꦭ
##ᶴ
##ｴ
##ﾈ
##મ
##ዊ
##Բ
##Ղ
##🐢
##١
##ພ
##ɺ
##আ
##ǥ
##ⱡ
##𒌑
##𒃷
##ና
##⍵
##ኛ
##☞
##𐌿
##𐌻
##𐌳
##𐌰
##⼿
##ﻟ
##ﻌ
##ﺒ
##ﺭ
##ᠯ
##ਥ
##ቃ
##Ѯ
##╈
##▨
##♯
##ㄴ
##😚
##ଙ
##ଗ
##ᵀ
##ᕆ
##🇼
##ﻧ
##ﺑ
##Ⅿ
##ґ
##ㄬ
##⽽
##✪
##⊂
##💪
##𐇙
##🇹
##𐇬
##ɍ
##𑖗
##𑖕
##𑖫
##𑖱
##ㄪ
##ϐ
##ⵇ
##ƥ
##Ⓓ
##ഹ
##ꆈ
##ⵕ
##ᐸ
##ᐤ
##𐇹
##ߞ
##ߏ
##℅
##╪
##๐
##ℝ
##╠
##ᔑ
##ᓈ
##ᐯ
##ᒧ
##ᐎ
##Ꮀ
##Ꮉ
##ჩ
##╖
##𞠁
##𞠂
##ꇖ
##ꏃ
##ᗺ
##ᗷ
##ᗅ
##𝘥
##ધ
##ᦑ
##ᦵ
##ᦄ
##ᦲ
##ȝ
##Ɂ
##ɂ
##ﾐ
##ｭ
##ﾉ
##ꇊ
##ୀ
##Ł
##ㆾ
##ㆳ
##థ
##ⲃ
##ආ
##￳
##ኤ
##Ց
##Խ
##۳
##ඛ
##Ћ
##▷
##ᖇ
##ᕼ
##ᔕ
##ᗰ
##ᗩ
##ણ
##↔
##ओ
##ۍ
##ᒥ
##ᐟ
##ᒣ
##ᑯ
##ɇ
##ຊ
##ɸ
##െ
##ᵊ
##ථ
##ච
##ޖ
##ƕ
##👯
##ሸ
##♓
##ﻠ
##ﺐ
##ਝ
##ￚ
##ഡ
##ѕ
##👿
##ᦺ
##ᦹ
##ॊ
##ᥐ
##ƨ
##𐰼
##𐰰
##ᛞ
##ᛚ
##ᛗ
##ਘ
##ᆵ
##ថ
##💚
##Ɣ
##𓄿
##𓂋
##𓆰
##𐀯
##𐀩
##𐀄
##😷
##┎
##ɩ
##ᆬ
##ګ
##ⱶ
##ﻲ
##⌓
##˂
##⽀
##ㆫ
##￼
##ఞ
##ㆨ
##┋
##┵
##┶
##┹
##┺
##╅
##╆
##╇
##╉
##╒
##╕
##╙
##╜
##╞
##╣
##╨
##╫
##⇔
##ѳ
##ｪ
##ᛇ
##ᛋ
##ᚻ
##💋
##〆
##㇏
##∃
##⾕
##⽶
##ⱥ
##𐇔
##ړ
##🐠
##ⲕ
##ᵉ
##he
20
##er
##in
the
##00
##on
##ed
201
##an
##or
##at
##en
##es
##ar
19
10
##nd
##al
##it
of
##ing
##as
##is
in
##ou
##ic
and
to
##om
##re
##ion
12
##le
##ac
##el
200
##il
11
##ent
##ro
15
##am
##st
th
##et
##ec
30
18
##ad
##ol
14
##ot
##id
##ur
##ig
##ir
##ow
##iv
2016
16
The
was
for
100
13
##ter
on
##ay
##ly
2015
17
##ut
##im
##em
st
2014
25
50
##ch
##ation
##us
as
##ul
##ith
00
##ers
##os
re
21
com
be
##ag
##000
##rac
with
##ce
that
##av
##ts
##and
##ver
24
##th
199
wh
22
##pp
##um
is
al
##od
##ct
by
##ain
##un
con
23
##est
##her
an
at
40
26
##rom
##ri
##op
##ess
31
28
##ab
60
##ap
##ist
##if
In
##ew
##oc
27
##igh
##ak
##ill
he
##20
##50
##ate
80
##ard
from
St
pro
198
##ber
##art
##◆◆
his
2013
##ear
de
##all
##ld
##ia
##our
##ong
##ud
##frac
##ies
##ive
29
su
##ity
sh
##ich
##ere
ex
##ort
or
##ip
ch
##se
##60
90
##og
it
##ant
000
se
##ore
##ov
Ch
##ang
2017
##ok
were
35
34
##one
70
##ame
##ell
pl
##ian
##gh
##ine
500
##10
##rou
##ast
##ated
##qu
##ord
##ack
##ind
45
##ect
300
sp
197
##ep
##ight
##ment
##ost
2012
##ial
##ra
##nt
##ub
194
32
not
had
##end
are
##ust
2000
##ie
##80
##30
##tt
##ww
##mp
which
##ff
##out
##ge
##ary
2011
##ass
##ave
##ue
le
##ry
2010
33
36
##rit
##ical
##cc
##ure
51
##ish
##sp
cl
##99
##hen
48
2009
1000
##ik
##ttp
##11
##age
##ace
Al
##ould
http
rec
##ther
##so
##ous
2008
195
38
##ign
##ome
##ork
37
400
196
##iz
##PP
int
ar
##cl
55
but
##ru
49
app
##ice
comp
98
##ions
##ans
##ond
##fter
##irst
##ire
##orm
Th
tw
##ng
pr
form
##ide
cont
##ook
##ime
600
##per
ad
ab
##pt
He
##ark
tr
193
##ib
##ile
##ob
##uc
##ater
02
her
res
##ence
##88
first
their
01
##ance
75
39
QQ
42
mm
sc
its
##low
03
99
un
have
##oy
we
2007
Un
##hed
##70
##aw
ifrac
##40
also
##OS
one
##ree
##ey
05
off
##pl
##ual
##own
65
52
##ound
per
##ory
go
##ach
##ition
im
iP
##ick
who
##hone
##mer
43
150
##12
##ail
aº
44
##ock
2006
##ction
##ens
has
##ough
en
##man
95
ag
58
##BA
this
46
##33
08
41
ID
dis
##ely
07
up
##erv
two
On
##ex
##ult
04
##ft
It
85
##ade
120
bec
##90
Ar
##ix
88
been
##ations
##land
192
2005
##anc
out
##ite
part
man
afrac
year
47
##66
www
##te
##uring
us
des
##tern
##clud
you
##old
##are
09
3000
##ase
##ember
over
##ss
play
they
##pr
##ount
##inal
after
frac
##able
##oin
##amp
SU
56
other
##ake
##we
att
##ows
time
53
5000
##22
##15
59
##urn
66
##ood
IP
##ric
##18
54
Le
Mar
##ug
##ata
PS
57
MA
##16
##wn
iPhone
##ings
br
64
##ward
would
includ
##ose
##ted
##iss
pre
nb
2001
##ons
she
all
##ents
##hn
06
##ors
68
##25
ev
##vel
Sh
##ild
##ates
##ank
te
new
2004
##ever
##io
##ited
into
me
##les
VR
Re
SUV
##ont
800
##ath
him
nbsp
##19
##form
190
Fr
so
##att
more
##ula
comm
##ied
APP
work
##fer
zh
##ilm
Pro
Sp
##ased
VS
##13
##17
##ax
New
##nder
67
##way
##vi
##ational
col
360
2003
##rough
Com
62
CP
US
##sh
72
fe
App
##round
2018
78
cent
63
co
##aus
##act
bet
##14
##ann
##reat
##ike
bl
86
##orld
##ll
cn
##rop
when
##indows
sec
##ED
##ina
fl
##orn
##here
##ubl
##eld
76
2020
##ason
##DP
##rib
##son
And
Jo
##aid
##gan
##ote
83
formula
An
##ton
##enc
kn
##orth
##oth
##55
96
km
##ool
77
97
do
##oss
dec
69
rem
##ode
73
film
2002
180
##az
##EC
Pl
only
imp
Cl
##ict
inter
##ash
Pr
##ivers
them
82
data
about
char
cons
##EO
##eb
110
87
##ics
##ah
##du
again
##ered
##ollow
most
##★★
92
than
93
74
ret
game
ear
4000
during
IT
##IA
##ram
##ween
pe
84
##AT
min
##IN
##fore
##ink
Bl
##lect
##meric
Sc
##ames
Wh
##ek
qu
GDP
can
under
##CD
##atch
cm
end
bu
am
79
##ery
Americ
acc
Go
89
ro
ac
##ove
sy
##ral
##outh
day
##duc
##au
##ife
song
##ox
##ve
between
num
##ener
##ular
act
##ters
rel
three
##ress
##ph
reg
rele
##oun
later
##ision
Windows
through
ind
##eng
while
sub
##ier
##ating
##ily
Br
1999
##73
ass
some
Ad
##red
img
no
##ower
where
##ement
inc
##air
De
2019
##als
94
def
Tr
As
##ally
##hes
##24
ser
##ai
there
##usic
rep
high
GB
made
##23
##aj
CEO
##ise
second
##77
##up
##ley
NBA
##olog
follow
##ific
back
1998
160
PC
##hip
ra
##eg
##ived
##ron
##yp
Ph
##ale
This
##ane
250
sur
Car
ep
##ines
##ept
John
amp
writ
##ning
such
##AN
##inu
61
##98
At
record
four
gr
##ER
before
##erm
##bum
##26
spec
##95
call
AP
years
class
6000
##ished
##any
season
##75
##arg
##velop
##enn
##ather
II
##28
Col
id
##roup
team
serv
pol
##BC
##ury
##ained
##45
Ro
sm
1500
##other
publ
ph
Be
##PS
AC
##ert
##pen
supp
##stem
##ouse
Eng
##ject
##ett
used
inv
CD
##65
1990
##↓↓
##ext
##ious
Con
##aged
##ause
##chool
She
##ins
##AS
##owever
loc
Ex
##elf
##TV
##AR
1997
then
130
air
being
##ern
##ten
##78
car
album
add
##its
pres
##ople
##ull
str
Mac
##iet
##OL
##ince
700
##ven
##iam
##35
ST
##ved
##ys
##68
##ures
NO
##co
##irect
##row
IS
number
lead
##und
##vern
After
Brit
stud
##ross
mon
well
epis
against
ps
long
War
71
Ind
188
##ative
##ium
##idth
##ield
##oot
sing
##ogle
##ities
##roid
met
United
XX
charac
##iver
##my
##iversity
91
##erson
##itt
##ange
For
##ao
sever
found
win
##ful
war
##ON
main
mov
10000
perform
1996
##view
cap
did
show
##tm
Note
OP
##app
##ism
LED
##OM
##ird
including
became
1980
##led
##der
##hu
both
##ris
##ner
##48
##rap
81
You
inst
develop
##NA
##ets
1995
par
MP
gu
said
##eed
140
##93
any
##27
##fl
American
series
dif
##ised
will
many
cre
##yle
art
##IS
ext
##imes
All
##96
AT
could
ob
appear
1994
##sc
##ene
mill
##ke
##ution
bro
##res
Ed
##MA
No
##uch
##emb
##ced
pop
exp
like
##ty
##ident
Ge
return
mod
Air
people
orig
run
Aust
##aking
##book
desc
##21
May
##rack
##38
EIA
raww
rawwidth
ship
##OP
##oint
##76
design
my
AB
AM
if
Is
##af
pass
rece
World
##ually
PPP
##ccess
##SI
Se
170
episode
Fl
VI
##vent
##though
several
OPEC
1993
1992
sign
bel
185
##ony
est
fam
##une
##ava
Or
pos
comple
AR
Gr
known
##ized
eff
top
##TC
We
##ne
vi
##very
##ble
##TA
own
dist
aut
prov
unt
may
##inc
MACD
##els
##ired
##int
##yl
near
feat
##ists
TV
music
Har
##gg
University
985
##29
Android
resp
final
##ech
##44
##ps
Am
1200
##tml
sim
began
PP
##36
Ger
##cept
count
Google
Su
##ible
##ars
open
gener
211
##ided
early
down
##uss
until
system
Will
called
##ital
CS
po
##ments
1991
Gu
##ott
group
CC
dr
##AM
##71
Co
##alk
##ute
kg
##85
Man
direct
##me
qq
##ially
CPU
##ling
released
Mc
##ajor
123
mil
##osed
##ility
##ains
these
##bert
produc
Ang
350
##ract
##ruct
what
crit
##aster
Comm
##AA
##rist
186
use
British
One
##by
million
Bar
900
105
because
offic
##74
##IC
##eth
Ju
along
1988
MV
##ured
##raft
Bro
life
↓↓↓
dep
Aug
Tw
hist
##79
##ren
##ently
##ats
govern
1970
##oard
##lish
land
##wards
##ives
##ung
oper
##ience
iOS
125
same
##ior
##ES
##aining
States
fr
original
world
Can
##ended
success
168
##OR
##line
August
DV
##ee
PK
##II
##31
Nov
##94
const
just
though
IC
##attle
Apple
Sept
PM
King
##aby
arr
##aving
8000
low
##amed
##ection
var
head
around
By
fin
##ession
Sm
Oct
September
##orts
##ody
attack
ele
Austral
character
##oo
1950
El
##ces
now
red
html
produ
trans
##ient
ann
describ
##iving
bre
##su
week
Sy
##92
1989
##con
set
##rol
Dec
start
style
SP
GL
German
They
med
128
York
ed
occ
★★★
build
North
line
public
eµ
hel
continu
##DR
small
##ky
HR
took
##orted
##46
following
sl
six
##ects
##IF
##ural
prom
Jan
1984
##reen
##ission
##arge
Par
##med
##ize
state
##hern
##ober
##emp
API
##eter
1985
##oll
each
However
En
##ically
consid
##idge
ref
##ret
care
1949
SS
##97
school
1986
Qu
north
##ush
##acebook
city
##ck
October
1960
vs
##vers
##ales
AD
1987
##ideo
five
em
##urch
Dav
name
Ste
Des
##ried
##hy
received
book
##ature
##AC
ºa
Min
##ored
differ
mar
##aced
conc
##ately
ent
IE
##ians
partic
##gin
##ream
MM
make
##ants
##BS
area
##EN
##ology
IPO
##ench
##72
1945
Me
left
##34
##ording
##hel
xx
##aim
##ator
Christ
##urr
way
Eu
##ype
last
135
get
rest
major
home
Intern
century
GT
vers
much
ml
##hest
Wi
##ID
##ages
##86
band
##riend
##yn
LO
June
South
##play
##IT
##ET
##ours
##oon
Mich
Char
Te
since
##St
turn
GP
##ball
Comp
adv
##apan
July
##ague
##ograp
person
old
##ript
det
Dr
single
cr
CF
##ilt
prog
When
result
1982
March
101
2500
Apr
family
##56
##side
##ady
##oman
##ified
My
##ler
div
vis
November
220
##ipp
##ald
April
##ared
##32
efrac
##echn
DS
mark
DVD
##tain
##ively
eng
108
allow
##gy
Cent
Sw
##ined
expl
CR
450
##uary
tit
##ected
child
very
Japan
KD
##TF
list
National
William
1983
leg
place
##rew
##91
power
Her
##alf
large
##avy
dem
Pol
##atic
event
##vious
La
##ister
based
incre
##ota
##br
Gl
##ham
say
ip
##ney
hand
##lex
another
##atter
requ
##earch
##let
opp
month
prot
##www
EX
##EL
USB
appro
##oci
##58
##ana
##irl
sk
##ides
imaged
##37
imageda
##ness
104
##bs
##orp
best
government
south
##aul
##ival
third
center
Cal
##na
camp
even
##CA
kill
Facebook
short
del
CM
CT
There
due
During
Play
Geor
BM
elect
240
December
##face
OK
track
won
men
##39
story
##reet
good
##ense
West
1979
ES
##iness
led
real
CO
##akes
played
##rote
##ask
January
review
av
port
##ences
word
view
kW
##arm
death
##hor
included
##eep
##ights
Rec
##ices
1978
##iven
net
TA
##ese
##uck
DNA
belie
##ael
Ab
TOP
larg
help
term
wrote
Part
every
Park
Europ
cour
##oyal
la
##of
##omin
##ean
still
next
Win
Med
##iqu
IM
##get
che
##ND
those
##IM
##００
106
Angel
##ump
disc
126
water
##pm
great
320
CV
emp
RM
##ape
##iod
Gal
##idd
##augh
take
English
deb
gun
offer
##itions
##ara
poss
##ilar
##ested
conf
##urther
BB
115
tour
support
previous
China
exper
##ances
##ittle
1981
310
Mark
##elt
010
##ae
PE
##ube
High
##embers
City
##OT
7000
His
##uk
##oute
prop
level
##work
Ear
sol
command
described
##ford
som
named
organ
##ached
Per
TC
Java
el
dam
Mic
CN
##aken
games
##min
tri
Ser
Ass
##43
sw
##lev
103
##yth
init
##ms
##ched
##omen
##lo
##alth
##AD
1300
##42
1920
wind
your
stand
VIP
##ift
##ves
Jack
repl
##49
post
##ica
##ulation
Acc
Feb
175
HD
fun
Inst
present
MS
equ
Mon
match
hum
days
##par
Res
##ones
French
##41
##ruary
want
February
David
late
118
species
Sec
video
local
##ground
##OSS
##omb
280
ste
infl
within
##ison
##ged
##ji
OS
addition
102
163
period
1600
dest
To
AI
##use
KDJ
##47
1900
Rep
##69
##OW
Sch
members
CH
##ues
##ots
1940
held
release
##ino
came
built
AA
Off
mg
fre
Ne
155
law
##ger
##iy
different
sold
iPad
##eder
##ada
##aint
##ops
mag
##ington
ant
caus
although
former
IB
##ional
##OC
how
##ython
polit
few
James
##lege
house
GS
role
should
lo
SM
##abl
ide
AS
##inux
##estern
HP
beh
often
side
230
##itary
1800
##ondon
storm
OPP
##aff
##uted
138
##empt
gl
need
##oney
look
##ency
Ag
httpwww
##unt
Gener
##usiness
soc
##raw
##ruction
1930
##AL
DI
never
Count
##ropical
1975
town
right
##ille
star
SH
1976
##ards
friend
##Hz
##iu
however
Sim
##EM
With
1958
too
158
Red
##day
young
##cess
prof
##ouch
London
inf
tot
##ple
##US
##FC
##itter
stat
##iety
ne
without
LG
point
repr
strong
##ef
cover
##↑↑
##ope
##lear
ins
among
##aper
find
##ests
Day
log
club
165
##cel
TM
GM
##itch
##aut
178
1941
sent
##ips
So
##osh
##zh
Michael
##PC
##lt
eas
cfrac
similar
import
##DA
commun
cos
live
ETF
raw
claim
England
enter
continued
BOSS
Mor
Mo
OPPO
chang
refer
##ead
260
Em
##ani
Hol
##amb
road
less
210
hold
Cap
program
half
further
rpm
##ampions
##pite
##osp
val
having
career
join
River
1946
##100
Step
Sur
PR
##ublic
365
##roy
order
IN
##irc
history
fact
##ument
become
##aur
player
position
UI
production
##aker
Do
##ma
##iter
School
Don
1956
002
1937
sound
Int
considered
love
HK
version
MI
1972
bo
Pre
1973
##press
##com
1942
1948
Mag
##ories
DC
cast
trad
Act
##uan
foot
west
107
##ius
##iment
pat
Pe
Rich
##ases
fire
comb
country
intern
LOL
330
Stud
rad
Black
east
##lin
Super
aff
1944
3500
##ention
##51
Phil
Met
company
know
include
##ches
control
1966
State
TF
RMB
sugg
SA
Although
influ
##63
##oid
read
Div
##67
Reg
520
1974
1968
moved
Val
Web
##conom
Ac
see
##craft
##height
##ries
##ration
written
##ring
##umb
rawheight
##ering
sum
Mod
Bo
1971
1965
invol
1969
ta
##axy
fail
ºe
##ster
Thom
service
Bill
##RE
##alt
888
MT
px
##ization
announ
##64
##GO
##reg
1955
EM
##oice
hig
750
lim
Pres
Mad
times
##ength
light
HT
given
AV
attempt
Road
↑↑↑
1964
##PG
##Book
went
##ief
1977
MBA
##ways
Sam
Paul
##ole
cp
Game
total
XP
super
common
lost
##ij
##aign
##sequ
##BO
##isc
##mb
gave
BBC
##oud
##olution
##estion
George
repres
General
Af
##ably
##pper
While
TH
Street
##itive
SC
CPI
press
##ama
999
https
1947
Alex
Net
cor
vict
##ising
Star
mat
1939
Hen
111
380
##ule
using
114
##board
##urric
ML
##ges
109
##yd
##ending
##levision
EV
let
XXX
##field
1962
Robert
1938
title
capt
Bu
compet
defe
##zz
bar
MB
Tom
##ned
##62
1959
anim
Cont
1952
##LE
VC
ft
ten
ord
returned
1943
House
PH
International
##ither
building
color
145
particular
1967
cy
plan
##ki
1935
father
reported
##Fi
America
##used
##angu
development
##61
making
published
##icle
Galaxy
##ena
performance
PD
GPS
away
Australia
1954
Music
party
produced
Micro
national
##sw
##be
##ager
fac
##ML
##iber
112
IBM
##aly
##TS
##less
sett
According
does
1963
1936
But
poin
Cor
author
ve
kind
popular
550
children
##off
These
##box
Russ
gen
cross
ask
##ying
Art
windows
Ant
##avel
stated
##eal
##LA
1957
eight
think
Top
##oto
squ
##ampionship
FB
##self
mid
BC
##dom
##pped
270
##fic
##ensive
surv
intro
##ili
forces
Plus
##ux
ter
put
black
##TI
1953
dou
battle
Che
SK
nort
Max
##for
League
full
1961
BI
##iting
##ari
recorded
##vin
field
##emy
pur
CVT
##rict
block
night
office
Love
himself
##outhern
HTC
##read
ships
San
vol
effect
##uel
##lic
##utes
SD
Island
little
non
military
##inese
hans
##gr
Mer
aircraft
Bur
001
ISO
East
SO
5173
Mal
Cr
gay
cult
##unk
text
113
Aut
DO
hk
nov
body
##era
##ination
tra
ground
ED
songs
##ora
represent
son
1080
##mit
##ming
SN
cost
spe
techn
FM
critic
rock
suff
Vir
##cent
sit
##roll
gt
225
relations
PV
##lection
BMW
##leg
Army
Squ
Ber
Mart
project
batt
force
##wood
begin
Pal
##duct
##ements
months
##TE
fav
139
don
destroy
##abor
##AP
Big
117
##ico
##52
END
bi
##oul
sn
developed
##men
feel
meet
process
died
er
##iff
cond
case
characters
campaign
##ude
signific
span
##ample
Uber
PPT
size
Mil
Port
bas
across
MX
##idence
ap
##berg
Linux
Division
Sl
free
remained
##isted
official
struct
UC
Lou
##ander
NY
Rock
prim
##elling
Up
119
DIY
##go
##iec
116
arm
##☆☆
##aa
##anks
##uo
How
big
1951
122
##ened
aud
##rey
Hist
issu
650
front
##head
##ogn
BU
1100
County
important
##most
Ke
Bel
Japanese
org
histor
##itor
special
Royal
##urricane
AK
seen
grow
1400
key
station
our
pra
Rob
Hall
arch
web
activ
Hot
##ourn
CCTV
Best
rev
felt
Hill
NH
136
Sk
##IV
island
##ounc
WiFi
Chinese
OL
##ays
133
##iao
##57
æµ
##soft
areas
cop
created
##UI
cut
##xx
##aterial
miss
256
III
mi
MacBook
##loy
##reek
##orpor
##ware
##port
successful
##bur
aver
##ha
##tr
announced
BL
reached
##odes
break
##aves
Dis
##ender
##83
##ansp
white
##aps
Peter
Ev
##ze
able
##ecut
mix
political
First
arg
proble
1934
##asc
Kn
lear
noted
television
##epend
thought
ident
various
hard
##EE
Sir
##ells
Que
1933
impro
##agement
Gold
ce
ur
conn
137
##acy
##ivil
##iers
JR
business
Watch
##imately
MO
seven
age
women
Mr
dota
##ades
If
IV
enc
curr
taken
College
followed
fem
##aval
bug
cº
##ye
fall
##otion
once
##82
4500
players
writing
##87
general
Henry
##ought
##ny
Sing
toget
##AV
Cam
Afric
##cast
earl
##ament
sex
together
keep
points
##over
##anch
1927
##igned
##ivid
performed
##ala
cert
##itar
served
sil
agre
##BD
２０
##ivo
test
significant
obs
happ
range
Soc
Mary
becom
##89
killed
##uter
note
##ban
##itz
Australian
##ators
circ
##cher
0000
inform
490
ball
host
Club
conv
broad
Emp
##Cl
Richard
Group
205
Ham
##uture
coll
##ablished
action
##enced
##ifi
others
Some
1931
base
Thomas
Serv
Inter
##agon
throughout
Du
##leet
far
System
##ago
fight
round
miles
EC
ever
background
TSI
##EX
pri
##istic
qual
##ique
tropical
##azine
##che
entire
award
##ounter
9000
member
##ential
mac
started
##lected
decl
1929
disco
1928
modern
##ero
Pat
Twitter
invest
127
sour
White
##oph
##NG
##hib
Ben
MC
Wash
established
##84
lik
Fin
Sun
Great
saw
typ
##rian
Cour
human
1700
route
##omm
occur
come
appeared
sin
Fe
dev
stri
features
decided
##ville
##ume
engine
girl
econom
RO
Wil
1919
##53
##yr
Charles
esc
rank
Battle
From
must
Live
1932
BAT
480
Indian
hom
mult
caused
mini
Other
tro
instead
op
race
##ouncil
##ateg
France
##ano
MD
2025
ABC
mer
##ological
##ellow
##0000
Just
voc
Cro
##iddle
iphone
WIN
2030
rather
##ews
##antic
Ol
feet
pract
##ios
Smith
Nor
132
##ociation
##iki
##asing
God
mus
close
##ficult
site
Scott
##val
added
eventually
Sn
##eck
##rought
SR
1912
##bor
behind
##ider
##ihu
##ror
insp
##oor
hu
##ship
pred
##aces
Open
What
##ceed
Python
brother
coast
works
Sol
124
##ification
##han
MPV
boy
king
１０
baby
##artment
difficult
AL
Franc
CBA
playing
born
ºæ
Microsoft
Ver
working
mother
stage
located
better
1918
idea
aºº
Dep
##ords
Grand
##ida
Ir
##empor
##iction
example
##59
formed
langu
##osition
Washington
KTV
relationship
##apt
##lement
1914
population
Brown
Frank
crew
##PA
##ids
##iforn
creat
##medi
cc
##xw
Bay
##rison
Vict
121
##zy
indust
loss
bill
##ray
completed
##mar
Europe
di
foc
almost
##81
interest
fif
scene
comment
Mill
hon
##ividual
##oted
Enter
NPC
upon
##uf
Fi
doc
vip
##54
Je
President
hit
##oke
heavy
social
room
Dem
CA
vill
That
##ello
fund
##EF
##ita
##ference
##enes
opened
ER
ren
worked
going
least
ESP
clos
lack
##ks
Two
##ba
156
BR
##iles
Power
neg
##ado
3100
Cup
LP
##aching
type
material
pay
whe
Home
##ka
construction
inj
proper
separ
##ifornia
##arter
##back
leading
Er
mem
GHz
reb
Nm
Ps
##ston
quick
laun
##chie
tre
Tim
Company
guns
weeks
##ving
observ
Green
##～～
##hem
2700
##duction
RT
avail
##urb
129
tradition
Kar
reve
gov
Del
370
average
either
Bet
##cul
##itte
144
Str
boss
##ography
respect
damage
peak
##omp
subsequ
##HO
accept
du
California
chart
1917
change
Follow
SAT
##spec
Ter
##ograph
wanted
##usion
★★★★★
##ih
European
BT
##stand
##obile
Atl
Republic
provided
originally
##atural
news
fourth
brought
##ems
recogn
money
region
FC
market
phot
##LC
plann
##asy
wife
allowed
##ears
340
131
ill
Office
fig
##den
##ducation
1925
soon
Sen
##FF
##ability
give
Roman
##to
##erous
priv
##sel
lol
mass
mount
mp
##minist
hours
Louis
##olf
##order
LV
Out
Cast
scored
towards
individual
past
##GA
DJ
personal
666
308
mean
Jim
##MS
Boy
Christian
##heng
employ
##ners
Sal
Mount
max
rail
rul
et
percent
Oper
TR
vivo
##vir
720
Time
UK
Surface
estim
grad
1926
##lor
hor
HTML
##ishing
##merc
runs
McC
featured
Hel
420
java
IG
##anced
placed
152
Church
Over
Team
##aily
##add
##omet
events
BP
##gar
Const
Lo
length
MVP
goal
exc
##thing
president
##999
shot
Internet
mph
1911
possible
Imp
Victor
particip
flow
##ething
Mont
ang
generally
troops
NAS
Party
army
critics
##urt
Lu
Virgin
##ournal
inn
Championship
international
##adron
wall
##rupt
▼▼
021
147
WW
Miss
##nes
##de
court
134
##que
rap
®®
##ault
phys
park
20160
##sue
Despite
YouT
Union
BD
##rated
UN
##GC
##rog
##hi
ABS
215
YY
##kn
1924
##rest
SE
##ecutive
##UR
studio
DN
Award
235
##ini
2300
try
Center
Intel
##fall
Li
designed
##la
Inf
cal
training
##west
joined
##asion
believed
##rome
Rh
Luc
##ros
##SL
GO
saying
##CH
job
Kingdom
##ands
##emon
TCL
##iding
respons
available
via
minutes
contrib
1913
Times
20000
BO
piec
treat
##CO
Canada
move
EP
stru
##Station
Final
logo
##itute
clear
food
Mel
255
##useum
regular
##za
indic
FS
Pet
exist
victory
Following
ly
##oe
study
##ued
Na
font
enough
surface
850
director
finished
##oring
##UN
pot
Ap
##atin
involved
Pac
aq
##TP
meas
Bob
##aded
replaced
section
162
rain
##isk
##inent
1921
1910
1922
Back
der
sequ
HPV
##XX
##ste
threat
DE
speed
Force
Ma
deep
##ites
opening
largest
2400
Flor
YouTube
TO
NC
Under
Route
★★★★
##ING
disp
##ien
zhihu
Navy
##ilities
told
RS
##onna
DOTA
cou
News
Mat
introduc
Rad
Mus
##anish
Direct
##oved
bomb
self
central
dro
wifi
Not
pers
##bl
Jos
Law
bur
1915
##change
##icket
BA
##In
abs
ªa
##obe
tem
Govern
Ros
students
##ibr
earlier
Court
conduct
highest
020
##jects
##essional
cod
TT
achie
##ella
##cript
Leg
complet
950
align
nomin
##antry
1923
future
159
Gar
particularly
always
EXO
##ify
PlayStation
highway
southern
Ell
Vol
##ittee
Bre
##itution
##ibility
Film
regard
TS
DD
007
turned
153
Book
##aughter
CL
taking
##ends
above
##hh
##urs
Im
Good
transp
Class
430
##ores
FO
##ecess
##ifrac
512
##net
##onse
##atory
increased
Martin
forced
Ta
##ises
##uation
gold
##nel
targ
##oles
initially
##irth
slow
Cong
End
FI
Association
##ura
relig
Sil
##pha
according
CG
passed
somet
##mi
aqxw
##YS
Song
##edy
148
##lying
Camp
290
##heast
ended
Life
prob
wat
##viron
CPA
independ
novel
##hester
exe
1916
##van
Awards
lab
immedi
COM
nd
cred
##ready
travel
India
Pan
##onst
research
positive
MG
mot
Western
##tainment
face
##asons
units
Techn
##wh
deal
language
##QL
Store
express
Wind
paper
##eption
football
IMF
outside
##cle
##uff
northern
911
Los
##ababy
##gl
hous
hot
##cy
opt
##TO
ATM
appearance
960
##agram
Show
##LL
##icy
praised
BIOS
discover
sat
report
##igan
something
510
##airs
Jackson
cat
##IP
Lee
Germany
church
202
Dist
space
Second
##mercial
Sum
##incip
hurricane
##well
##aled
##ogue
##aring
##eph
nine
talk
stay
cycl
Fer
associ
##ults
step
Blue
assist
Xbox
Ann
245
media
##ointed
2200
##rial
##isl
##unes
##uth
DA
ordered
##obal
820
got
nar
Pri
172
might
##arily
access
model
flag
lower
##osing
##orial
spent
##ctor
required
asked
##pression
Tor
Bra
183
signed
running
detail
fort
interview
poor
failed
5500
##down
Chic
##irt
emb
ROM
Work
really
cru
bal
dead
##illa
Fre
##iser
ge
POS
166
##elled
##imate
Fort
mom
AMD
states
##ls
Girl
173
Most
##joy
pen
google
167
##anna
parts
KM
Edward
itself
EB
answ
ºc
FX
##oms
screen
winds
##ayer
except
viol
1905
Mex
contract
Wal
already
Johnson
Cross
tax
TD
##rief
##usp
Vis
transfer
560
##aga
RA
elements
##333
nm
watch
Matt
##ams
Trans
score
##ension
AU
mA
ok
Arch
Rev
580
##ully
Long
master
films
EPS
summer
##ua
146
177
jud
sea
##alled
beginning
Chris
sometimes
done
##urity
PA
leader
##lymp
groups
##erve
previously
QD
189
SL
whose
date
steam
prevent
##omer
##aph
link
Tex
beg
##alion
GRE
evidence
recording
Service
##iant
PMI
##bit
issue
usually
Light
##ulf
TVB
despite
##IFI
Cy
course
debut
##da
##orning
RAM
##iang
##oper
TI
##emporary
heart
health
Old
Pay
whom
880
lines
Olymp
##specially
Dou
Hi
den
fir
143
142
response
directed
radio
reviews
History
Sar
Sov
##ette
315
Wood
Lake
liter
hop
display
decision
Tour
##ressed
Saint
##gn
##df
##rive
##reme
141
Tri
Kore
460
151
15000
##ashion
##aries
Queen
##vert
Carol
169
##ancial
Stan
frequ
Run
Test
AF
154
301
##pping
##acher
Inc
##icles
Smart
##ych
DDR
##bour
bridge
community
leaders
quickly
##EY
##igital
jp
##aging
##ns
1909
ON
civil
##ector
LZ
2600
especially
Games
TG
minor
meth
asp
##uments
draw
Council
Design
##001
discuss
height
##win
##ato
pil
additional
determ
bit
dark
bad
##mark
touch
Earth
certain
consider
##ederal
league
wood
Britain
##race
Virginia
530
##vironment
Soviet
cur
Form
Spr
##enth
LM
police
magazine
claimed
##Pro
##date
886
carry
js
##ona
react
##ospital
##ocr
Early
create
##mir
##edia
Pacific
149
western
##aven
Post
Town
IF
##aine
female
##ader
Key
occup
Av
shows
##cean
##rics
Van
##selves
##anded
experience
introduced
function
↓↓
ms
election
##ache
board
complete
BUG
Hy
Chicago
anti
Cons
##ging
##liam
Excel
pressure
wa
##ffic
xxx
Gre
concern
arrived
GLS
box
3200
staff
shoot
network
##estival
ple
Word
mach
305
Dream
##het
living
WTI
Model
Sa
##acing
river
Jeff
MR
musical
woman
410
##imum
remain
Ital
acqu
##ablish
##venue
Oh
ARM
Billboard
##itect
##ills
cann
solo
##anda
##OG
object
RX
##oh
µa
##rie
Sub
Canad
810
##alys
Jer
rights
##liament
construct
LOGO
203
##ria
changes
Mass
rd
##ergy
Later
approx
Ret
##ci
##━━
Spec
Touch
Line
wid
##imin
larger
##light
──
187
##ken
flood
174
##burg
Central
Mir
provide
carried
##CC
440
guitar
emer
GPU
##ola
Dar
157
##andy
233
Francis
Lord
prior
Fire
kindle
Tay
##arch
##mon
diss
und
630
investig
structure
##house
2800
Sea
Acad
##kin
fans
Tre
１９
private
##rick
commercial
bring
EA
##pe
##RL
Jul
effects
176
Us
becoming
current
subst
##ods
2022
PPI
206
610
##IG
information
estimated
bird
##bn
##atives
OLED
##HA
##olic
Tur
QDII
norm
here
brief
208
surround
longer
double
limited
##itting
reduc
Lim
##enty
teams
feature
##ading
eastern
walk
##inct
Kh
Year
RPG
countries
favor
##inn
script
Many
Wall
account
184
3800
Hu
SDR
leave
multip
##ality
deg
Ox
defeated
Log
TB
remaining
GA
##afe
NS
Jon
manager
Dani
##andon
302
DR
Kind
Ry
Di
contr
1860
sch
AN
focus
Master
suggested
whether
##hold
Young
##abit
true
##EP
things
1908
##ounds
Rail
har
FR
leaving
7500
entered
bow
ll
##rown
prison
Fox
wide
latter
222
1901
##ii
MW
182
hy
influence
natural
Ca
writer
##mitted
Tech
##bers
204
Sant
content
kil
friends
##dy
##bury
forward
DM
ªæ
Spanish
sal
##shire
##oma
mind
Bow
##idents
2100
ult
higher
winning
570
1903
318
overall
target
Penn
Ray
GPA
##annel
1904
##teen
399
Def
nature
##888
Angelababy
purch
Les
trib
nearly
themselves
JS
Far
KG
##vis
commission
##li
1907
660
680
border
voice
161
1906
##trl
appointed
destroyed
makes
chall
##itan
related
division
initial
daughter
##itude
stop
territ
sem
OC
304
##can
##EG
episodes
movement
capital
##igade
subject
temper
scenes
Bey
Texas
##EA
SEO
establish
fleet
arrang
proposed
##ening
470
dog
##ils
Stephen
181
228
imm
Joseph
##onic
##ective
married
Dev
AG
susp
python
##aaS
complex
agreed
question
page
##IO
quarter
changed
730
CB
YO
¥¨
164
visit
increasing
mAh
Scot
stars
intended
contin
##IL
administ
Vi
##erial
enjoy
helped
##lebr
FA
exam
AAA
compared
##EV
##unic
problems
##ties
supported
##atively
status
##fect
##tained
fore
WIFI
NASA
TP
Type
##lands
##astern
UTC
silver
dram
gre
##uj
Free
##lie
hant
##uy
intens
PL
awarded
probably
Pop
canc
##iny
Jac
fell
333
980
Since
Hum
##bridge
distrib
179
##osaur
##FII
bene
reason
Cle
PDF
counter
edge
Mem
sen
##lan
##Ch
answer
yet
Cat
CFA
MK
Hal
Ob
compan
sales
##riage
##TR
share
hour
##stein
##UM
Bal
NV
##ortun
▼▼▼
Andrew
LS
increase
services
tm
why
##hing
likely
3600
Are
meeting
Florida
Kenn
Science
Bec
Ott
##rect
Let
##zi
plus
professional
Entertainment
Congress
PHP
##eline
Nort
##iance
##isher
planned
##TT
thus
##va
Another
##span
fifth
##adium
##BT
Hor
##cn
conclud
operations
##gen
AMC
3300
011
Bank
Taylor
SNH
remains
location
Atlantic
cause
##ds
Carl
CNN
##isions
##rug
pain
withd
producer
whole
##ees
##itation
smaller
approximately
##iences
##rong
Arm
Africa
doing
##oser
value
##ounts
XL
Prog
##enger
Its
LOF
captured
##ordan
##hood
sail
##iano
##road
Mike
plant
mostly
Sat
##ca
##irit
##olk
scient
Of
GD
##iled
QA
1898
##ellig
grand
Sever
cs
##key
Institute
Both
Little
weap
NF
cool
bank
HB
##OK
SZ
Angeles
Jones
Conn
QE
FBI
Kent
NB
tracks
##een
##echan
Den
171
890
goals
article
Research
218
terms
cle
minute
ha
fast
Secret
Hard
education
20150
soldiers
1902
##umn
science
Haw
##unch
Media
213
12000
Land
purp
##ections
immediately
##itted
6500
##ias
rate
secret
##oshop
##aches
##izing
includes
Space
buildings
BS
##wan
Batt
issued
##rier
letter
source
##UT
extended
Ha
tow
##och
##ronic
##orer
Russian
words
overs
##ran
Orig
##mond
lay
Williams
cas
275
Elect
##isa
takes
##aught
lot
070
1880
mixed
##imb
flight
Alpha
Jun
sohu
Steam
1890
Pok
plans
##ui
princip
##atre
village
pm
##＝＝
Lab
MHz
birth
copies
##ously
depart
industry
pow
instr
coin
##inem
lyrics
suffered
Project
##irection
540
Canadian
battles
breed
mur
Way
consist
confir
dom
Men
##vest
means
confl
broadcast
288
##icted
paint
265
active
##ibrary
veh
books
OR
ran
seg
499
Ni
NE
Tod
##antasy
UP
farm
removed
Paris
AMG
Link
Highway
##oes
officers
critical
##astic
Four
Crit
##alysis
Wat
##question
product
Ba
cand
Empire
blood
Fam
##ga
jpg
offered
iT
trade
Kim
altern
##ression
attention
majority
rout
compl
Develop
##ulated
Add
HS
##ires
PRO
concept
anc
##room
##200
Stone
Clark
Alexander
cust
pp
##war
Zeal
train
lived
Records
307
##istry
colon
issues
##undred
##UD
##inger
Studio
##iger
##bon
##utions
Society
standard
Night
Major
##ancy
##xy
207
1895
##uries
Cath
##ols
Engine
２０１
Pass
GTX
640
##PI
today
mor
Rem
Dan
adop
needed
energy
Bas
209
##IK
Like
390
appears
620
subsequently
Baby
mic
moving
303
##yes
write
document
conditions
1250
Department
sun
domin
associated
finally
##ples
college
gar
216
tons
Jenn
cer
0020
##oys
mess
Phot
201610
##INE
223
Mate
##ighter
IR
Foot
##utch
Kindle
##ega
shown
Lady
Ram
trav
bb
##ims
Instagram
LTE
##mann
Viet
Trump
middle
Greek
ing
299
More
adj
AE
collect
MIUI
raised
Norm
##ingu
##leep
numbers
serious
discovered
##rem
##hew
##ev
##outube
spl
Steve
Az
sched
revealed
ipad
##band
mission
celebr
Fly
morning
212
blue
ability
inters
Ep
##umed
li
mo
unit
##uct
##thur
##uit
attacks
JJ
##azon
expected
Squadron
damaged
##ta
##aidu
##arden
problem
repe
comquestion
Museum
names
618
Rog
ranked
##Drive
shell
Michigan
contains
##orter
Three
##306
upper
Bost
Daniel
composed
Series
HM
##umber
inspired
##right
traditional
##mas
launched
numerous
easy
##110
respectively
pick
reach
##onder
primary
Italian
##ima
##lee
heav
##etting
Ill
##azz
AKB
##atform
cho
cam
##istics
##Sh
male
4200
below
MU
pair
##eway
occurred
sister
##vention
lif
##ivity
blog
##anel
##ipped
Nike
RSI
grant
operation
##lied
slight
##ategory
royal
##inet
image
accomp
culture
##bre
plot
##CI
##enant
amount
Prof
30000
##VR
ºifrac
Ly
##iot
##overs
selected
Marc
214
wor
continue
##omy
Joe
necess
environment
unc
##elly
306
780
practice
attacked
SB
¬¬
##aka
notes
2333
1850
ERP
##UC
Albert
listed
MTV
##edic
##anger
fighting
##nam
Academy
##BN
232
Eric
attempted
newsp
ess
##uated
bus
movie
Jean
Real
##put
artist
Georg
##VA
singer
prep
Card
226
Pen
##ista
THE
Bat
##wen
iPod
312
defeat
Brad
Ult
referred
yards
chem
SF
##rovers
##ting
Wales
produce
Po
prec
##standing
Kr
234
giving
##uty
quality
##edd
1899
Corps
Minister
CAD
##emple
Hung
closed
##olar
DSG
legal
audience
ver
##──
MIN
##arters
beat
##ftware
pit
Sound
##Go
Gall
Mu
##MAX
##jy
meant
marg
##oses
408
officer
inside
##sen
cd
Columb
covered
##host
resulted
##ented
Bridge
elected
Bon
store
##▽▽
largely
Writ
competition
##ishop
metal
##eror
legisl
thr
##prise
ending
Conf
BG
##iest
portray
assigned
GN
Victoria
earned
##pass
601
unable
disapp
285
WE
##600
seem
mention
##under
Tony
Lin
Jordan
Business
##odies
width
##iful
##culus
238
625
beaut
Prince
##illy
Si
Sel
##ares
##eller
##ART
##vement
##FS
003
##arian
Dam
##wide
foreign
Os
ISIS
Rel
table
ªe
Boston
depression
FL
Oxford
architect
dance
controll
##ansion
oil
##AND
nothing
4800
##js
univers
##like
collection
258
##illed
theme
rat
rapid
GR
refused
task
commented
print
##WS
##HC
cry
1024
pdf
##abb
##itiz
pack
##iel
##ixin
Mexico
path
iTunes
##rate
Arab
bott
325
coach
Public
nuc
African
Lind
economic
records
tim
##TER
##ledge
Dun
jun
meaning
Democr
highly
Before
##fs
Zealand
##gb
religious
centre
abandon
levels
##ads
effort
forms
##writ
##ya
Gen
Committee
candid
ut
##miral
3700
##ining
neigh
Your
matches
theory
declared
★★
parents
search
amb
FOF
PX
codice
fan
##ounded
268
performances
##aped
Jud
recomm
financial
direction
Week
LCD
##oration
Prime
##mission
1896
matter
Creek
375
Flash
commander
Network
##rid
annual
schools
Att
CX
508
specific
Because
tried
green
1870
edition
php
hundred
android
Mov
sense
##ker
##track
transport
directly
Bern
SAO
rule
student
##fort
Southern
Ven
Manc
Now
Rod
twenty
Think
People
chief
##ibly
horse
##rich
ice
alt
##abeth
0022
224
Mur
##endo
603
##ersey
Their
Beat
OH
Ash
##alle
760
##ION
##DS
##ira
955
Asia
FF
Madonna
ens
Valley
separate
rein
combat
Several
CBD
Walk
Sand
reduced
##ilib
excel
##rip
Corn
pap
Prot
WP
DOS
opportun
##1111
##otes
##emic
ios
Commission
217
avoid
drum
concert
LC
sevent
symb
##stone
Sky
##esh
##ieut
Mobile
SSD
Sher
origin
vocals
cases
221
wing
wear
##iner
actually
##mm
##eds
efforts
##ipl
Tips
nearby
Stand
flash
positions
Bru
1840
presented
Scotland
constructed
##isation
##igg
Bor
Lew
Eliz
Sup
191
Nic
mol
##iday
818
transl
##has
piece
##ety
Yun
##ela
NA
dream
draft
##mail
##pson
Square
1897
property
controvers
marriage
##IR
EDG
Cook
accepted
##Sp
Pokemon
314
says
responsible
cook
##iana
HC
##aver
da
impact
Program
kept
Capital
fa
Ur
Water
viewers
236
##set
Build
pict
##td
830
policy
Est
coming
##quote
Ocean
WOW
Special
COS
Univers
Data
potential
believe
thick
dise
raid
6005
Avenue
298
219
Som
Lum
##ibo
attended
Ka
showed
activity
##rain
##ocal
vocal
AH
##etic
Cas
##Pl
pal
webs
baidu
Leon
##ufact
Chief
dism
ir
Every
blockquote
Bad
earth
Harry
variety
##ei
##udd
Cos
Rom
TL
##xt
animals
hr
ca
alone
applic
Expl
behav
##raph
##gypt
ppt
thous
kilomet
##itness
winter
Latin
managed
Management
begins
Festival
uses
Low
##olt
248
Aud
comes
Captain
##ieutenant
SKT
Found
Tra
approach
companies
Ron
##oom
native
##ancing
favour
0005
Field
Jay
Market
cell
stating
USD
##ecting
Sund
chap
１２
##illery
society
Infantry
##uce
##arp
strugg
situation
970
mechan
Ast
Nick
scale
##berry
##thel
strength
Child
happy
Robin
Ken
##time
starting
Egypt
journal
##acity
##una
##hr
QFII
Person
Mid
##002
resulting
die
progress
risk
2021
##anes
311
delay
Prem
SG
EF
houses
Edge
229
void
##oti
sides
KB
dropped
##orce
exhib
##ceeded
##ource
traffic
Brian
SIM
Jeep
thing
##lam
spring
communic
Adv
suggest
aººa
Never
greater
GE
Parliament
UA
##rc
##ican
##rot
Wild
Football
##kins
##imal
inch
symp
##amin
##ubb
227
incorpor
990
require
simple
Histor
Kong
marked
Radio
inches
##OD
Rain
saf
##TAT
corn
Sony
enemy
advance
ba
××
Marsh
050
results
continues
##bar
930
stories
distance
yard
championship
Harrison
figure
264
multiple
##weet
District
BE
Who
##uate
flv
Middle
313
presence
attend
becomes
##105
cyclone
bat
paid
Maria
Manchester
machine
weather
Ctrl
Rub
##uli
Broad
reject
##empts
demonst
sens
hands
WIND
Mot
028
Swed
##aming
##irty
##ruit
Bul
distinct
RNA
##thlet
bound
Jess
tur
conducted
##ylvan
##inary
Det
HIV
sports
Dark
##chest
412
Die
spot
MAX
243
recent
Development
##ulations
moment
##ipment
peace
independent
860
Fall
MIT
lt
##more
286
##edo
246
pattern
systems
##zen
Admiral
SW
LA
Press
yy
Liber
##ental
##adel
hus
bul
allowing
Storm
seek
captain
respond
powerful
309
##awa
square
612
charge
##isf
CSS
metres
Band
ec
growth
Da
##bnb
linux
##ali
owned
##HS
interp
##idas
gas
##ables
appar
bey
weight
##orne
Hello
platform
##rawn
Spring
code
328
DX
Italy
276
RE
##iced
##agn
concent
Studios
Summer
Mas
##erc
crow
auto
##666
Bi
##UE
Elizabeth
ss
##ploy
VP
252
Cu
Production
～～
DF
founded
reform
##come
ma
##clus
316
１５
Down
##ati
Doctor
DNS
Kevin
relatively
##MI
Chrome
##asket
EL
CE
##itable
federal
nation
PB
Wilson
699
##eman
599
Color
university
cannot
##icks
Bart
tail
006
##rative
actor
WWE
1894
primarily
hyd
Pers
FOM
Ho
321
Core
mel
Americans
transferred
##oster
Gra
dll
OO
Ross
encour
MIX
Hurricane
254
Point
GC
1280
##known
SaaS
fair
premi
##nament
castle
actions
featuring
Ire
737
portion
Board
didn
Jew
Civil
les
beyond
##mn
opin
Duke
completely
239
management
collabor
trial
concluded
peaked
broke
electric
##while
##jia
selling
##101
´¢
##isan
Head
EMBA
eth
von
plays
billion
Video
##ecraft
##ocks
XC
##wa
##resh
Kir
249
wild
update
stone
attempts
seconds
sources
##lies
graph
##2016
##athan
QAQ
era
FDA
Bang
scoring
##uls
##inus
acting
##aks
##ucky
fly
0024
3400
rough
##ANG
Ins
observed
##uang
ISTAT
Arg
ACCA
555
Bond
writers
Rose
401
suc
##ampion
Harv
maximum
onto
studies
004
doll
batter
005
physical
sout
hospital
Id
1888
Ak
slightly
5200
Econom
Sport
htm
##ulture
rating
GF
lz
ix
divided
online
##ocket
##anning
officials
Battalion
Pu
Main
Indust
３０
0026
Common
Laur
Operation
mainly
check
##hua
Ireland
２００
##iring
##antage
ring
##essor
##edom
drug
##ho
contrast
waters
calling
stra
##IFA
Christmas
Holly
Only
Short
fashion
KO
cities
1889
##dd
##cci
bud
##akers
Pier
4008
##ja
twice
Oculus
RF
titled
ofo
Hay
weaken
##SS
iron
##olved
computer
Mos
FD
##ici
Review
SQL
##ko
345
LR
008
##osen
##VT
sexual
##essions
Guard
##opher
920
Deep
Cry
231
##pool
266
Chap
cpu
floor
Pix
Fantasy
##aya
##211
dyn
##ilton
Alt
Mess
335
doub
1893
Fleet
Daily
##pa
mail
##ylvania
JP
Get
Hit
deliv
FOMC
PG
##aki
Arthur
reference
lives
prepar
ahead
greatest
ultimately
resist
501
senior
Brook
pet
sina
##sey
Health
torp
##look
PhD
##Script
USA
##aling
##racted
##formation
else
combined
##ervation
EN
pilot
Gro
Moon
Through
##ighth
278
##rical
5700
Bell
tell
artists
serve
##enge
##orporation
adapt
rom
tree
feed
degree
Burn
condition
passing
Ele
ax
##hol
vess
burn
spread
Croat
Nint
activities
Northern
chair
BF
##fit
sust
NBC
Government
Pa
Regiment
Wel
edu
##inity
IOS
##exus
Castle
innings
Ball
##ila
Brigade
qs
##load
couple
0025
designated
sought
phil
visual
##HD
OM
295
0009
element
404
1885
van
Carolina
355
##awn
normal
##bo
##estic
influenced
na
242
struck
widely
Nintendo
1260
rob
Pot
hall
exec
older
conflict
mv
##RS
##bps
Exp
psych
590
2050
Turn
670
colspan
Adam
confirmed
Hold
eye
Cra
##ply
Mah
50000
##gu
drive
someone
integ
Though
##appy
alongside
##quarters
##elligence
Auto
Catholic
speech
##●●
##ifying
0023
xin
northeast
margin
bass
398
Journal
Zh
dedic
6008
##acement
4100
Hong
Jason
##ester
##pton
IGN
Hon
Tam
gained
naval
##heim
Princ
Colon
##iro
##edition
##fully
PF
trying
syn
Fair
agg
##embly
##UB
##oli
explained
attract
12345
citiz
Init
##YP
6006
025
WS
proved
county
FIFA
801
Ty
Rol
reaching
Original
husband
kV
##apore
##ras
ban
Sports
fear
prefer
battleship
medical
tag
Well
ast
pc
Sus
district
##achel
##ourney
equipment
##ultural
Prov
Arts
mis
pull
Cre
vote
740
uns
821
promoted
4600
Simon
##ilibili
241
273
NET
Dutch
777
##cho
perfect
editor
MINI
gal
##lease
organization
nominated
0755
##EST
253
ISBN
##uz
##SE
eyes
##adow
label
425
sixth
Cou
##lines
versions
BIM
Commun
pu
heard
quot
invasion
Station
Kat
ME
subsequent
About
##rael
Lewis
485
Technology
Han
GIF
poet
##cd
Tropical
propos
Command
causing
residents
seasons
012
502
expressed
##amber
##ocked
PO
pH
albums
1820
690
Git
trou
Jr
tells
##onent
weak
sb
identified
710
recover
##IX
##rel
##amm
##ockey
defense
looking
negoti
shortly
##utation
Penns
244
pin
executive
Alan
##verse
263
northwest
setting
Chart
##VE
##Ar
##ika
reception
LPL
802
Photoshop
spirit
Anderson
hors
237
Hotel
trees
guest
##rett
Columbia
TFSI
Amazon
Greg
##eless
0008
5800
smart
Barb
treatment
##UP
request
habit
Order
378
extra
capture
vo
instrument
YunOS
##eler
##resp
024
Deb
il
appeal
coms
sto
CMOS
Singapore
soundtrack
5590
##oz
manufact
Six
##tc
Miller
##aved
##111
Quora
weapons
LL
hers
##atus
Alf
##IE
##ushed
THP
Upon
##urrent
KW
##onents
##yer
##asts
imag
reports
##rows
Chen
##clusion
vari
UV
method
MAT
YJ
##rance
stre
represented
heavily
Dota
brown
ACG
cold
Philipp
Mean
tv
##lim
appearances
pieces
##ito
##lew
rang
drop
770
Cambridge
injury
Even
defend
toward
shall
Revolution
Box
accident
Anth
##BOYS
figures
tru
Express
##iling
Jane
Dyn
Fore
WTO
hair
website
##dp
visited
contact
Plan
Social
Roy
card
laid
##PR
resc
artillery
Call
Adobe
therefore
fish
fired
Ext
hol
##xin
##iller
262
Walter
Ten
##cer
FIX
##hat
747
##rad
Islands
Eastern
##FO
choice
officially
leaves
##engt
simply
Lar
##103
##rane
Andy
##elve
root
##inder
Hug
Mach
lic
sq
conver
PVC
Homer
Global
contemporary
1865
affected
planet
TMT
measure
stock
TPP
Francisco
Golden
##fr
269
fully
occasion
attrib
fresh
security
TFBOYS
street
returning
fix
##sl
##oln
DB
##lers
NHK
919
analysis
811
advanced
##isters
ATP
##rig
technology
247
Davis
workers
anything
prominent
Clin
Ryan
segment
##vy
##ription
##iamond
disease
index
birds
##worth
##utt
growing
mist
session
soul
Scottish
Pennsylvania
Bus
##vip
##body
teacher
Coast
Gary
everything
QS
##rix
Women
fal
fat
##izes
##173
100000
yellow
worth
337
consisted
##imens
##stream
MF
##antly
casual
##ilies
famous
debuted
Zen
Var
910
Gil
##gian
Ari
Andre
688
##rell
##inf
BLOG
##otional
##chen
argued
Supreme
##ogen
honor
follows
worldwide
tournament
##hai
1886
Mul
Cla
Conference
0006
##flix
Vill
remark
030
##racy
##ographer
TN
##ova
LGBT
formation
533
claims
Wii
Moto
sz
grew
##mes
##jun
negative
kick
que
Base
Governor
escape
Gun
1750
Heart
experiment
##DI
murder
SPA
maintained
ideas
failure
quant
aired
251
319
386
none
Cub
DL
launch
##cing
##lete
micro
Digital
Background
Each
##obao
unknown
Pur
NFC
NT
arms
WX
##123
fuel
##antine
basis
guard
effective
##uled
criticized
##elle
walls
chosen
##iley
279
##err
IDE
map
reign
Album
territory
acad
compar
IDC
ATT
##ickets
Family
Circ
capacity
learning
Son
EVA
CMA
1861
##uro
Ok
##300
##IVE
Ltd
core
frequently
Ford
##agan
##ORD
singles
Senate
##izon
Siri
NM
wave
httpswww
Ever
Ga
initi
259
authority
faced
##action
##ithub
row
##friend
stations
bottom
Mi
Here
272
338
369
TCP
##wall
Disney
GW
flying
Look
spect
388
MSN
Polish
1868
herself
Cur
Jacob
##zer
257
1871
##OLL
lb
Irish
straight
022
nice
##201
322
sequence
Cop
nob
purpose
necessary
Russia
IMAX
1884
588
##bang
##AAAA
Inn
defin
##uses
newspaper
Gay
１１
challeng
##iva
##ources
Beach
railway
##zil
emphas
840
Georgia
DT
rid
yu
Airbnb
Op
losing
##jj
mu
®¤
Spain
##ENT
Ts
boat
##GB
1892
Cab
Netflix
ACT
##ami
Dom
Gib
reinfor
god
surrounding
Last
governor
passes
NFL
weixin
Control
Gord
Israel
user
typically
VO
##ework
324
rainfall
Kelly
##flow
vir
Allied
##ructure
##asketball
Cru
Nar
receive
##ige
##ylan
##aser
historian
knowledge
##enz
027
ends
dow
china
orders
agreement
DK
experi
Jersey
pun
supply
##atures
HA
323
##illing
##fe
facebook
##water
505
operated
learn
Nap
budget
chose
AW
Hind
mut
quite
save
tun
Hart
##emony
accompan
Pict
shift
reading
EBD
Sav
##isp
fiction
oo
##inth
##104
Magic
bed
##haps
##sk
newly
080
Hans
aim
##news
Wars
Donald
##ois
Coll
creating
Jam
##car
san
870
BAS
wounded
Online
##aza
serving
animal
encounter
１００
Tal
contained
types
ru
individuals
Ax
egg
798
tt
##ador
Cort
##mosp
Channel
Ohio
Hz
kw
FPS
##HT
Lyn
##ients
##icial
owners
IQ
##engthen
Grant
##lock
chance
finish
Further
615
YSL
405
##ifications
offensive
##ASH
##pro
##yo
shtml
Hun
coal
elev
council
Magazine
TED
contain
opposed
firm
Cart
tan
consecutive
##OLO
##once
Drive
severe
##outs
homes
411
284
ton
Once
##OWS
##ishes
336
Ban
select
drink
##ressive
060
317
strike
hear
deploy
historical
Gi
Lisa
jump
##ubia
prote
##Watch
daily
seat
Dog
##IDIA
adopted
liber
mob
fellow
places
broken
##XP
lov
trip
participated
mile
##wb
expansion
Linc
gives
demand
Bir
##essed
Secretary
Lam
incident
convers
Silver
MAC
rival
tower
##800
XR
hyp
326
actors
Rap
Track
##anny
Conc
producers
##rator
##col
price
899
##uts
267
1887
GU
##imet
install
horses
hip
##orrow
525
##jing
1050
ago
illust
##orters
unique
##erved
getting
PU
HMS
dial
conce
GMAT
bodies
1864
sleep
##102
opposition
abandoned
##omic
##ocated
drama
ji
Germ
1876
Why
statement
philos
sport
regarded
sand
##isers
##etch
4300
Tok
040
pan
Due
copy
leadership
achieved
##jo
Fa
filming
ancient
economy
##the
digital
harm
##iments
Patrick
4400
##bell
Modern
split
paralle
1875
prompt
Nature
pk
Korean
goes
hope
Education
Fun
##asty
Abb
criticism
##uration
Sunday
##urg
perman
possibly
recently
##orship
py
Republican
1891
protect
Reception
squadron
bilibili
flo
roads
shop
ONE
##real
##iform
1862
274
buy
Syd
GLE
killing
cultural
Ra
6003
administration
##adelph
exo
gross
1265
evac
aid
FE
Moore
rise
WD
##rm
##ether
##aro
1830
2900
sac
##oco
CI
dismiss
sse
##inner
Liver
gather
Dal
plants
caught
pursu
##Hub
inh
4900
turns
##orus
ga
ty
Philadelph
roles
advert
belong
Morgan
improved
MPA
GH
Rick
NP
motor
297
##iew
015
##ante
catch
Nat
##osis
buff
MH
##mouth
twelve
Lincoln
mode
rot
289
NHL
##bb
287
Olympic
Ut
filmed
WINDOWS
##3333
##ijing
CBS
nuclear
Lanc
landing
Hollywood
Corporation
Front
825
lv
sets
repeated
1866
winner
##bro
Also
PVP
roll
armed
##gt
List
personnel
mouth
##umes
##dj
families
Carey
##YN
##ption
address
1867
##acter
granted
BY
Wang
##arn
Dor
Death
Philadelphia
611
Earl
Roger
##zs
283
Dol
RB
vehicles
282
solid
LD
narrow
opinion
##star
rear
committee
piano
Meanwhile
standing
extensive
Airport
educ
##kes
hang
##etts
Story
Rome
##hens
BBS
Dior
mountain
colour
retired
survey
Mult
Allen
vac
Saf
successfully
Phone
##ophy
Cloud
singing
BRT
Independ
##orry
GG
push
##burgh
decre
McG
Visual
##ulate
475
##yles
348
361
##anga
343
##ario
1350
Howard
Tel
1111
Invest
hero
Server
##engers
Brazil
xm
1881
organized
rejected
##oting
Spe
##iti
kiss
##life
AO
Anton
extrem
ICU
suggests
motion
explos
XT
advantage
##avalry
Boss
##bec
etc
determined
crowd
Limited
nor
creation
Stew
crossing
622
##idden
briefly
unsu
opportunity
Ti
Wolf
Bry
agent
global
JD
dry
Stanley
cart
Railway
mentioned
SV
029
skin
##wang
alter
Human
816
gif
controlled
Pin
##itty
virt
Whit
Beaut
protection
Sarah
torpedo
Addition
provides
##ographic
##igr
sort
surr
shared
door
##anz
##othes
comedy
describes
acquired
ADC
##esc
GX
fought
Explorer
franch
memory
expanded
5600
infantry
##restling
kilometres
unf
Transp
authorities
##aste
upgr
Among
Mini
Der
interchange
Matthew
Fal
296
quest
Supp
Freder
household
Gaga
GTA
assault
Hand
##cha
##istan
Liverpool
OA
AUX
Five
##oir
##▅▅
##respond
##aha
346
Level
Player
##osite
exerc
roof
poll
message
selection
trust
##ione
knew
Sin
##Force
Anna
Cost
HO
labor
intel
RAV
1877
Talk
rules
apple
##RA
##ESS
tal
↓↓↓↓↓
##itled
volume
reaction
Gordon
mt
Age
1855
##achus
CTO
##ICE
commonly
Cher
##ooth
XD
519
PCI
urban
009
protected
Jes
##ordin
glass
islands
NVIDIA
younger
##eral
reasons
023
##shi
Nik
385
dig
fine
centuries
##400
##CE
Bab
Balt
genus
Nob
Ah
JB
youtube
##990
powers
Bruce
##ez
seventh
##MM
090
##osa
##king
Today
clean
1883
custom
jn
Santa
conference
nubia
２５
261
commissioned
Sab
##avig
1872
aw
##heme
1878
finds
585
withdraw
industrial
##elli
Bug
entirely
gain
prem
##ategy
hotel
headquarters
##Man
Jewish
##icient
Organ
Software
Philip
##itors
##onym
Mountain
12306
##olas
Nich
Theatre
nowiki
##ikip
ceremony
existing
##othing
Lear
ways
containing
##uction
calls
Raj
currently
Tai
defined
iM
rose
Lieutenant
atmosp
Trust
mys
poem
IO
1882
branch
Foundation
403
unus
Dylan
277
##108
rar
292
7200
Sydney
1874
consum
##unting
remember
1848
window
dress
colle
Style
RC
¸¸
1320
Michel
rac
cong
940
citizens
833
ign
rgb
0007
Gear
Beyonce
ven
xp
～～～
temperature
Ye
##ensis
Tar
awards
##uma
##unte
Domin
products
1863
RP
exact
lap
Kl
seems
Korea
arrival
NGC
developing
Pear
Girls
dedicated
##yt
ND
402
##LO
##ifer
##ennis
##OME
exchange
Emperor
##rons
Gulf
##rif
NCAA
822
##anner
LX
icon
McK
281
432
##wise
SON
##OTO
HBO
SBS
deck
##wick
stream
819
##AX
ones
352
Snap
holding
Gucci
Pit
flu
performing
##achusetts
qsx
contributed
ju
battalion
intensity
##abla
tend
forest
##iminal
tank
Alb
Jose
orchest
shape
ET
rare
hash
titles
Democratic
271
cars
mate
##active
Pow
Massachusetts
Bos
1879
Iron
projects
##nergy
ready
##aked
shooting
alle
ct
##anth
366
sites
focused
Director
Dur
TX
HDMI
Whe
##onia
flat
themes
Vers
comic
Imperial
accompanied
xxxx
improve
##ikipedia
##kt
##abala
scheduled
Dick
Swift
details
356
resemb
IPS
xia
Logo
Ig
##stal
25000
dang
768
regions
snow
purchased
wrong
locations
defensive
HDR
elimin
##cs
5400
Scient
1873
Fund
329
touchdown
Code
##istol
##ocker
supporting
experienced
xy
Set
##phone
##acted
Between
Centre
tall
synt
Edition
facilities
closely
sky
limit
correspond
literature
5300
Switch
symbol
##ropol
ow
##ntown
Naz
EXC
701
strengthen
##AVA
JT
Feder
##ju
##uda
433
drawn
Charl
domestic
##mo
OTA
##uster
Mars
Dougl
１８
##iler
##ologist
register
ESPN
616
secondary
steel
blow
zone
flooding
##inental
##555
cells
##GE
consists
equal
url
pitch
ai
##elson
MOD
334
Forest
##OO
providing
structures
428
##zhou
shark
6300
expedition
GitHub
introduction
528
Doc
Stadium
resident
HTTP
Hamilton
406
learned
Rand
1650
##wx
518
occupied
museum
Cooper
Nexus
925
##bourne
Fle
Library
understand
617
332
CFP
##rum
MLF
painting
nv
13000
boats
PT
QX
##ewhere
##ipe
Dragon
æº
535
mounted
journey
##iko
models
##amer
scholar
##rat
wealth
##UK
Administ
Dot
##128
UB
JavaScript
##laim
Anne
##achment
CK
letters
##fa
Row
##alog
submar
prepared
8500
planning
915
ABCD
Es
trains
CJ
KK
boot
basic
##unicip
524
##rets
##erts
368
Gill
adult
Hop
##osaurus
safety
##math
Byz
Joy
Gram
wow
recognized
Friend
acid
Brother
engaged
receiving
##Ex
youth
Ko
Category
eat
##OLED
moder
views
Again
##tty
entry
rapidly
Arn
Hou
cloud
KX
##eta
perhaps
##iege
##bound
##iques
rated
353
##ropri
Od
978
##ACE
##idae
cab
##itage
##ifically
soft
XV
USS
cricket
advent
##har
##leton
publication
1150
##106
##Pad
campus
brothers
1212
semi
merch
##Un
Phill
Chanel
easily
397
neighbor
Ted
rich
Lumia
##oral
294
heads
false
missing
Transport
camera
ADSL
##FA
##agu
357
293
Adams
sam
witness
bj
##asp
IMX
myth
725
vert
1858
beautiful
Next
programs
##wich
##RC
##cious
##ception
estate
790
HKEY
486
##ipping
##onda
Staff
##WA
fil
889
##zx
576
##hyth
alternative
##boys
##onn
##iration
Om
358
contest
##ONE
##GS
##lab
notable
013
415
YOU
##untu
Songs
Yes
##ulpt
395
sell
hired
autom
18000
approved
charts
##gency
3003
Treat
799
##hemat
picture
##asure
hi
##inois
rt
3900
viewed
padd
##osl
substant
IEA
sure
evening
1060
significantly
##erk
##INA
LT
6200
everyone
Bol
052
##xj
HUD
RD
##agle
Cape
Kal
503
brain
nick
reputation
appoint
southeast
Germans
fit
Justice
##know
watched
distingu
918
##OST
▽▽▽
squad
Tro
rend
Anthony
##otic
331
casualties
##uties
Serb
##scape
##qi
theat
##icine
##otype
339
##UL
327
depth
Amy
resistance
WH
Vietnam
1869
cinem
send
isol
515
distribution
adding
##uting
##ffee
##issance
Kentucky
516
ACC
connected
Colonel
Douglas
judge
scientific
##berts
0571
Asian
losses
##icts
Temple
feeling
operating
reduce
joint
##lik
##izations
OEM
prosp
##sole
##iversary
items
##oft
##game
sa
##uge
456
enl
tips
roughly
##ango
Memorial
##rik
Map
actress
Bou
Boot
##aron
HE
##rim
Clinton
ray
##118
intersection
WC
##pad
##ARA
Dead
instruct
★★★★☆
099
swim
Bit
taobao
##quest
##theless
allows
injured
Christopher
Smartisan
VT
agric
lat
##brid
##ships
aººæ
##ISS
composition
Samuel
assistant
Tower
367
##120
##rence
implement
turning
replace
EE
bands
##orb
Lov
##edding
KA
Justin
Mit
ham
CRM
franchise
1680
adap
Norway
wings
Ale
##ni
Anim
##opping
５０
Prom
ng
undert
politics
weibo
Know
employed
Olympics
Qual
##zb
##SQL
enjoyed
458
Blood
cited
promotion
consequ
##acts
Dance
AlphaGo
Prim
shaped
998
Where
retire
##apes
##okes
southwest
##encies
Federal
humans
##ture
increasingly
Beyond
455
candidate
laws
##zhu
##Hg
384
Joh
Perform
Maryland
Rolling
##night
869
regarding
css
zan
##nic
##hedral
doesn
Files
##125
tou
existence
##ibb
##vo
445
partners
unsuccess
Vel
gameplay
popularity
Io
Pap
stages
Mun
##mph
phase
phone
Fried
347
auth
##chers
bought
Gab
JAVA
EXCEL
mc
##oro
##alo
##ece
##lder
Gard
ol
393
4700
Bush
678
Third
##ASS
Non
Beatles
drew
1845
354
014
declined
subt
5100
##━━━━
cup
##Tr
showing
LNG
Lock
##enny
Dave
Fred
vent
465
interested
frag
OV
Naval
##asa
521
¤©
711
##insula
Hospital
Russell
converted
1020
Mind
Ub
##abled
291
Steven
1550
extremely
OT
##aux
##iya
neut
Winter
repair
Polo
##orage
correct
6004
##DC
##ardo
applied
##agg
exclus
Start
885
transform
storyline
duty
359
internal
##ovic
Robinson
##122
maintain
Disc
1701
FRM
VIS
secure
filled
athlet
655
income
headed
SOHO
Vent
##ivalent
FT
stopped
Beck
016
tele
girls
##EFL
##racle
Ru
carrying
references
##005
##ori
Wing
344
renamed
##break
OB
proposal
##away
20140
Jimmy
##you
##iants
435
warm
loop
Pixel
NX
##OH
mort
##ivan
collected
succeeded
CBC
##agen
418
Norman
718
808
##psons
##force
battery
##cement
opera
baseball
##nie
Buff
hhh
throw
Vinc
■■
407
##onto
expect
gall
See
hp
stadium
6002
Rhodes
Critical
corner
468
shel
rebu
constitution
agree
Care
lop
VB
Sem
##don
occas
combination
Merc
##ym
##anghai
Kennedy
Parker
BJ
orz
responded
TW
11000
3140
##owa
371
remov
Poland
Ng
##vens
##NO
1799
tom
climb
images
speak
AX
needs
Simpsons
##ME
ox
##mad
382
##idi
Bird
gone
##chang
proceed
##168
restaur
violence
LE
ke
3004
Rey
PSP
defence
description
speaking
Ent
Tot
Then
challenge
Dean
designs
##rogen
sustained
reserve
##ourself
OF
approached
AMOLED
##boy
##hetic
®¢
##obi
Roberts
finding
##vet
STEP
##Store
TMD
☆☆☆
importance
bp
##osure
lands
##oda
##ansas
KPI
NL
parties
Military
Morris
##urance
Brun
driving
362
demo
##burn
416
##ctions
religion
department
EG
URL
tf
##erver
Vive
##AST
producing
Instead
buried
##aria
##phoon
Turk
##amic
faith
Nelson
sculpt
fu
entrance
Fab
##113
View
##log
##bal
Lucas
hits
settlement
Kit
##acon
##etty
genre
Knight
Karl
src
342
mx
Pho
##WC
℃～
delivered
behavior
gap
1610
revolution
string
##risis
Ottoman
Ian
Mk
tact
##taining
##ahoo
crime
arranged
crown
stret
spons
partner
##olo
##eget
earliest
Oliv
##emies
identity
Stock
##oga
Hend
cad
##tv
Say
##ashed
PCB
##225
RNG
causes
419
##urray
Garden
633
studied
Harris
Tab
Confeder
gradually
Chron
offers
3250
investigation
##yu
652
connection
Labor
##iche
Cred
unp
Our
1815
##udden
reflect
independence
866
##umin
Bowl
decade
##avia
Author
526
apart
UFO
##lets
owner
Khan
##etta
Jonathan
httpm
1854
mir
Phys
##ilation
Hell
##ensus
Alfred
credited
805
formal
shen
##hl
##borne
weakened
lasted
CON
sections
evolution
Charlie
towns
lin
wuli
##ternal
Indiana
funds
##ertain
Raw
##ARS
##ologies
classic
##ician
generation
Illinois
actual
acts
freeway
Argent
１３
##ossible
indicated
Vo
dipl
credit
cf
retained
Children
promote
Thompson
##ingly
Indones
bom
freedom
SPF
Stat
DH
381
classes
library
consult
Shortly
acres
tu
engines
WMA
##erto
Nether
supplies
kingdom
KBS
temp
coastal
Beg
##orr
starts
##gest
Ring
kid
##ulu
Stra
playoff
landfall
##ervative
lose
##cell
##App
##organ
BOLL
##DB
1220
##pts
polic
Coupe
ment
##mat
Marie
Advent
1818
377
WHO
TCS
Fel
Zero
##igi
1688
##oker
Solar
605
capable
extension
ori
##after
##world
1856
Mario
613
slowly
Bed
objects
Maz
WL
intelligence
##＝＝＝＝
##sm
Computer
815
Gri
Lv
##etime
##JI
##otte
Aff
Wy
Lib
dual
brand
Energy
fruit
DSC
relief
##ques
subs
Services
715
TE
##oni
##entially
XXXX
3008
##yg
principal
457
426
sole
##Cloud
Grace
shut
Ice
Any
##lett
Evans
bon
##dr
443
855
1234
cosplay
566
°±
accur
##urring
Kate
af
##anta
Wright
##rod
skills
Trib
Assembly
##eness
##ht
writes
Television
Liu
Lawrence
Ella
1180
Blu
meters
##ighters
Cold
Fact
488
deaths
##regon
Local
667
Portug
##oured
provinc
##ritic
##ORE
Rachel
668
##IB
##bi
##erted
##apse
364
Junior
##YO
Country
TOEFL
VCD
##202
389
##erry
##abil
XF
Angela
##reci
##veland
1859
debate
NG
fur
hill
##inted
Tu
remix
Berlin
Mort
Lang
##estyle
##ELL
##senal
Pack
##116
444
##TM
entitled
##met
##hz
863
##ashi
##oS
##ARD
Singles
Mulder
351
manner
##ACK
prisoners
##ortion
fram
wel
1001
USC
PET
##idel
adapted
##anne
##ATCH
##ogether
##ieval
##vements
Snow
Alice
##enses
downtown
DHA
##point
Ferr
concerns
##VO
Ira
Roll
Holy
survived
ye
regiment
specifically
Marine
Carter
Mix
##athy
invited
##iquid
Weekly
Premier
mobile
txt
Bull
bright
ZF
ACE
##atinum
Ren
column
##AME
crash
Engineering
##western
##003
##uri
##PGA
##igo
fict
rural
##mate
channel
Exper
ruled
Pak
##ku
##iation
414
routes
recommended
##AAF
##esign
installed
##qq
typical
TJ
363
##MAN
1040
Photo
threatened
costs
Walker
voted
expand
Lenn
Tag
##ruption
##peria
knots
Cleveland
admitted
males
item
questions
Sig
shi
medal
concerned
dw
Buck
HQ
Eco
1780
##ieg
Margar
transition
Wa
balabala
methods
sth
crossed
wides
equipped
magn
##isen
strateg
warning
controversy
exception
dat
permanent
##uther
##iri
1857
##ranean
Future
purchase
Kon
Bristol
Current
POP
tanks
device
aspects
Polit
application
619
lie
9999
14000
Oregon
##gs
##igration
ªc
442
thinking
##anned
##azing
##hythm
DP
Yank
reality
EMS
ROX
recognition
422
Full
Mik
##aware
doctor
strategy
recalled
Palace
suit
Tes
##777
depend
##mont
495
##rophy
regional
folk
##Note
arc
preced
heat
883
breaking
##uki
##ogan
arrested
materials
bes
Constitution
Ghost
Pink
Tan
##301
interpret
Nations
1010
Plot
Guy
deleg
breeding
Yu
decor
1851
ICE
##comm
Ku
##pread
equivalent
##ipated
383
bear
787
349
1270
1520
Fashion
##orney
decades
pure
Unity
decline
wang
relative
technical
True
portrayed
Hitler
##state
resources
Priv
379
GAL
tie
champion
##115
565
Hawai
Hom
517
charged
SEC
tg
adidas
satisf
Lane
sale
##ivals
1580
##rant
composer
valley
##oop
##igen
413
surpr
dates
Verizon
Norwe
Comb
SONY
0371
duang
nomination
APEC
plane
Ali
considerable
Guide
Building
1450
##heastern
1825
Islam
neither
responsibility
Aqu
jin
lane
circum
Toronto
Obs
##noon
575
raise
driven
##uous
retreat
Ze
SAP
ster
##sea
417
bra
Partners
Finn
NAT
504
##agues
supposed
Hero
analy
file
passage
parallel
476
##itzer
##FT
##LAY
penal
Bishop
SQ
Connect
Police
##ommod
Beta
##sky
##asm
##ocol
spin
Lev
Prior
remainder
occurs
Dest
##reck
376
996
medium
Chem
Equ
##eor
##exual
milit
thousands
Rest
IDG
Speed
Classic
category
1810
highlight
wearing
academic
532
##hui
returns
##adi
##203
1853
Ral
females
##150
teen
Native
ACM
Stewart
Late
duties
##iah
##fire
##008
602
##222
##atherine
Fame
Ref
bond
Thunder
Pent
ti
##View
differences
SCI
Linked
##126
372
entering
Sign
##icken
compris
commit
criminal
606
##rin
consisting
Jesus
Action
posted
MBC
inher
6007
difference
Sax
eighth
##iga
##iami
sounds
attached
fields
nest
si
Ped
architecture
thirty
Construction
vehicle
Amb
Soul
acknow
HOT
Marshall
ABB
##works
outer
turb
##RI
settled
40000
##shop
driver
dx
##rine
##601
##ORT
volunte
Happy
Princess
ic
Meg
Surv
1847
374
835
Event
basketball
##RNA
##idia
##bra
desire
committed
obtained
province
Cole
##fox
##0001
dated
grounds
temple
enemies
carbon
##isms
Baker
anyone
chin
CAN
Benj
Shel
##hard
hun
torn
##606
nova
Must
Scully
Metac
derived
##rete
involving
departure
CDN
##elsen
Hur
mine
truth
##ECT
Around
506
foss
##icode
##rees
##uman
disturb
Mediter
Murray
1590
608
373
1852
divers
Pad
Youtube
Make
vide
##The
discovery
minister
Security
os
disag
COO
favorite
padding
##208
##ilot
16000
engineering
®°
AQ
##Sc
Hyper
Lad
obl
##icit
Vista
##oba
##303
##weight
Viv
##eston
VII
##ateau
songwrit
oldest
hat
##ails
load
Page
gets
##omot
passengers
Brand
Small
Ern
vessels
AJ
FN
funding
possibility
supporters
Seven
properties
premiere
614
Arsenal
describing
KV
Within
vision
patrol
##opes
387
linked
sight
noting
##ancer
internet
Return
Budd
´£
1849
error
widespread
##emed
Disco
Food
hosted
engineer
##ishi
Watson
##185
brigade
JC
##enna
Beijing
707
396
parliament
１６
##hell
Flight
Recording
LIVE
##vr
##ido
##xi
inner
712
mole
##cles
cancer
Fu
1822
chemical
Norwegian
Vice
moves
accused
0004
CU
Come
wish
##gers
Spark
sessions
armor
certified
1440
theatre
sup
755
opposite
Benjamin
Opera
thousand
##ompl
394
568
strongly
828
missed
509
dB
##rations
##Bay
##enter
SDK
boys
memorial
Oak
423
Tokyo
charges
INT
767
bringing
Esp
##fig
##stic
##bow
denied
##eton
626
##CAP
Mediterranean
##SA
##anche
rmb
Flyme
MATIC
assumed
##enness
vary
##riers
LBS
lib
Advanced
PTA
Arc
goods
Ark
PPTV
Alexand
##ixon
719
##idges
assistance
climate
factor
completion
##enne
literary
shots
##ogy
Mexican
Ec
##dale
##ATE
##argo
Throughout
##roke
Sull
##power
Kam
VA
##emet
##ERS
dl
grass
download
stayed
VM
1775
Kle
OG
448
Horn
##ystem
unusual
452
Ultra
jia
populations
looked
audio
worst
##orough
##109
##lyn
##icer
SI
dens
##acle
##oshi
pi
replacement
programme
tied
sequel
seemed
Sweden
Pierre
OMG
loser
stood
intention
##aba
GI
##yan
Similar
Metacritic
Xperia
sons
eleven
##helm
##CAL
chain
BMI
Cool
##orph
875
Rio
BGM
Source
##entle
Active
##oi
##Me
format
classification
##viation
rooms
Bh
1814
##agonist
##668
##aug
DSP
##aws
PSVR
YG
##eron
Chand
##rupted
EBA
##info
##roc
acclaim
912
##icide
1190
409
atmosphere
ui
destruction
VSC
##wealth
545
##ahoma
Melbourne
sed
Craig
begun
CW
ts
439
PSA
airport
happened
965
##going
adm
MMI
Netherlands
rub
##One
0531
Gilbert
effectively
Crown
Houston
Roc
UT
xi
571
653
IEEE
accommod
Additionally
##ない
6800
cycle
crop
##yard
427
##olars
451
missions
establishment
astron
##bu
terminus
##abet
##apers
MLB
°´
##thus
otherwise
Eff
498
BIG
lit
neck
##overy
animated
POLO
EQ
513
scheme
436
597
Minecraft
circulation
##olis
Jar
hal
##AK
Mand
UPS
association
Tit
636
accompl
falling
illeg
##Qu
serves
finishing
Mbps
8888
biggest
Titan
sailed
##list
##ovation
##8888
Cob
##abe
regularly
oh
##mun
##205
6600
Medical
balance
Bah
##atern
cooper
Motor
Billy
lect
ASR
Face
lies
449
achieve
JO
wiki
##nings
##ql
union
523
persu
522
IU
difficulty
ash
▽▽▽▽
Johnny
Frederick
OD
switch
hello
788
8800
##vinced
Flow
WM
１４
604
##izz
551
Take
##uv
852
Oliver
##114
fictional
IL
Term
##igs
interesting
wins
sharp
conclusion
alleged
##jan
##eland
1330
##ATA
Product
Graham
Hear
Wonder
##YLE
##uto
##ules
Hud
##107
431
instance
##SIC
Enterprise
attracted
emerged
Welsh
567
doct
inspiration
attributed
##rs
wickets
##udes
ensure
##IKE
Batman
Mes
##aska
##chell
Object
theor
CCD
479
GLA
466
Works
interests
appropri
8090
instit
GTD
watching
Warner
measures
713
Chang
commanded
stands
dating
chorus
Ve
##enix
##INK
##rt
UFC
##jin
Writing
recovered
incorporated
occasionally
lake
##Bo
accounts
##bird
609
SX
demol
Lat
moon
vc
wonder
1812
fz
Glass
seeing
Kings
cavalry
UD
##oken
341
##iece
Kg
##ref
##qing
Mond
598
Ward
sudden
##ilers
607
##iper
##opter
Information
Jessica
##coming
eggs
714
Mother
votes
spoke
jj
ancest
##kk
Update
veget
Heavy
Valent
angel
1835
Unlike
421
prey
##iat
courts
clubs
##oria
marketing
Taiwan
424
McD
865
Area
synthes
communities
##aints
Malays
Creat
adults
Block
massive
Diego
Margaret
hoped
##fish
FED
Tun
1210
afternoon
Burberry
Simpson
Herm
##iph
9600
##aze
Kin
Maur
rm
Unit
Communic
Hey
Record
greatly
##mers
ThinkPad
TIM
##sewhere
classified
divisions
##borough
055
classical
Leslie
Bure
nom
Commander
Rih
movements
ride
##lon
reserv
##198
requested
languages
ratings
¯¥
##acc
##teenth
Neil
option
factors
separated
Grey
MMA
##fly
0001
Mall
jing
##Le
##china
##121
leads
★★★☆☆
0731
717
Sett
assemb
¸¤
##erg
recru
838
surviving
cruiser
##RO
Commonwealth
Hyd
##keep
determine
Oracle
##ucks
Sak
eBay
Kw
Opp
miniS
Perry
Industry
surf
anniversary
yi
##roit
Choice
macd
813
1480
##ewhat
845
streets
weapon
Len
Tak
alien
OFF
Chamber
vertical
CDMA
Collection
1460
aboard
Lost
pool
Emma
Sullivan
##di
Nag
fate
sorry
photograph
cours
temporary
##pan
511
##789
Neg
loyal
##apping
Ruby
VPN
478
Maj
presidential
EU
Pic
##oa
appreci
util
##Cont
Armen
praise
Las
##roph
Yam
##cat
Macbook
superior
DG
enh
constant
589
tries
##lem
##DN
##BOX
##iliar
github
comv
##ocation
538
454
COD
Queens
817
##aders
##emetery
Had
Blues
frame
delayed
RGB
documentary
Jews
Nord
bin
techniques
injuries
##505
grade
LB
Release
festival
##yy
438
Bri
tc
##III
1795
Less
ocean
514
standards
##124
507
##119
392
624
Warren
814
Opt
giant
##atever
Jerry
##302
meets
penalty
mart
##acent
##lication
predecess
##117
##pc
pros
surrounded
722
BTV
rum
##MC
1770
Place
Colorado
##Ag
1790
GeForce
passenger
Bernard
●●●
suffering
##sch
3005
QC
rush
##ridge
Byzantine
Stu
705
blank
Moz
6100
Rihanna
##onze
##urday
##～～～～
Mong
##nn
Hann
##die
renew
Sweet
##using
Thus
645
battleships
Dub
Fil
##MO
visible
historians
zu
1841
forming
Anti
##tenance
absol
Shanghai
restored
immediate
jack
##fare
Along
017
Vl
553
##708
Campbell
##iac
convinced
Keep
##usted
##158
544
Cow
##imi
577
985211
graphics
wait
##agers
please
1499
635
Puerto
fighter
μm
Diamond
##umi
convent
Universal
forg
characteristics
UL
restrict
surprise
claiming
##sex
OUT
539
Harvard
Hills
JK
Mack
Wol
pa
Legacy
iDrive
Trek
testing
##case
benef
Machine
flank
junior
SFC
018
cul
navig
closer
Tig
##5555
spend
757
Kan
musicians
Lion
operate
Fem
731
depict
ghost
##adoop
##Play
##db
romantic
##angle
environmental
surviv
huge
naive
##ropolitan
##inals
##IST
Mrs
communication
diet
sweet
##GL
537
##2014
AppleWatch
displ
teaching
Spot
Mol
ff
##cal
somewhat
Performance
ds
552
##vernote
absence
##code
627
repro
holds
Virt
Tol
Ralph
Shift
values
Chi
reviewer
##ellite
photo
involvement
1844
fled
##elta
Bud
SAS
453
Barry
xing
##char
##ando
Financial
pound
##do
##icon
pose
sees
Dod
1846
##129
Franklin
##Data
Money
6700
µe
638
emotional
716
Kurt
##sung
##enberg
1380
excess
resear
581
583
Zhang
facility
##cos
Oric
municip
Seattle
crosses
races
429
remove
##Time
675
distributed
Pi
##TH
##orous
remn
adaptation
775
↑↑
##attan
phen
529
modified
Langu
##inter
858
Benn
1599
Saturday
Nielsen
1776
##308
multi
universe
arts
966
DLC
creative
carrier
excell
Born
Mission
##empl
##apped
Lor
lob
556
##rams
submarine
558
##phy
emergency
5900
interior
batting
shock
vul
##fu
##BY
##exp
depos
strip
bt
441
Horse
Croatian
Math
Trav
believes
dismissed
Il
ninth
##Be
Hem
901
Metro
chairman
styles
##abs
oppo
bombard
colonial
KFC
477
legs
Ce
Right
alco
473
benefit
##てい
beta
advice
encouraged
868
deliver
echo
es
DNF
throne
Turb
WA
Muslim
Cz
beach
Swedish
##where
##emor
yourself
Manh
fitted
##SP
generated
Farm
JY
Abd
premiered
OVA
Stef
SATA
ADP
PAR
##703
weekend
Race
686
##arth
intent
##annon
Kirk
taught
##equ
##ingham
##ipse
803
##no
SNS
rescue
##nik
##master
##136
Hungarian
chapter
##oming
391
##ultane
experiences
belt
Cosplay
Sau
##ifa
Iowa
##ront
##je
IoT
Stop
medieval
##rast
##Fone
employees
##MEX
stable
archae
temperatures
dangerous
##pet
##chi
Associ
Standard
HU
Shaw
Stevens
starred
Banks
safe
diam
1839
trained
COMEX
Hadoop
XB
ped
wan
Ald
Meth
Ori
Juan
Publ
Yang
##ogo
##ailed
Ric
Natural
exit
##raf
484
persp
Find
KC
Ton
446
Gray
##urches
549
choose
diplom
consp
ii
##SO
##268
Systems
Dw
Fat
landed
KP
536
572
698
designer
Beng
628
treated
Rat
##ugosl
DirectX
Detroit
Miami
deemed
coc
guide
painted
Toy
##odore
464
##ONG
CFO
friendly
##chat
437
733
IA
mL
##andom
Belg
DotA
fuck
２１
Leo
STYLE
attacking
retirement
continuing
elections
wedding
RAF
authors
professor
longest
Cyr
constit
Ess
console
proced
personality
Mans
PLC
Prop
Room
019
gz
##ais
uniform
ETC
gang
controversial
clock
childhood
animation
context
colony
Running
acknowled
459
afterwards
##rb
pregn
appearing
Eye
##si
arrangement
##155
Pope
Tob
convention
ZenFone
Esc
##808
##mid
##anton
632
##imore
903
Spears
CRH
belief
legislation
##Co
##uris
527
Indians
Vincent
RQ
cu
586
Tommy
informed
Ul
898
xDrive
##iders
４０
teeth
Report
XE
ni
2040
convection
examples
pron
extent
##resent
Gene
WORD
##127
Keith
swe
##eenth
alleg
releases
##ANK
531
##names
##ags
trials
settle
DZ
ak
##206
463
apparent
comments
historic
discussed
Cass
Tax
hearing
751
attempting
Oricon
##itis
##icians
XY
trac
483
MUJI
629
relationships
dominated
1798
comfort
846
##artney
Chan
727
Cinem
60000
Princip
dollars
##max
##erb
thin
623
wikipedia
Fate
##avasc
understanding
jobs
##egas
monarch
GSM
habitat
Lennon
Made
656
839
describe
##０００
##ushi
waiting
Lex
WTA
stem
1805
surg
Manager
548
profile
Susan
RAAF
１７
765
Rud
462
define
##tha
##okia
victims
MOOC
Hamp
kit
##887
LATCH
secured
depicted
##kh
seed
founder
##cription
moderate
eval
##attro
Larry
Material
crisis
Having
##iba
jian
railroad
hundreds
veter
Yet
##cular
Community
DIF
Yellow
cg
##jt
##izer
Greece
BW
db
presentation
##138
parent
representing
Et
##MP
antic
NEC
##ologists
facing
##oking
Geek
Johann
tests
compos
Boys
instruments
Pars
hunting
595
Orange
DAY
disappear
Quest
Cut
HF
1598
Samsung
tone
Canal
##grad
NYMEX
##feld
##801
563
listen
deployed
766
vice
narrative
poetry
##Net
CIA
Gam
##din
##urst
Austria
preferred
asc
665
Marvel
Mitchell
unsuccessful
##aco
formerly
Somers
##ます
outbreak
##run
assass
LAN
554
TRC
##avity
clim
Eug
uk
influential
technique
##vision
2999
spending
##yler
546
schedule
Eth
lg
1275
marry
wooden
489
Syn
SHOW
Vik
pretty
Soph
changing
##watch
nba
LOW
permission
492
server
##urer
advis
496
novels
Yahoo
Ministry
FAT
◆◆
##arr
1838
impossible
ZAN
Tiger
ATS
apparently
Professional
Antonio
visitors
▅▅
Medal
diagn
Bath
NTF
##ugg
Obama
IX
flew
##inction
##ouri
Harvey
##195
reveals
influences
Sean
Peace
ridge
##irm
1760
##vere
offices
solution
Turkish
Yugosl
evil
argument
behavi
882
software
##CDMA
BUFF
Paper
##xs
##edu
471
Friday
##encing
participate
Professor
dialogue
rates
434
634
Croatia
##dn
557
639
469
3050
chrome
745
Minnes
journalist
Baltimore
Ple
Soon
##BE
##inson
moments
Hack
node
successor
pointed
detailed
executed
Federation
1843
TNT
447
##sson
Books
Prize
mand
td
beats
enthus
coins
981
ICT
##avascript
1832
068
Bag
Jump
Bloom
Calvin
wheel
Guardian
##605
phr
##netic
Treaty
##pi
prime
Rab
##icious
Anglo
##iveness
garrison
Kap
574
bats
##pear
Cycl
Bulgar
##from
Gor
siege
1842
482
resign
472
Championships
Fed
##oca
##ipper
Personal
914
CAR
Nash
Spy
##core
481
moral
Has
phd
gard
##CP
732
organizations
Halo
##arked
Foreign
ctrl
intense
##oked
587
832
minimum
policies
Alab
handed
Bobby
keeping
µæ
Unix
Gate
pushed
##endment
968
Tru
Albums
##hist
##Work
exposed
10086
oxy
wants
806
scientists
##show
0027
493
UEF
##rost
##cover
Wilhelm
LYN
##609
unn
aged
SJ
621
ZZ
##608
jazz
NTFS
tempor
##gate
Village
shopping
Much
##word
##clude
ie
wet
sympt
##bes
reconst
658
enters
##ulty
Forces
MPEG
liu
defended
ethnic
Ubuntu
##asia
BN
Chel
Arnold
Wrestling
##QQ
696
refuge
##OCK
##rift
ICP
TAT
Wings
Represent
Osc
Napole
Side
##aku
Unicode
##akespear
magic
calcul
##usal
573
aware
Bros
Hip
photoshop
##6666
Todd
Manhattan
agents
LOOK
##avi
##112
OTT
1720
Inv
909
988
685
Agency
##onymous
##aman
corpor
##603
Rot
accompany
##eu
1834
##177
##udio
0769
##ricted
Hunt
erect
２４
synd
inhabit
Tesla
Spart
foundation
ranking
Phoenix
videos
Alabama
##SD
Cha
702
reportedly
Nevertheless
Learning
1012
sd
##asters
maintenance
drums
Trade
##uing
impressed
listing
##Te
878
picked
ACD
Hil
Tree
Double
Nine
##EI
1816
##amps
TIPS
Brothers
FOR
##508
9500
ASP
KT
ln
rarely
bridges
substantial
footage
existed
1509
React
toll
1819
PN
1836
forec
##ucker
prevented
Living
##orf
##sters
scen
Mississ
shore
##ieve
resigned
normally
Sales
Carn
Voice
1660
1793
##331
surrender
##dit
##udi
firing
æfrac
##olph
dies
836
##cts
Montreal
deter
20170
formally
smooth
publisher
drawing
Independent
MJ
extreme
opponents
##ALL
encountered
mal
##fc
6011
1789
static
23333
##affe
sad
twitter
Gallery
Minnesota
２６
##OLD
LOCAL
Somerset
periods
##idal
Training
arrest
helping
grey
##merce
electronic
difficulties
Clar
trouble
Bureau
Sug
wine
547
Ky
##avor
093
Shakespear
mb
1837
##886
meat
tub
assign
vessel
Mail
##135
sink
orb
finance
housing
##icity
##inea
682
534
commemor
notably
Spirit
897
Days
Ing
complic
854
thereafter
loan
##bao
Champion
functions
residential
restaurant
##ilty
##emen
prohib
upd
735
lowest
refers
ALT
yes
##305
##ribed
##────
##otton
truck
legend
LYNK
##icate
721
BV
Drop
nvren
Cer
Rang
hull
##709
whereas
rebell
Administration
MQ
##009
##ema
##attered
##edit
1314
Magn
feud
MOBA
Scar
email
Mom
PI
##006
##401
assess
hz
Season
falls
##wo
##owski
rhythm
##bot
pounds
##cester
seeking
##ibbean
ºaº
funny
indicate
Stuart
Vision
##LD
876
simultane
##223
##http
##imm
Giants
##avery
scholars
Cov
1824
nickn
##pin
1806
Roose
isolated
##mates
MY
fm
##atu
##2015
expression
6400
Blog
Wayne
diameter
Liz
Mak
grown
wx
578
##456
explain
departed
fps
##╬╬
survive
¸¦
##309
lem
LinkedIn
##806
3750
compete
TBS
Sex
##998
4850
##ctic
582
verse
Studies
Krist
telling
６０
Finance
cha
Caribbean
##appa
territories
935
McM
##XXXX
##rose
##ivated
##175
474
Tang
garden
shif
##165
frequent
##156
MACH
Athlet
Terry
##ATION
##ounced
negotiations
wasn
##estone
##oyu
Euro
protest
mathemat
##asha
struggle
vel
033
##ugby
Initially
Friends
##228
##velt
Triple
Bomb
Flying
##usc
##angel
##issions
Isa
Gran
##tcyd
Kick
Rou
thir
partly
fishing
1644
convoy
Cond
Emer
##SC
##↓↓↓↓
Nova
covers
##father
##zona
##Al
##ilst
resolution
simpl
fixed
##edge
##ensions
594
willing
honour
recommend
Danny
collaps
Mob
zero
twin
explo
representative
cruisers
Lan
Nicholas
partnership
Fif
quiet
##ERO
investment
201503
McL
mamm
##imeter
945
signal
finals
Tele
LME
UGC
bay
reun
Township
gate
##178
withdrew
Near
admin
coordin
sufficient
Urban
##209
##orders
559
596
649
FLASH
Leonard
Potter
##atically
1390
imprison
Ide
1831
bypass
Stanford
tip
##Web
##oyage
##ippi
Kiss
dtcyd
zg
seats
reviewers
Lith
looks
powered
uncertain
Collins
upgraded
Zone
zz
##VM
##clipse
543
LOVE
monument
##858
##eto
SSG
Peninsula
neighborhood
Monte
entertainment
##claim
minimal
##jiang
541
traveled
talking
expensive
approval
cpa
663
648
1809
Gh
##orious
Psych
categ
connect
643
Monster
1070
insc
853
mainstream
MRI
lock
##sa
Assist
EH
Py
Table
notice
##zzle
##olve
##lay
Olivia
yield
##tion
809
##uka
asking
feelings
2024
##757
IEL
dynasty
Griff
fox
Hudson
platinum
conscious
neutral
Graph
fung
##jie
degrees
##ST
##utton
##ersion
##rous
467
Tip
##eas
1804
march
perce
serial
Patt
JA
duo
layer
##hammad
Honda
##rates
1310
Scout
Ki
sector
forcing
##bel
##ADA
##AAAAAAAA
CAS
Wu
partially
Belgium
NGO
##onica
attachment
specimens
Hungary
Beh
collapse
Murphy
913
DW
##arant
3002
##pert
poison
##blog
826
documents
Bes
Nad
tab
Electric
Philippines
##eyer
mountains
Nazi
XML
##rating
DRAM
Kill
hook
MAN
finale
subjects
nations
##oji
articles
662
soil
##ARE
beauty
##0002
##ools
alive
intellect
Senator
circumst
##illo
##196
Cad
bf
654
##onnaissance
protein
##9999
687
##ITE
Nas
fx
##uable
cyl
Alph
LGD
WEB
Text
1268
spr
9800
Jet
Kansas
Seb
eb
Easy
Fisher
Chin
703
829
Pant
##mund
851
Reserve
stress
789
ISP
##503
trick
milk
066
1823
Azure
TK
rig
542
##yi
Roosevelt
Access
Fan
Austin
Movie
Wag
##rait
agency
Tenness
##ivation
underground
916
IELTS
output
underst
operational
turrets
Australians
##IDI
Musk
Lightning
nucle
##zo
mmHg
interact
Grammy
FTP
NR
shear
concerts
candidates
494
##othy
asks
wp
McCartney
credits
Hugh
Turbo
812
MAR
##gie
joining
creator
mmol
Portland
Nu
Body
ov
1801
pages
recordings
boost
Arizona
Mull
##storm
lang
lists
908
##ibor
##keley
tenth
##ateur
criticised
spiritual
pad
Comic
ninet
##racts
758
669
Maya
paintings
Crystal
appointment
Got
Mg
VOC
Inside
##place
724
drivers
GIS
Shen
bases
Beats
hosts
Clear
Mick
locomot
PART
##duce
##aja
Fern
##anium
##uez
##USE
pitched
faster
Luke
concrete
travelled
adjacent
philosophy
Din
waves
Stri
754
radar
Such
fb
rivers
1833
prompted
Bach
fighters
921
Campaign
##eno
562
AppStore
Sid
gdp
1299
##ayan
obvious
covering
Fast
hockey
##Type
inaug
##139
##namese
##olid
dispute
##ellar
##quir
percentage
clearly
newspapers
Kitty
storage
Planet
oxygen
Mint
##onomy
##osc
elsewhere
chen
violent
Tracy
##yang
##rav
##FR
abilities
familiar
douban
Vietnamese
perspective
Dall
XM
##ishment
##ificial
terror
Tennessee
sick
Hockey
lady
Steel
circuit
sg
suicide
Ont
Rights
displayed
Lot
math
1821
487
695
helic
config
purposes
Trail
MEM
Nam
Round
1120
churches
unlike
Price
dimens
##iffer
646
useful
rising
##502
Ja
Name
1370
occupation
kids
canal
Bak
Dj
strict
suitable
businesses
##IGH
VG
##fund
Nan
tel
##loyd
Sac
villages
instrumental
Pearl
Ivan
RV
emperor
possession
Gabri
zha
tunnel
mental
BOT
banks
DIV
##ascar
Total
##Pa
592
##arma
destroyers
yang
##opic
##OWN
treaty
651
signs
tribute
Hob
Hughes
##rus
##ication
1802
##ographical
cub
Language
Delta
035
1794
##utor
acted
dd
##note
storms
##FE
Faker
Lamb
##oven
´¨
##hot
##bus
##echat
Hunter
ideal
##enesis
1333
491
intercept
arriving
##iren
Stre
advoc
fifteen
Swiss
HCG
exercise
din
usual
785
bc
1325
SpaceX
##anches
bombers
prepare
Have
wen
##antin
ESC
Missouri
NCAP
liquid
ppm
Historic
mit
##acks
##883
##183
##CAD
rounds
##alions
designation
occasions
Apoll
Upper
##rage
##amo
2150
997
##cont
Symph
dogs
Jennifer
forty
##agger
709
706
674
TFT
random
uber
3280
File
Woman
##ski
Impact
elder
##fun
lu
##ов
Louisiana
preserved
1240
suv
1102
PVE
Interstate
##iong
Insp
DCT
essential
Bour
CAT
Kid
stick
Stein
Mississippi
protagonist
factory
Sha
illness
1807
CAC
eliminated
Goth
##hent
Index
Quant
closing
input
##imo
497
arrive
anch
6013
##207
registered
Cand
NU
Hallow
##wing
Catherine
Gy
String
GMP
birthday
2023
##ocracy
victories
Pictures
info
keyboard
Architect
Lay
err
excellent
WR
eg
1340
##enda
Dram
disaster
Environment
behalf
sang
2560
##901
offering
pilots
wu
##girl
targets
Barbara
users
Travel
Rift
Unt
907
precip
Bert
aa
##eda
##ede
liked
Lud
708
##iens
657
823
##town
##And
orbit
alignment
acceler
##munition
##opol
recip
rapper
##IDS
1808
933
ktv
##004
1792
ping
Read
fifty
##Ad
forever
795
Edwards
##shine
##raz
publicly
##antom
##qin
1470
prol
Sciences
Job
mall
skull
elabor
angle
1505
##Boost
##onald
teach
imperial
alcohol
Ridge
##artner
973
MySQL
bonus
mad
apartment
murd
symptoms
1255
##iffany
doubt
Turner
975
stere
bid
ka
dollar
craft
##hill
MACHINE
Asp
Past
##acs
1829
729
retail
Fight
##andal
escort
Lily
Pick
assisted
##ст
1826
forests
##226
Clay
signing
##olin
submitted
affairs
##LAB
FPGA
SOS
VL
##ovo
marks
Iraq
loved
¯´
Labour
Pam
579
htt
##eling
##utter
##506
clin
644
Quick
##××
Neo
institutions
Motion
deliber
Liter
earthqu
##University
1030
##602
zhong
##IFE
femin
##inations
##imen
survivors
qi
##hm
##inst
##oustic
Abbey
Mega
coup
collaboration
##ancell
Broadway
pup
756
Switzer
opponent
readers
competed
aggreg
agricultural
io
##Th
905
683
Cafe
902
##shore
##ieties
patterns
tornado
Sans
684
queen
gro
##ulating
aimed
7300
trading
Egyptian
Hope
cous
##urally
Heritage
phenomen
##layer
##olds
677
mines
Aer
coverage
Years
##how
electron
Pul
##seud
affili
Hindu
Fish
tex
¸¯
Depression
##NE
##ultan
blabla
738
DPS
Lloyd
##itated
coffee
affair
represents
SDN
walking
##UCN
Cod
Wo
##ripts
RFID
myself
##umps
561
728
backing
justice
Firefox
Rodrig
Czech
917
##alities
1490
664
preparation
matters
defeating
Palest
VVT
sunk
saved
##illes
resumed
IH
##issa
programming
intensified
comparison
676
ASC
riders
Half
##Joy
661
HI
Task
##ea
##Down
1540
Oscar
Switzerland
cash
17000
profit
sank
overt
Settings
##arc
##asant
Glen
1368
##501
569
Bass
lift
cock
##uations
stretch
Fit
Together
1620
sha
##inding
overl
Messenger
junction
##ulous
##izh
Alliance
Beautiful
CES
AIR
##amics
Stars
earn
Mazda
２２
##uru
##403
ARP
INF
measured
rit
##aration
recre
EVUS
UM
##akh
843
OSX
predict
IPTV
Check
Marketing
VE
##Link
##etang
audiences
Break
Honor
Cortex
hung
pv
underw
Geoff
GameSp
1612
681
assists
exhibition
hidden
badly
suspended
659
Metal
Cell
PPS
##DE
748
bm
pace
diy
salt
##186
Carlos
##667
689
704
ZARA
tight
##uters
discussion
Audio
##lass
revenue
IUCN
1205
591
##mingham
wei
absorb
##visor
Jup
Vogue
Bright
Merced
dancing
1640
Helen
Premium
fs
1828
isn
ticket
feels
flights
##ubbed
liberal
Shakespeare
um
1560
##ghan
461
Wallace
Baseball
Produc
Image
plate
##197
quattro
ammunition
Valve
seriously
drugs
Kyle
panel
residence
Brig
MSCI
Critics
fill
kings
##odge
Century
unsigned
KL
solar
Please
Sud
citing
##door
##venge
Charlotte
##icut
pulled
Rico
##705
742
situated
favorable
racing
statue
ownership
explosion
Pitts
Hat
##bye
funeral
GALAX
##007
##roud
exactly
filed
##Br
##358
##385
Soft
boundary
Haz
##YA
995
##xue
parish
esp
##ints
Okl
##bank
056
steps
repeat
shells
##Air
Visa
thanks
Thor
２０１５
Begin
##zc
##UX
##idency
attendance
voiced
Craw
spir
1262
##oup
Coach
engagement
Eve
##You
##agi
Still
##153
delivery
Gon
lieutenant
##dream
CRT
wrest
##issue
671
markets
Serge
patients
Cuba
surgery
poorly
##rastructure
dc
##eting
##idian
SCP
bulk
dj
abol
repairs
##World
shield
##geon
##336
Convention
Pir
amounts
monitor
pip
yun
execut
institution
Eddie
Snapchat
Newton
##Stack
horror
holiday
Kaz
wore
##haw
compilation
practices
Section
xiao
##lain
frust
triple
859
charter
Freedom
##onfig
##alia
##ensor
obtain
Jeremy
Cherry
##var
##cott
##strong
##152
styl
circle
poly
Grad
iMac
##qiu
##IFT
contributions
administrative
Vlad
##lings
INS
##ischer
objective
papi
593
sequences
##805
Prada
Iran
dramatic
JN
mask
shirt
##802
924
FP
RW
##umer
##406
RQFII
OTC
##enson
679
restricted
fallen
Kenneth
Persian
AIC
1013
alpha
##endy
Analy
692
##apolis
controls
##esses
904
Morrison
cargo
diamond
80000
Fac
Mason
cx
2499
804
alliance
directors
genetic
Defense
temporarily
reluct
Hav
##len
Anc
talent
Virtual
Bald
EOS
vast
wire
##JO
Oklahoma
nat
wreck
##cano
reflected
vulner
Curt
usb
replacing
skill
flowers
Birmingham
##He
642
637
affect
Number
##338
##asi
vipp
satellite
Youth
flex
sitting
apply
##ICO
Trip
Otto
Nav
nan
20130
928
ceremon
tong
Single
##bishop
Boe
recognised
cct
1570
##ocus
zf
Account
Territ
Ae
Rank
lad
##esty
##885
blocks
NI
##ouver
stores
##307
##996
Legend
suggesting
Bennett
##with
4006
987
Nancy
##otyp
illegal
##ilia
Shah
portal
definition
conqu
##407
conservative
Vit
##ugh
##BB
unity
Mosc
##reted
##eme
Cameron
Villa
2650
##izza
Mountains
Plant
debt
Without
Atlanta
##hart
##arin
564
therap
##omon
##tery
##405
Dak
##rehens
whatever
631
Tell
##roe
amongst
Sep
Wes
palace
Brooks
Pel
##immer
Nokia
Ot
##aren
restoration
coat
artistic
Beauty
Dennis
SEM
##665
decide
Edin
succeed
GHOST
Ay
1530
4150
explains
723
Delaware
httpp
nit
drove
051
##567
completing
##Phone
topic
translation
MN
1558
frig
lawyer
Put
iCloud
##cru
##wiki
##aru
##icing
1360
##imir
decides
Ellen
Tamil
Jen
032
depending
##file
##ookie
837
##born
##omi
demonstrated
rh
sir
Arr
##558
Morning
##stan
Frances
touring
Cert
##HI
##imer
plain
predomin
cancelled
RN
##dc
Father
thread
earning
medicine
Bryan
compens
visiting
##jm
##VER
shr
STEM
Denmark
fastest
Km
hn
punk
##lane
##163
crews
JPG
Kids
##gor
threw
##oko
##ennium
bull
wap
##irts
Those
769
963
distinguished
Bella
Wells
##iate
##★★★★
UG
##Eco
ºafrac
##species
ey
sisters
584
escaped
pink
##hous
##Point
discip
argues
Apache
merchant
dong
characterized
Emily
Lucy
##inated
tribes
swimming
Private
##PL
877
condem
Support
od
Spider
guilty
GTDi
Aaron
GQ
Wong
##204
extend
lacked
Daw
waste
35000
abund
Players
Jin
1215
shipping
053
938
Railroad
dominant
##igger
Indies
BEC
tack
5050
039
CTRL
expert
sung
##kon
Defence
rebuilt
##eries
partial
##193
UEFA
Rena
##isch
unre
guarant
ho
mining
circumstances
sample
cutting
fo
##stery
037
GPRS
Markit
##aton
672
##aughters
armored
ranging
IEC
danger
##vor
Champions
CDS
poems
om
Berkeley
adventure
jk
Continental
ranks
##KA
breath
distinctive
Halloween
horn
overw
Formula
##acre
wider
anth
##opy
726
Vanc
kdj
906
Va
##otions
bronze
Wor
##CL
2250
blind
decisions
３１
##oya
936
Pod
##701
propag
colonies
Sey
##Bl
unless
##nia
##cut
##omo
spac
##ishang
obst
excav
User
Want
Austrian
##loe
##zp
##906
Burton
FAN
PQ
1796
##607
severely
Guitar
Poll
Rush
TU
1616
922
1130
##uded
aggressive
nu
##ppy
807
Prix
Friedrich
Ground
1813
Carr
mainland
PLUS
Liberal
appropriate
Celt
##rob
prices
printed
descend
Docker
##Live
invent
passion
requires
clothing
##mani
roots
gray
Intro
Cathedral
Lux
Nixon
PDA
##ixun
Harbor
confront
flagship
remnants
Chall
7800
2850
Salv
lying
776
behaviour
Jupiter
yuan
##lr
##mith
1510
reaches
986
Peters
↑↓
brill
overseas
##igu
legacy
inhabitants
vic
meetings
Cay
wicket
##ahl
Monica
GUI
dict
827
Evernote
##RY
##onian
EXE
Mend
##jk
##した
Edinburgh
Sonic
cb
hem
887
762
Confederate
playoffs
Too
##OSE
oblig
lan
mud
##inz
##encer
Raymond
PW
##atar
1011
devices
LINE
Tyler
0512
969
Picture
militia
Ontario
##inge
1817
LeEco
##809
recovery
accum
Vancouver
##255
striking
predicted
Fur
##803
maneu
angry
DDoS
Kel
##162
realized
Annie
uncle
0551
743
slaves
NIKE
planets
clothes
evolved
201607
1573
##beat
virus
1618
revers
repeatedly
##0005
armament
Formation
Broadcast
Parsons
theater
Inte
7600
personally
armour
Sor
##905
dinner
##ょう
Official
Robot
Napoleon
NEX
Owen
gear
##pat
##889
bowling
households
prove
Chair
1208
647
##ierra
Executive
bg
bone
##urd
##abase
external
Officer
BBA
pione
##wy
spotted
Dear
tian
##itals
drag
##ITY
explan
Self
pursue
inland
##izhi
Cav
enfor
867
retain
##sequently
1765
951
allies
844
hack
1015
Imag
Lithuan
Ker
Mode
pale
##509
641
Connecticut
２３
musician
increases
##leb
Exc
aspect
Chelsea
AWS
Dy
rif
##zj
Process
helps
TNA
chest
jo
qian
guy
rol
##Pal
1699
Airlines
pictures
##lu
##atra
946
casting
Salt
##fers
attitude
bigbang
２８
chamber
DLL
848
putting
Display
Finally
coinc
hypothes
athletes
Josh
Shadow
secretary
typhoon
Pakistan
Spl
gust
joy
##po
094
pig
##JS
forth
881
backed
ChinaJoy
CNC
qualified
Bark
##ZZ
##408
demands
Meteor
intellectual
Crow
Walt
diver
##ete
1773
orange
Email
papers
eating
juris
1501
promised
Malaysia
##odox
##169
zhang
carriers
tools
sugar
landscape
tort
##div
meter
VV
convert
##404
knows
nominations
Sleep
1797
##663
##556
##ANN
slave
perceived
Mut
895
Harold
##raction
EMI
Marcus
execution
Apollo
zuo
3350
026
millimet
0451
northward
coser
strategic
Mercedes
6018
##132
confidence
Fitz
##vas
##1001
identify
Authority
4999
dressed
ports
##143
NEW
Pas
fantasy
##ilda
NOK
Canter
audition
Hardy
Forever
Hawaii
xue
##itudes
##738
raising
##mmet
##svr
824
cancel
SUN
##657
##AW
enroll
autobi
burning
##mel
Julian
density
Cust
gene
HIGH
feather
hole
whilst
movies
graduate
printf
bombs
##isco
##ANA
Boat
ri
1785
Rogers
Safari
##amine
component
quad
quarterback
alternate
opportunities
Michelle
bath
##☆☆☆
happen
conversion
sv
attained
##onsin
engage
993
heading
friendship
２７
##folk
reward
ratio
JM
null
blues
civilian
concentration
vr
zt
##otan
similarly
Bear
##ecution
##usk
##endar
673
693
exposure
Originally
Kay
Parad
believing
Kaiser
wo
Exchange
param
Province
predecessor
##icus
Based
HY
##bie
##ingo
idx
Furthermore
lights
##pop
thank
##176
insisted
mush
##Res
##elia
reconnaissance
desert
958
##OWER
radical
Gates
Nation
##azines
1606
cctv
CET
1195
Spect
##nered
##ania
##131
929
subspecies
##■■
834
stronger
3721
Isab
announcement
896
Shell
Abu
AND
Fo
Ruth
dy
stuff
abc
749
Pete
ritual
Camb
Madag
battalions
Miles
Cultural
bones
hao
Screen
ski
simultaneously
##xinji
dim
1230
982
##706
##409
##335
demanded
GNU
##To
peaking
VIII
##cements
##bach
##itely
1811
Outstanding
compliment
Search
gy
##Name
##IAN
bacter
786
##559
Economic
laugh
862
831
soldier
westward
##bbs
##234
Warri
strengthened
Discovery
Trophy
##owed
923
valid
prize
DAX
##leans
##rox
biographer
DEL
##SH
##ersed
Shak
Eight
##quan
054
##anka
publications
##music
##VC
AMT
fundament
ensu
##EON
memor
nvrenxinji
Case
SARS
1335
reverse
##159
considering
##hd
1630
1730
Minor
options
pump
Stage
empty
##elligent
cookies
Dallas
origins
Kot
xb
tenure
crack
vot
##rov
##149
Twins
remarked
Method
encl
##686
Darwin
surrend
Vick
1777
##258
##ifies
##FX
##ocity
##ibilities
Joan
Lav
Vegas
##192
Resp
summ
Afghan
employment
ruling
Tiffany
furn
2048
##umble
##995
856
##145
GLK
Eur
Path
##ellation
1803
Brid
Better
Linda
Canterbury
##ppe
##1010
mayor
discont
Armstrong
gift
759
778
UCLA
Hugo
Nev
Skype
deadline
Claire
cant
gtlt
educational
Organization
Lag
trend
trump
##itarian
bombing
SYS
##ewell
requirements
taste
prev
Analysis
774
limits
soph
orchestra
Reading
certainly
EcoBoost
##enh
promise
Davies
Fleming
##cht
interpretation
FW
NK
Node
lanes
##rise
##oL
##ECD
organisation
Quebec
innov
frequency
Ernest
Lac
SY
md
##604
Chuck
Transportation
Klein
953
retro
patron
´¦
##anlan
1002
offense
handle
fewer
struggled
NATO
##rapped
Things
752
Princeton
Peng
fi
##assador
MPa
artwork
##levard
hydrogen
Kend
Yo
fold
##acles
CFTC
Eventually
Bod
Culture
1827
enlisted
##ieth
Register
components
##908
assembly
Dwight
##onc
exha
Thank
reduction
Clarke
colleagues
Yankees
Dud
##uche
Economics
XJ
regedit
Fresh
surpass
Argentina
disagre
GALAXY
href
ub
##PER
##essage
036
##332
857
##256
Reich
949
Orchest
portions
golden
bell
##zu
Than
Ship
profession
advertising
Gartner
##inite
httpt
Pav
1192
butter
Leaf
counties
starring
1645
Theory
recall
Dual
##ROM
tea
Lut
##evelop
##pled
brick
##ebe
graduated
salary
##402
##iffs
ALL
conspir
Echo
##xia
tomb
##osexual
cannon
ecc
##care
Elon
SIG
Vern
##flu
##hang
weekly
864
Orleans
guitarist
Ms
4950
improvements
Gang
1224
revol
Duang
FDD
##736
Boost
Henri
Madagascar
Dow
heir
principle
Jake
Joint
##BL
##venth
##369
##aurus
permitted
Baron
disappoint
exclusive
armies
travels
essay
Indonesia
Hampshire
８０
2160
MacBookPro
XBOX
Laura
##YPE
cinema
##903
Intelligence
RAID
Jazz
763
Pruss
elevation
drinking
##hers
Colin
##ascal
Strong
persons
altered
beam
952
Au
navy
##olen
deterior
Kane
founding
Circle
##umph
Remix
wealthy
XI
μg
subur
courses
##stock
Shield
892
##unning
##958
##imp
Shin
observations
ah
nh
##bian
##Query
Chateau
culmin
##fo
##onely
Solo
MOM
Kerr
aerial
##raid
compounds
959
membership
Symphony
Tow
zj
shorter
merely
bag
nut
926
artificial
Gru
jet
##News
##▁▁
1690
Electronic
demolished
##GP
Tong
polar
##ambers
girlfriend
Gregory
Mann
pul
##zg
governments
edited
Queensland
acknowledged
ske
##An
0002
927
ling
exists
discovers
Richmond
practical
Jacques
Roth
duration
771
quote
ATI
hurt
talks
Aur
3010
sentence
Malt
1005
Chrom
ongoing
conven
cream
judg
gg
##terior
Heaven
VD
##isy
1198
##ffield
Thr
removal
Oil
##807
aftermath
Berg
Greatest
erected
kk
##yx
##ensively
##229
indicating
##quis
##space
dot
##uese
045
STAR
celebrated
##てす
##304
##259
779
##232
088
Saw
##fol
shoulder
Liberty
initiated
BK
##adier
defending
grave
##653
prototype
gathered
PIN
msc
##agh
##club
##339
SSR
scr
pt
Adidas
##suit
MON
##starter
##669
Allies
kWh
##autical
indicates
gender
±±
6030
##134
nerv
proof
3650
amid
highways
##bj
##Music
##osph
##ourt
Shop
applications
je
##elin
##ensed
Muhammad
##iciency
feeding
983
031
884
campaigns
connecting
physics
Portuguese
Pedro
##online
##itively
1788
##ubble
##cules
contribution
Lie
liv
9001
Jama
sab
##507
##ogg
##189
847
settlers
closest
conventional
YA
##zt
##wer
##00000
##aris
744
establishing
123456
##igrants
Moscow
##obo
781
Arena
##yright
filter
thunder
Beau
venue
##KE
1277
Kil
wrestling
provision
AAAA
EPC
tor
##zk
shares
defences
chapel
jurisd
##cia
##Version
publishing
##base
au
yd
##ti
##antastic
0871
Bent
0431
signature
package
Falls
Cyrus
HH
##ichi
Maxwell
Raf
lh
neighbour
originated
##eria
##instein
##arged
magazines
reveal
glac
macbook
Illust
legislature
Uk
qing
##oyd
tube
Communist
OECD
Syl
UX
##asse
##ums
placing
962
Pepper
sending
##ashes
1225
uncom
956
734
Sche
Eagle
##It
##ан
1506
trail
Overall
arrangements
cow
1199
1566
array
legit
WWF
FU
Hir
##On
bearing
Altern
057
##909
Adrian
approaching
organised
Finland
Christianity
spoken
turret
REIT
Pt
##rible
improvement
spaces
Leader
developers
##ORPG
##legraph
##fficient
cra
anime
##778
Chronicle
Pittsburgh
##regation
Pont
1202
Weather
raids
Ronald
emphasis
Honey
challenged
DOC
Very
##store
##olia
967
sav
##hears
couldn
Generation
consistent
Dian
1791
chrom
Regional
##isconsin
experimental
##amas
1778
8848
##ribution
electricity
pod
##gence
##137
quora
1609
autumn
Charts
statistics
##zhuanlan
##Re
youngest
stationed
Aber
insects
VGA
mature
Julia
understood
939
##985
theatrical
##expected
Range
overwhel
Mn
753
knock
photography
Targ
##vant
3680
strongest
##ppers
comprom
783
corps
HBV
JTWC
##Car
attending
empire
992
supplied
rocks
DEA
dissipated
Laz
##tic
##part
1170
##154
regime
##689
##TION
evacuated
##265
Madison
ROE
##abilities
0592
Reed
PCR
VIE
1783
donated
penet
3999
svip
##ricts
visits
volumes
principles
angelababy
##ding
979
##riptions
Ya
YES
jury
zs
##wu
##emo
pret
AAC
Dat
Gmail
manage
studying
optim
Eleven
gentle
##uin
##oned
fee
797
6124
Grow
branches
Manuel
##igenous
toler
##ipher
indeed
Foster
worship
##card
endors
Laboratory
rebellion
6010
charity
bigger
Neb
##unar
2350
Drag
１９９
phrase
mood
792
WWW
Fine
Wisconsin
banned
##izard
##adeon
9300
##776
Evil
Sout
coun
seo
937
mechanical
withdrawal
Seg
jx
1375
##iku
investigate
proc
8600
691
conservation
Yorkshire
##China
collapsed
cousin
Beth
Raid
ZE
replied
##orge
1670
electrical
##UST
Victorian
201609
Cit
Gigi
##isse
##entation
reducing
concentrated
tubes
champions
Democrats
CAP
fasc
gram
acoustic
##adesh
license
##law
sheet
893
Need
##eworld
competitive
Jeffrey
welcome
Bible
Fighter
Tir
ku
##artz
APM
McN
Actor
Jefferson
git
##ен
##inh
##itate
danc
##We
##289
##707
1502
specimen
extrat
HCl
Ping
Sultan
##rand
##stad
Herbert
melody
Sega
Retina
Bapt
Æthel
##atan
bbs
dust
1611
6019
matlab
cruc
Lauren
ranges
Kos
bench
##mented
782
871
NOTE
QR
##ERT
continuous
snh
Memory
extratropical
Pand
Application
##ECH
Howe
##EEP
customers
VAL
ZS
Cruz
##othe
atomic
Offer
Corp
fulf
1740
976
eª
##ocent
Alaska
accord
948
##272
NaOH
Caroline
##endi
recept
JYP
991
Plaza
##ussion
connections
benefits
clar
OpenStack
BX
3230
098
survival
Dim
seized
Autom
Protest
stops
Globe
truly
bang
fab
wake
tfboys
sj
##paper
obsc
radiation
GalaxyNote
representation
##addy
##keeper
Rangers
rice
##iQ
##mans
##gom
Fram
##238
parody
Cricket
Bradman
Dh
##DDR
##esta
961
874
AVI
dubbed
##LS
Chile
basin
OCR
Judge
Sina
HBs
Nothing
creek
Timber
##onom
shadow
Hybrid
Greater
daughters
manif
copper
Carp
SPDR
Industrial
aqu
hitting
##ourse
694
873
Poly
ruler
Kur
disorder
SET
##ser
##aters
0010
shishang
##557
annually
Doll
★▼
761
842
battlecru
ZG
topped
##881
##opez
valuable
##xxxx
merc
Crazy
Coco
Sr
Buzz
mos
trough
##VP
##wq
##ldon
weigh
watershed
samples
Nak
UE
Herald
lighting
thirteen
##eding
impression
Johnston
Sheffield
Metropolitan
Gem
1394
Norfolk
Helio
Beginning
LI
fault
##0008
038
instagram
SAM
rib
##blem
ªaº
AOE
Qualcomm
Hass
gam
##arrow
##igible
Chad
##azhi
humor
priest
Cec
exclud
075
brilliant
##SEE
ING
ballad
##ictionary
photographs
DIS
RES
fc
flower
Doug
miu
tap
productions
MIC
Ny
1585
##161
##352
dread
1110
##agic
Syria
Legal
earthquake
Ow
colors
Medicine
traveling
##enos
##wei
Shir
##179
comvideo
Bott
Gust
za
##onge
decay
##lington
terrain
##castle
flows
##achelor
##join
##bee
1595
centers
APS
faculty
cv
scs
##1985
736
emotion
Emmy
fossil
CZ
784
assembled
Eg
##istent
exceed
Barnes
Train
characteristic
flooded
float
provincial
texts
##662
Multi
Chandler
Sed
cir
dock
##List
scattered
##ilding
devast
##esterday
Fischer
034
Grade
identical
McKin
##opard
##148
##otto
sixteen
##146
##ribe
##ettes
promotional
fortress
Buffalo
Aw
fer
##As
ceased
Saturn
Hood
##onium
##ulk
##292
questioned
Pra
interaction
Bradley
transportation
bnt
##ulum
##ogram
##157
brig
unclear
WPS
unw
##IGHT
abroad
741
Tourn
IPv
Janet
USCPA
EPA
Pure
pairs
Karen
##abi
blabl
Hillary
surprised
1213
0851
##144
849
Jenny
Selina
KS
##uil
4050
971
##236
Basic
µc
##nar
##opin
leaf
957
##172
Sad
Belgian
commentary
imagery
Similarly
stack
Branch
cartoon
rs
voting
worn
##yun
##uating
##acht
swing
failing
representatives
oriented
FG
Wear
iq
npc
3080
1772
772
arrives
Investment
fisher
princ
972
Utah
Rus
prost
Phantom
monaster
ART
explorer
explicit
Butter
Burns
##front
Adventure
Sebast
underwent
HX
Lif
honey
##pense
Daydream
taxes
Turkey
exclusively
Political
Hearts
zx
restore
busy
voyage
##aire
##cm
Gabriel
Ace
DHC
##jian
victim
noble
proclaim
Schw
processes
Affairs
##0003
##0006
hyper
Gaz
bishop
client
Marge
competing
platforms
loud
1535
deeply
labour
portrayal
hide
shu
##993
MMORPG
sinx
Sierra
Um
vit
##adows
boyfriend
Trou
ZX
banner
tox
##904
796
Shep
##783
Fourth
Aj
##rooms
isot
chron
PSV
739
841
Panzer
burned
##cj
##Kit
infrastructure
tale
##hall
outline
942
Smack
sketch
Mayor
##END
links
minority
troub
##fx
6016
##997
Flag
faces
Credits
nt
##656
marine
Monday
lyr
##org
##rep
VIVO
songwriter
AICPA
872
grandfather
JG
##xiao
1273
abuse
##337
1206
advised
approaches
TEL
##tar
##mart
##902
varied
Ming
##rock
##iman
##235
opens
Rice
iF
pel
##Up
4880
sovere
universal
##ск
##class
##253
assum
boom
##colm
suddenly
##pal
##anto
984
unlik
accompanying
Fear
##inian
1695
##ificate
##386
Islamic
Saxon
##vik
##ethel
##agne
compound
destroying
cuts
burial
architectural
##bed
decoration
Holland
traded
gp
tooth
1315
click
distant
reviewed
##ente
2550
noise
fourteen
maybe
Vic
liren
pier
##702
succession
respective
researchers
UFS
##ovsky
Devil
Wald
cards
##Id
##avan
une
relie
SKY
communications
##nan
##iture
##1056
793
IRON
UW
2026
myster
FOX
Bun
ble
##Is
697
##767
Against
Orchestra
Wave
##lining
Patri
fairly
Independence
fame
##aca
##okao
scores
932
##758
1787
convey
Temp
borrow
nee
##oad
##KO
blah
Diet
translated
corporate
TZ
##Tech
934
dwar
##Game
Bio
Cemetery
steep
##cliff
1207
diverse
tech
tested
##oples
1602
Constantin
Oslo
##ithm
##inae
dying
7100
slavery
##heimer
773
Mirror
accurate
Lopez
##home
amateur
LH
jiy
pill
##itic
Num
##olly
httpmp
Drake
Malcolm
Wool
hin
maps
##lights
1160
unexpected
##auer
Guinea
referring
Palm
##hematic
parks
Eugene
Did
Occ
considers
experiments
↓↓↓↓↓↓
Scientology
shelter
##ele
1099
##alan
LLC
communist
##mediate
Chapel
Wake
##uba
GLC
２０１６
conceived
surrendered
##dam
##mod
Brain
destroyer
reinforcements
Boulevard
chi
sword
challenges
KEY
##oons
##reens
attorney
861
794
cq
##こと
##oka
EMC
Crus
ib
##wig
943
##247
Documents
##Col
1185
3180
handled
Agric
RH
ya
##245
Duncan
Jur
scrap
891
geek
Kep
##opa
supplement
RR
Radeon
1276
##olan
##181
zhi
Byr
speaker
##roller
qualifying
##HU
##Media
##907
assert
absent
riding
##ailing
idol
Cord
Cany
Pil
##urities
##rite
SKU
Career
##rx
1274
warri
Relations
Mercury
##fast
1266
1725
uncon
WAP
2450
Buy
blocked
structural
tape
##Int
##enburg
##istical
931
1705
Kimi
Lil
yz
0579
disch
##246
Everything
tactics
Description
afford
significance
conversation
Ri
therm
##essa
096
##182
Region
##canic
voices
precipitation
fed
##ZA
##gio
trunk
Chester
Trad
cleared
KOL
ADAS
explore
##usalem
Lower
ot
##esar
1258
dinosaur
Own
nurs
Cox
##include
worker
orgwiki
transported
lux
##zes
1588
Colomb
tonnes
Boeing
CUR
##odia
Danish
##sts
##vs
1430
##0009
##onde
relatives
Waters
hell
##pit
depress
participation
proceeded
##284
Senior
RSS
##etheless
Draft
ns
yan
1525
##andra
Alc
##apper
##763
statements
gardens
fest
##umns
MTK
##ometric
lifetime
legislative
##gomery
OW
®©
##nu
1395
##heric
airfield
preparing
Kath
TOM
##tics
##bc
Theater
shit
Others
hybrid
ram
##hum
##Val
##isive
1648
scar
revised
advertis
BH
1592
scope
##zhi
flee
７０
Student
teachers
FIA
SEL
7700
warfare
Tem
rect
##icated
##iden
##ovich
791
Twin
provinces
GameSpot
Ath
##gow
1003
##2013
879
airline
camps
unlikely
Ey
Gas
##BR
##Bar
##erning
##abal
Chloe
##ensen
977
boilers
CIO
##227
intervention
746
Param
Montgomery
intersects
WOR
javascript
##illon
seas
0591
12315
proportion
confirm
Safety
Punk
nose
##hend
easier
Luis
crops
paras
rp
##DD
1475
learns
universities
sql
constitutional
##ught
Aub
Fig
Led
1290
##assy
chemistry
spark
##882
1203
youku
reli
insurance
Laf
##285
Jerusalem
Cinema
Until
carries
stead
Gap
Requ
Nest
3330
Abra
Porter
Ran
fra
##alg
##usters
##224
beneath
##bone
manip
##rieved
1007
chronic
Cho
polo
morph
Typhoon
Credit
IK
##irk
plug
##00000000
favourite
manga
##iq
##post
extinct
terminal
withdrawn
##pike
induct
1605
magnitude
vulnerable
Liv
1008
##oves
Thanks
Comics
monster
confron
CHINA
Sherman
aft
##tes
Barn
##ulsion
##dess
##ovak
##ISA
summit
PayPal
displays
##Arthur
grossing
Wine
heritage
Israeli
dependent
Isaac
##biz
Chase
964
confident
Solid
sacrif
yin
##haus
##pine
##194
smoke
##otta
Camera
Dre
Sri
pix
##RT
##283
SoC
traditions
praising
Pract
wm
Change
Blake
VX
xian
Bj
##685
Aftermath
Edmund
uranium
dreams
Mig
1565
3380
##izont
##282
EVE
Architecture
tough
##hop
Alban
Cohen
toured
##minster
Cours
Nathan
hills
##ifier
apps
0293
Alberta
reinforced
hind
##187
1245
reorgan
prel
##ebook
extending
killer
petition
Ancient
Give
##Set
##plus
085
breaks
interviews
prisoner
Brazilian
Ster
nautical
1399
kills
commanding
Gross
infer
##184
commenced
volcano
Cardiff
proposals
racial
Bing
Wifi
inhib
##Star
Operations
cabinet
SmackDown
Rebec
947
GTI
##occ
maintaining
##ACH
##Plus
NTS
relocated
Trinity
promin
##NDAM
Conservation
Sense
gx
lamb
##った
theories
stim
##chw
##apa
##rys
047
examination
bd
##rific
chore
Glas
estimates
Brooklyn
fert
2035
##unc
954
Cover
##BI
##inery
beating
lasting
QU
##mc
Alien
Shar
revolt
Balance
pic
●●
##ibet
Adri
warnings
cheap
Protection
Joel
Month
##celand
Article
##white
RTS
tickets
##igious
##achute
reforms
Gibson
Survey
forecast
forb
##ANT
Lynch
cens
liner
##dan
thro
Kas
1735
##☆☆☆☆
educated
pub
rely
##via
##zig
##eps
interpreted
##fin
Wis
##landers
remote
shifted
enabled
Floyd
protests
displaced
Vas
##City
##itol
##asaki
##amy
1625
4750
Newcastle
##775
SHE
Winds
Laurent
agriculture
dos
1420
##ublin
onlyinclude
swift
GET
Kun
sings
##eras
##reated
scroll
reactions
consumption
Sic
##lesh
##263
commanders
Lis
##abad
Whats
CHiQ
photos
##found
tool
##intage
Philos
##mercially
Spencer
Anders
Exam
9900
##959
##ISE
Barcel
abst
lover
Verm
rebels
Volume
categories
sx
##iw
wished
districts
Coal
##461
ERA
Dudley
Iceland
ＱＱ
##rection
1786
rivalry
##BANG
Amendment
linear
comvideoav
Theodore
Musical
worse
essentially
shallow
vig
Athen
##sche
##urricanes
CAM
##fang
##itime
17173
##inda
consolid
##658
crimes
IRONMAN
Dig
##IIT
sailing
mechanism
sponsored
Kum
rehears
##142
1264
implemented
Rebecca
KN
048
##286
cable
rains
upl
knee
##651
manufacturing
Schum
##ocratic
Dock
Golf
HER
##hire
##maker
##DM
##emble
Perfect
segments
DOM
Midd
##aq
elite
potentially
biz
gd
3150
0757
observation
Members
dense
##article
0574
##759
reader
##gi
##icia
1272
1710
std
excuse
Dawn
Hig
Mam
¤´
##alin
07010
decorated
vital
Blanc
##ennial
##uitton
tours
##CS
##etary
wars
patient
devoted
Republicans
cyclones
Observ
##ancellor
##imity
##aping
Canyon
PLA
SMA
oct
##rent
##jc
##onso
0756
##ospel
Sox
shou
ages
##ASA
Kickstarter
CQ
ee
##359
pole
Genesis
Lem
##odon
##athon
Coffee
swit
arguing
Joey
##444
##strom
travelling
Phillips
QB
evident
##shot
##756
Norton
Jamie
Gat
lip
tension
cmd
##backs
Bund
Racing
thrown
Powell
sharing
##indy
##984
SSL
CMS
multiplayer
Holdings
Tank
Portugal
Wagner
sized
1504
##atty
##aiden
Attorney
syndrome
Bog
xbox
##FL
Burke
##UMP
Fen
##から
1313
airing
Guild
GUNDAM
Alphabet
Hoff
tang
##PO
analog
sheep
##553
Study
##wareness
absolute
##hand
##fm
enzy
quar
989
##151
numbered
Match
lar
6009
Comedy
ISM
Imm
##ycl
Maxim
UCL
Constantine
beaten
kHz
ties
1312
drown
Ventures
descent
Productions
1066
##agles
##787
confusion
equally
convinc
BCD
yc
065
##191
Mozilla
##happy
##asis
##angular
upset
NEWS
Basketball
Cant
ZL
##uer
##rium
Wed
##Sw
5190
clip
healthy
##inate
inclusion
##igation
altitude
Tigers
##icular
usage
##164
towers
fundamental
recurring
Bom
Tap
##irus
3360
##785
Orth
Demo
drummer
Rivers
##ervice
columns
followers
caps
LeSEE
RAR
##adal
Collect
concerning
ordinary
dealing
tempo
Rah
1586
##isons
0532
Burg
##ktop
pregnant
oz
##oub
doors
##umblr
Continu
Icon
joke
Anat
detect
excited
Emb
★★☆☆☆
Henderson
JL
quarters
ASX
##alid
##ampton
releg
webcn
##quiry
Stories
Belle
cathedral
tribe
squadrons
##TEM
pover
Berry
api
complicated
rings
1366
894
Harper
Artist
latest
XPS
feng
##lake
##zn
1328
↓↓↓↓
merged
funded
Andrea
##lia
##963
involves
sculpture
nep
pian
Thames
epic
addressed
divorce
accommodate
Randy
##cend
##Box
variation
pseud
##Mark
082
076
Franz
relation
Athens
Actress
Mills
Ferdin
civilians
administer
ris
argue
Fifth
Pascal
1655
bears
##952
EZ
##oku
##icester
judges
Assistant
##oux
5216
disk
blablabla
Mine
Stack
Cock
Kepler
finger
##lant
##rup
764
1781
Brew
aer
##pack
1193
CMU
Using
233333
Serbian
sne
operator
Butler
poverty
Canon
Burger
payment
prest
##11111111
Indonesian
FH
##kit
1638
##ulus
Marco
MAS
MacArthur
Perl
Legisl
Logan
Epis
Ultimate
sustain
variable
tissue
##Eng
##NET
##но
drain
Nobel
gods
##ZE
041
941
Select
requiring
drafted
##graduate
dancers
Ober
##omes
kidn
Nass
stones
Champ
boundaries
cooperation
Vladimir
Coc
impressive
interface
Blair
Kab
Meyer
UR
９０
##hey
3060
1755
pursuit
CurrentVersion
AIDS
095
EST
collections
##oLens
Sib
##991
complained
Dublin
BCE
charted
Wire
1758
##auge
framework
##GR
1646
Francois
DU
Omn
jd
ying
##nut
domain
feared
¸´
##xing
superv
MCU
BIGBANG
Tas
##ilion
handling
portrait
screenplay
Historical
Stark
proteins
png
1615
##ieu
grid
guests
beliefs
substitute
##ра
##ocene
adc
operates
HoloLens
streak
JBL
diplomatic
##alling
##174
Romney
WI
WAR
３５
##hero
##orum
##ounters
Glenn
supern
Advance
Chapter
persuaded
jurisdiction
Baptist
##gus
strange
Desert
listening
hopes
Mechan
Peg
dimin
ramp
1601
Louise
Cavalry
IOC
XO
##wright
##etics
##erse
##uns
chase
supports
##949
Joshua
##ridor
##arthy
Tina
iii
zheng
´¯
1685
4980
##735
CNY
２０１４
Movement
Amp
ug
##yll
##nels
##704
Leeds
knocked
macOS
dynamic
MOS
Pine
##icism
##urred
resolved
overlook
biological
circular
participants
##atoon
##aran
1025
##504
1267
hostile
Cyber
cookie
Masters
cattle
##KI
1278
##erek
044
Mali
Kor
##uke
##arus
Christians
apolog
Costa
gonna
##eca
##uscript
##932
breast
RAW
telephone
Athletic
##fans
surge
Ages
southeastern
##arts
##asury
##omed
##parts
Skyl
Millennium
Jesse
Tribune
Hull
Tint
##hs
##onation
1661
Reader
efficient
constitu
##UG
Pred
Scots
mysql
velocity
AIM
Fut
FUN
3110
##221
mythology
highlighted
ZH
gs
gaining
reass
1204
Nicole
congress
Creative
Tat
drift
ward
xs
writings
locally
advancing
sony
1188
944
STE
costume
Hus
##manuel
##etti
promoting
Films
accessible
##leted
Reagan
##ync
##aults
Richardson
horizont
hoping
dg
1568
2980
scientist
antib
Activ
processing
industries
Rams
##ilu
ups
Clif
Tournament
HZ
fum
IPA
brings
##779
receives
Hak
##link
Heb
071
desper
##167
extensively
Micha
SHIN
Antar
Milan
MATLAB
Nevada
##anni
CDCD
##969
MBP
JPEG
##avo
0003
##oki
##269
explaining
traditionally
housed
Iv
Was
Zn
##992
061
arguments
BTW
conflicts
Iss
Zoo
##Que
##oric
Campus
Communications
rivals
CNBC
disturbance
crazy
similarities
Barcelona
xj
BOX
acquis
Omega
mirror
Gonz
Wikipedia
##group
1728
##737
Interactive
Churchill
harbour
decrease
Trent
mixture
##ml
##Max
2750
##884
separation
doge
wonderful
por
994
##week
1603
homosexual
Pilot
##anim
rejoin
Suz
Holmes
Contemporary
Venus
Bf
Mang
##essing
noticed
quit
cosm
laboratory
explanation
fle
stolen
##ongs
##ipation
canon
GalaxyS
##restrial
##aternal
Hous
trailer
Device
Version
Holl
Pall
Rac
##quet
##oints
Adela
Isle
sentenced
HiFi
elaborate
Aviation
ding
diversity
gpa
1635
0791
marsh
##ENG
batteries
virtually
VMware
RCA
5060
049
##986
Being
##afa
##ungle
Eva
UNIX
embarked
HL
hate
outstanding
Envi
GTS
villain
Ivy
Vocal
pir
##uber
jQuery
proud
yue
##aceae
Left
Angle
admir
engineers
routine
Baltic
PAL
rational
1536
24000
1782
Palmer
considerably
documented
Duch
NAV
Leicester
timber
Drama
CY
IND
LIN
Site
ber
##rag
##Life
086
constantly
humanity
commenting
##CCI
Cinc
naming
##dog
##ро
authorized
kitchen
Crawford
Flex
##Pay
##avic
6001
ADS
predators
tasks
Idol
nike
xls
1006
poster
Felix
Lip
##web
weakness
cai
##Cap
stability
##actory
##aneous
Root
urged
aspx
celebrate
celebration
##▅▅▅▅
Nero
Tyr
metric
concurr
politicians
Rt
patch
##ewe
amazing
guan
ECO
remembered
gcd
##SM
Spin
Springs
pleased
afraid
Bears
Host
##rels
046
Newman
Brandon
ABO
organic
Hermes
Maine
##rang
##usa
zhu
AVG
bomber
Representatives
JW
httpv
dece
Selena
veteran
Cel
Rear
##achi
##phant
slogan
Parks
volunteers
Rif
WCDMA
Yard
##esa
1004
dozen
Glasgow
Enviro
TYPE
dm
fake
##ivic
hex
##quer
Hein
##938
Dart
RIA
hence
1622
##ampa
Wei
Florence
AGP
Dry
ko
##264
##936
reporting
curve
cryst
decreased
Chamberlain
Ost
WCA
vim
２９
##ellers
##shu
rescued
Abraham
Typ
tb
##ZO
tune
##NER
##OSH
recruited
ppp
1774
eventual
Snake
adjust
Grove
Celtic
REITs
Try
lung
prince
warned
##racks
Cann
NLP
##rafts
DQ
Raz
1522
1545
##ginx
Sugar
Diana
Eb
##MB
1014
##igma
##eward
depicts
Reddit
Zara
µifrac
##See
##utely
colours
##953
warships
crashed
1263
mistake
Mile
mouse
##PLAY
##CN
2530
commercially
##249
Desc
Sold
1745
##opia
3320
1607
1067
##ocolate
census
##hou
enable
8200
competitions
revival
Reyn
Publishing
##anity
aside
drunk
Character
situations
XBRL
Cyclone
nn
tar
8300
thereby
anyway
##intosh
Woods
Dell
##orig
1140
unve
organisms
##oids
Technologies
pitcher
sus
monkey
Enix
facil
bowl
Wellington
Title
Valentino
restrictions
##wind
Armani
ZUK
##iast
threats
Garcia
miui
laps
5250
Koh
wechat
1643
scandal
USER
##239
##956
developer
##937
particles
trapped
CGI
sharks
##rehensive
Ced
mba
##kan
##rozen
1642
Concept
##782
debug
Squad
Franco
walked
layout
accidentally
pursued
settlements
##URE
spokes
##ormal
##287
calc
Jacobs
##changed
Cincinn
##zel
##child
##687
suspected
Cornwall
##oding
Nut
sf
##yc
##iously
Barrett
1257
1784
weakening
Erik
entr
##iminary
Springfield
Eyes
##lean
##oder
062
opposing
garnered
disappointed
lecture
←→
salv
VISA
Ferrari
renewed
UU
##って
contracts
positively
##294
Therefore
ppi
tasked
Pere
##sis
##ит
extends
juven
Geoffrey
Nom
hd
wz
##ARK
##archy
##iciently
ashore
dal
outlook
authent
medals
Primary
##amera
thorough
6080
##939
marking
Westminster
Madrid
Montana
fru
enorm
081
083
amazon
##231
##ynos
magnetic
infection
Gone
Hang
Leap
Commercial
opinions
XTS
##wyn
inning
flour
##meizhi
produces
ADHD
mixing
paying
Rav
cache
##983
editions
posts
honest
Derby
nhmeizhi
Sent
Sara
teammate
ECU
McCarthy
Towns
nickname
mock
wound
manuscript
##Mind
stroke
##anti
Evolution
escorted
Musl
variations
HOME
##kov
##nell
##held
22000
IPAD
updated
Draw
Marines
Engineer
Dakota
IW
Large
##jr
##iev
interven
avo
##opsis
imprisoned
CCI
##797
batted
rushing
##xp
##itects
##berger
recruit
##ENS
Personnel
Gothic
eld
lion
##uced
##248
tourist
Gibral
Cortana
Somet
wishes
upcoming
Truth
preserve
Luft
machines
messages
lighter
zi
presents
##297
grows
None
##zd
comics
balls
Denver
farmers
Pos
ming
mild
##Off
realistic
radius
fires
Cornell
integrated
Mouse
uc
##terest
##sha
##739
encourage
Protestant
ibn
▅▅▅▅▅
##piece
##uta
forget
associate
Cincinnati
Lic
##mother
1211
##ibi
silent
Combat
inherited
HIIT
Wid
aest
042
##uku
##rosion
##＝＝＝＝＝＝＝＝
avoided
Buch
sic
##omys
anx
resid
4180
##ETS
INTER
suggestion
rendered
Heavyweight
NAND
Qt
Sue
gank
1627
deputy
dispat
voters
Hod
odd
##entieth
0411
remind
relax
politician
Maurice
anticipated
Ferdinand
dan
nam
##CT
Gren
provisions
msl
Brien
Schumacher
ABA
Glee
##171
Swan
capturing
Riley
Use
regulations
##ernel
Maple
Armenian
AOC
Font
Gav
Vul
##cape
##661
default
##regular
occasional
Hok
５００
##zed
##ampire
SUPER
##ugu
Framework
Gibraltar
LF
files
stern
##now
##emark
shang
072
##486
MMC
ignored
commitment
Emin
##avian
alert
##664
##731
virtual
IOT
##uard
##NT
078
##652
patri
Ellis
discontinu
Dial
EI
JF
##iS
##icom
plates
##804
tracked
Bowie
Adelaide
Eisen
##WARE
##aston
##334
inhab
##Works
Commons
Grande
choir
Cena
Dex
ath
##iott
invaded
bread
Tucker
1582
LPDDR
Constantinople
Muslims
Stern
hier
##eals
##gary
##opilot
improving
compositions
ld
##zhen
##repr
##aye
kmh
##654
##BSD
troop
Outlook
MEMS
##ibe
092
##987
refere
parking
Julie
tmall
attraction
Faith
msconfig
sulf
##rice
##ws
##MH
Maggie
bombardment
nc
developments
##ICK
biography
properly
contribute
##holm
Circuit
Kang
Rene
ul
1338
indigenous
ATL
visa
neo
luck
043
implic
strikes
Universe
sensitive
Kol
rugby
##orde
imposed
romance
suspension
awareness
##stown
closure
Mathemat
concepts
jy
##itory
Chet
Former
AOL
COR
Kens
ws
##ート
Percy
OpenGL
clouds
sinking
Vin
##gard
1604
##umberland
Viz
##icked
blast
##786
##356
evacuation
##oirs
helicopter
COP
Kub
##Read
##upid
1307
Edwin
Quad
volcanic
threatening
priority
NSA
##brook
Meteorological
CLA
SAA
holes
##actic
1305
GAY
¬¦
##bin
McDonald
jiyifa
QT
8700
HKD
Afghanistan
MOTO
arena
BMP
##ijia
Archbishop
Berm
1518
occurring
progressive
Batter
Hubb
Og
Vita
1415
##ummy
##artime
Sword
BMS
Evan
focuses
territorial
Marshal
##acular
Heat
reporter
##iamen
##683
Veronica
Sang
Sah
WO
cotton
##heart
1214
1521
##antis
assets
Malta
Save
##vd
##AB
##eri
1101
CarPlay
##363
Ble
##ablo
##ocy
GTR
superst
layers
therapy
Bened
Mt
##tains
##ethe
intr
Female
##TeX
EUI
069
##money
##zq
1575
beer
sei
Heath
Cros
Filming
AMA
Tall
viv
##through
seal
##ANS
metre
Rodriguez
ASIC
wors
##DO
974
CRV
challenging
RED
Vuitton
##ectors
screens
##otting
Concert
Bast
Crist
##483
progressed
scholarship
Derek
Tales
eagle
##HF
offshore
centered
confused
##5216
Atlas
Window
##escope
HV
jam
##hal
1178
##oline
Inform
058
Marl
Marx
MAMA
##551
grav
CDC
broadc
Archae
networks
oxid
Pentium
parliamentary
Away
ZA
Exynos
AUTO
Counter
1197
dn
##love
##たい
1748
##sover
acre
psy
lawsuit
×××
bore
hosp
vt
1512
Gerald
detected
debris
focusing
CURR
##sheng
runner
Target
SER
grace
##erd
##enders
067
Shiva
sentiment
##junshi
muji
murdered
phenomenon
Kom
bab
##End
1223
##igar
Levi
Proper
loose
##uxe
absorbed
ig
1385
##usty
##ikes
077
##279
independently
consideration
exhibit
SOC
ls
##avier
Spa
Bron
##459
lacking
Revolutionary
rotation
Maker
pocket
##gent
##ilus
##oly
2480
speculation
revolutionary
expanding
hypothesis
df
ferry
##uine
##vic
##ет
##して
Conserv
Claude
hhhhh
throwing
feathers
hur
1779
##annels
Conv
##682
CCC
removing
Sebastian
Kyl
sack
encom
##iggins
PLAY
##xd
DOHC
##etter
bling
##934
##967
tourists
SMS
Lucky
##iors
##My
colored
Seas
LYNKCO
Element
Luther
exile
spell
##pling
##kinson
defenders
Yeti
Maced
CSGO
Ottawa
nephew
frog
1664
##0004
8400
Elite
##Rad
1517
button
initiative
Serbia
venture
Dash
Tests
1569
Jak
##UND
##458
Knights
Venice
AutoCAD
consciousness
saving
##inisc
##imony
Chal
##quin
##FET
Fergus
illustrated
procedure
lucky
##PH
##Con
211985
##147
Drum
Sketch
Singh
Baldwin
Curtis
spacecraft
arose
mes
##arius
pla
##encil
##732
gran
nevertheless
Conservative
walks
LAM
xiang
conquest
compiled
Animal
Complex
Alexa
tent
ysl
3720
WWDC
functional
touchdowns
assessment
mammals
##pta
Martha
pleasure
Albany
Ai
bing
091
Ord
eastward
vicinity
dreadn
CTC
Hub
fut
064
##lla
Amazing
rocket
targeted
companion
haz
zip
##Bang
stored
contacted
##INT
SDI
suffer
encounters
championships
Citiz
Pun
jsp
##ин
3001
convicted
undertaken
httppan
lyrical
golf
1256
instructions
gallery
mathematics
Mis
##andro
Goldman
Vienna
navigation
Hanna
##Design
##otten
Dropbox
Ling
##py
##0007
complement
Teen
Bruno
Spotify
##GN
1018
##2017
summar
adopt
depicting
##upp
prox
##allow
079
Prison
##659
literally
##inguished
dimensional
Hess
UBS
ace
##ardon
disabled
millions
timeline
Nicolas
Communication
Dong
WB
XIII
##rina
1662
##atsu
peninsula
TDI
DEM
sib
tum
##ewise
##outed
##ibal
Hank
WRC
##bolt
1219
releasing
Kenny
Ashley
conspiracy
Sandy
gest
##kj
rever
ICC
totally
Value
corresponding
Ports
mounts
##ountain
aººe
surprising
Yugoslavia
Giant
Mys
##uder
Orz
thunderstorm
vector
outcome
exciting
Factory
Eason
Yale
aj
1495
##353
versus
##uttle
##Fun
1324
059
##267
molecular
nervous
Hubbard
Gbps
##hin
##MG
Atom
menu
speeds
Pain
rider
23000
6012
trap
4140
dislik
Amber
Guest
introduce
ASCII
Candy
Move
##lus
doctors
Nice
Pocket
Winc
eeworld
masc
Fraser
incred
##hibition
Bil
lunch
##rah
##982
GPL
##sworth
emerging
Bailey
relieved
1355
089
backst
Browns
calm
##ujia
digit
##esome
1285
##141
APG
winners
##964
distinction
settings
Hopkins
disappeared
inaugural
Bench
Crew
reconc
dropping
varying
Territory
Egg
gh
kb
1022
1511
##ashing
viewing
privile
angular
Scientific
resignation
McKinley
DTS
Hamb
1763
Superman
consequence
##ifferent
Birth
##xq
##CM
1515
##olith
1348
intelligent
1201
freestyle
predominantly
Kes
##zon
##itas
##unci
Lynn
ion
Print
cheese
achievement
iEV
oral
1553
Normandy
Write
enhanced
sweep
Dana
FAA
Lords
Pony
1435
##antle
peoples
##idding
TPO
irregular
Rainbow
calculated
hl
rally
##erie
spite
##381
thoughts
Policy
##USH
currency
physically
GUCCI
solely
Renaissance
canceled
##umu
quoted
Telegraph
swept
achievements
verte
xml
Joyce
vczh
aggregate
##etition
perc
studios
MWC
Environmental
JAP
tut
##rar
##onies
Monroe
Peak
TFboys
Ches
MIM
Poe
##ports
1127
##994
agencies
Nv
##ayette
Marg
##446
Charter
Popular
SYSTEM
##lot
Beast
dragon
Composition
triumph
Cyan
asserted
##uchi
TVBS
courage
Verd
collaborated
fungus
Kaw
##En
1769
##employ
9200
##383
cruise
Wit
aux
mim
1241
1577
atop
transmission
AWD
Symb
publicity
requirement
Dob
##NS
Chip
perf
Newport
yeah
NZ
cher
1617
clergy
##784
Drew
JNA
QF
##VD
##ailand
##erness
ceiling
Elliott
Basil
Miz
##oat
castles
Boom
ay
##ilogy
1175
0011
Ana
expectations
##lined
##Key
##strap
intermediate
Loc
##anan
DVVT
loading
motif
contrad
1125
cninfo
indirect
Orton
##intech
convince
Connor
TIME
CURRENT
Nept
Pitt
##SU
##atisf
##lects
##insky
delight
##iyu
Wolver
##iolet
Calgary
comed
##atha
mystery
1706
##vironments
##leased
073
crest
breeds
moist
citizen
Joker
Nina
1636
pray
genres
armoured
measuring
kilometers
Introduction
summary
52165216
DAC
Member
PaaS
3260
4820
##INO
##244
##inski
Angelou
GSP
knowing
distinguish
RJ
phosph
export
marched
Agent
wanna
##oj
##icking
corruption
creature
Dreams
lifestyle
Additional
sid
##itative
##owitz
##izers
##762
MISS
##ushing
eligible
Hammer
Hers
memb
##Press
##spring
perm
##262
##ylum
Parkway
roadway
Bigbang
LCK
witnesses
Kra
##ilon
##urse
spots
blamed
##753
realize
rounded
LSE
Letter
Dolce
Yugoslav
##ramid
genes
staying
FII
Happ
gc
##xl
063
subsc
##makers
conced
##uketang
Hors
bol
managing
1608
Christine
AFP
##yuan
60100
951056
Share
positioned
fumuketang
Hanc
Carbon
estimate
Technical
ultimate
bapt
vp
##edoes
##apad
Marcel
83225
republic
everybody
creatures
harsh
Ply
POWER
##For
ine
##oucester
##989
lessons
##grade
##fh
3040
##276
Rocky
judicial
accounting
83225173
Lite
Sit
##ター
Resident
##eus
##AI
stall
reson
##ronics
Northwest
darkness
AQI
Challenge
steadily
CSI
RFC
##cock
##cons
1628
##emia
##ulates
Sunny
submarines
fzwb
Feed
jersey
##LY
1090
##chu
##odium
##enez
Gloucester
exercises
95105670
##isha
Guadal
Berk
flown
martial
Bulgarian
##long
##mu
##leaf
##ripp
Aless
##orpe
Rosen
reconstruction
locomotives
condemned
Gan
━━━━━
##cu
##enza
##acom
1555
Help
Working
routing
Expedition
Animation
accomplished
４５
##istle
##oche
##arte
Miche
##zha
PAD
##Group
6017
##huo
3103
mentions
Griffin
EO
Gaming
XZ
desp
parad
3105
##ursday
Transl
##awan
Blade
annex
Jackie
Capitol
psychological
fossils
Miu
Seth
kun
##walk
##то
inHg
signals
fier
greet
1503
084
memories
Lancaster
tired
##lib
##Cr
Always
Forbes
##huang
melod
Bloomberg
Jamaica
TBC
Vim
Vert
borough
tears
1410
##ieber
Leigh
##atz
httpwe
##237
Metall
PowerPoint
inducted
Ek
Municip
Nim
hf
##mind
insu
Shack
submer
galgame
counsel
##ер
1311
2799
channels
Twenty
BBQ
PID
dp
1142
##ikh
##mei
finest
emotions
##atorial
VOL
##DY
Truman
##issioned
verses
searching
##iggs
Philippe
Journey
trio
Remember
WLAN
preceding
RAD
WTF
WAV
bold
##mons
##omical
1722
##ashire
retreated
##venues
IJ
Mell
##Ob
##GI
1186
revenge
directions
aººifrac
caution
punishment
Tradition
Middles
xf
zy
STM
loaded
diseases
mechanics
2610
##oban
directing
darker
##banded
##ック
##idad
##opl
Edgar
Moh
Notes
Programming
naturally
MORE
roster
##asian
1194
BLACK
likes
deliberately
Michaels
qwq
sear
##icz
1624
1683
Students
battlefield
Loop
VF
cit
migr
spaw
transformed
mysterious
##anca
publish
##749
agrees
fortifications
elevated
Shelley
Ci
Fell
tennis
##wald
##Cube
##KS
1017
##abul
##ishops
##igne
Deal
favored
keeps
happens
Deputy
##enzo
##CAR
##etical
##urers
##rio
incidents
Astron
Ach
Github
LEE
##horn
##AY
##DNA
##season
upris
themed
##243
ACL
landmark
connects
consistently
KR
Por
hong
##ighed
Convers
Edmont
tracking
examined
discipline
mRNA
##ος
environments
Scand
Austro
##REE
curved
Chapman
CTA
PASS
TEM
##jd
##jar
##plete
qualities
coding
consequences
##etown
CFDA
Emil
curves
galaxy
mutual
Lancashire
Eminem
##wz
##362
encompass
Hask
JVM
WN
##itars
1556
##idy
requests
Origin
graphic
Fey
Kre
Nig
han
0021
##sport
Preston
actively
epit
Enc
conducting
Fellow
Xe
migration
##AO
4080
peer
##351
rebounds
dwarf
Coursera
Tintin
cave
cemetery
Arctic
1753
Autopilot
historically
acceptance
Giov
Gentle
Lol
awa
##zone
##arians
stom
0311
wouldn
STR
instruction
Quinn
participating
torpedoes
prompting
##bizM
Qing
hub
jaw
xu
##fam
1538
##ulator
metall
12320
ssd
Falcon
2080
zhuang
regist
##elfare
##zhong
Adventures
monastery
Iphone
disbanded
HDD
Booth
muscle
Solomon
ww
continental
074
##469
1182
rolling
crucial
flesh
##del
##esto
##plate
decisive
lesser
SOFT
LMCI
Dale
UVA
##iere
1516
GoPro
Canucks
##otypes
##PT
1327
1332
heaven
seeds
adequ
MALL
Reform
##letcher
1453
Miranda
Mustang
bacteria
lakes
##anye
##ARC
pupp
Powers
Destiny
GV
##Fl
1216
##img
2380
3310
amphib
INTP
summon
Malay
Headquarters
loyalty
##rh
##dal
##isations
##rians
deals
exterior
##257
Sharp
##share
regiments
bars
yo
##ordinary
desired
##zhan
rebel
heavier
refugees
Cindy
##pent
GDI
fluid
Phillies
Cream
anger
##bery
##357
exploration
Usher
Hancock
IMA
##hurst
##ZI
##emi
##opal
Whitney
fool
hb
##will
##Mac
##index
##7777
strings
Tea
##ippo
insist
##ficial
Gardens
lobby
comfortable
mansion
##By
##alus
1115
4860
postp
##Inst
propaganda
Chairman
fraud
avi
##edi
##alie
Isles
Quarter
1261
Attack
Giv
borders
##inqu
##orrect
1634
2180
##aji
guards
carefully
tourism
Scholar
Feel
##umbered
acclaimed
overwhelming
gates
##rators
##eches
1727
3980
ministers
refuses
TAB
cultures
UNI
assignment
Diane
aided
##gett
3078
meg
performers
varies
eighteen
Pierce
venues
bitter
kr
##xb
1485
##igon
Stay
demographic
Course
Strateg
xinjunshi
belonging
Hannah
Fusion
ck
##よう
000000
Flat
centimet
facts
NCT
Matlab
psychiat
philosopher
doctrine
vegetation
PAC
tai
reh
chu
45000
087
Sheldon
northeastern
Betty
##Baby
2520
##oping
##oyo
reminisc
relevant
##ydia
honors
Date
remake
Which
preparations
Claud
witnessed
wy
wartime
##Comp
##De
2285
chess
Crime
copyright
printing
AFC
ETS
gauge
##arded
overcome
Hiro
municipal
SYN
##new
##oug
##angered
ITV
Visitor
proclaimed
Wan
##atem
##osity
coaches
theaters
Male
fears
##data
Scr
Quint
EVO
##clusive
comsbizM
JAPAN
Yi
Yee
3220
airborne
kinds
sexy
BABY
Brett
CLS
collecting
gusts
Bermuda
Plymouth
incl
1322
chlor
Arms
##252
Medic
AZ
Sul
Troy
hunt
##roft
confer
electro
Legion
##market
sailors
Eclipse
tj
##dong
##elp
EDI
Sanders
GBA
fib
##alis
alph
PConline
Paraly
##String
Sunshine
recognize
##blah
symph
abundant
FIIL
fusion
Allan
Angular
damaging
deposits
enthusias
dive
presidency
Angels
possessed
1589
ceo
Romanian
fragment
Sof
GPIO
Tonight
Tasman
Wish
dpi
1508
Macan
missile
Reynolds
enormous
Flanders
eu
nights
chicken
Thailand
gravity
OneNote
1559
Palestine
ceremonies
##Ed
##amation
3499
grain
critically
MTN
Miguel
Blow
Rise
Tier
consensus
Ask
Schools
LOFT
Experience
Hog
3340
Resort
preventing
acquire
Broadcasting
FSI
SOL
##ritz
diff
13322
ef
##sten
staged
##opus
allied
symmet
1583
Apart
immigrants
shaft
Worcester
Bib
Sag
VN
gong
##ento
variant
HBe
worried
BYD
interactions
Dame
VHS
dub
lm
##sy
##ril
##doc
incom
carved
Cardinals
HOLD
shed
##riages
Hayes
permanently
Essex
cubic
liver
##CK
##ometer
Thursday
Allmusic
Aguil
opined
##rella
Coin
##iated
Prosp
reluctant
compromise
Cash
Kai
tp
##Ab
##oton
stabil
3112
somebody
STL
Editor
Sequ
EMUI
revealing
hydro
##AAAAAAAAAAAAAAAA
##oron
1478
onwards
##ahu
##ermo
IMD
Donna
LSD
crystal
journalists
tomorrow
comprising
disagree
Cache
UDP
cros
1016
fork
##TAL
1689
southwestern
steady
Nvidia
BOM
Dipl
Hash
Manning
##mill
backup
##heads
Irving
Yeah
Gian
Kamp
Yak
2170
tron
regsvr
adds
silence
discussing
Various
NJ
##ickr
##ISH
emoji
homeless
objectives
complimented
Paralymp
Jill
sans
compat
Flood
experts
archaeological
Tibet
rushed
##oso
##andez
##alli
1703
SRX
mushroom
Moss
##Day
##ント
1766
Britt
economics
Penny
executives
horizontal
Kru
gaming
##ilis
Stella
shoes
plum
Trick
disputed
ambassador
symbols
Pitch
nr
1112
commerce
playable
##azy
Warwick
Driver
##ometry
contributing
##atoes
Corner
cats
##CR
1723
delegates
switched
Clement
tiny
##fan
expense
##ESCO
CHAN
Content
Travis
assassination
acquisition
SOLO
##HL
chan
computers
##iju
Aguilera
Cai
Wade
1731
stair
Thing
4160
Platform
##384
##kien
bowled
Lau
cere
hect
##oM
##hett
##isu
1626
accus
anywhere
sel
##chel
##osystem
##274
solve
##aniel
Supercell
Yan
##gang
1519
097
##OND
lifted
Physics
Crom
Hep
Wiki
##bane
shipped
##ovan
##uga
coaching
##453
speakers
declaration
pine
Believe
deriv
attractive
belonged
rifle
Cancer
Gir
Lap
Sorry
##ал
##atum
underwater
##271
Crane
Function
autobiography
##isure
##chin
arbit
depiction
1584
photographer
Buddhist
ebay
bike
cª
1469
##cepts
HRB
Pearson
Sometimes
3030
butt
relating
Suff
##ussy
##743
Simple
Surrey
definitely
Robertson
KI
Mits
Rid
bx
##matic
##ол
1009
##jiaoyu
frigate
Mnet
Riv
melt
##arium
##inee
##734
customs
dispatched
##iastic
##ophone
Deut
Monkey
Epic
Cabinet
##ienne
##ping
##bul
washed
Britney
involve
internationally
Krish
##qinzi
faker
wolf
##oner
##rove
3128
##reno
Soundtrack
subtropical
accomplish
xl
##AF
##atile
##asma
5750
brut
##752
Fletcher
UF
sou
##arse
12333
ants
cluster
comparing
0771
##huan
BBB
Perth
1183
1382
PGC
weld
abb
resort
Herz
CMO
IMDB
orchestral
Cube
Vari
Wrest
ost
1323
1346
shan
DeepMind
Tunnel
Toyota
Wen
1209
destination
lengths
temples
Easter
Ves
1658
outdoor
Close
serif
phon
downlo
12800
FZ
®¯
1135
1524
##assed
continent
Mayer
Kingston
complaints
sacrifice
Lob
lord
rent
##gun
1217
1619
Johns
metals
everyday
floating
Kors
##cb
Cham
5980
Amanda
LTD
Aus
Bever
Frost
jr
penn
##osal
##qual
Suite
Lich
Sne
efficiency
ACDSee
Graphics
RL
Tao
##onne
Shu
##iox
Daniels
nobody
goddess
Hutch
##bing
1762
##etto
GK
ZD
##say
##ounted
##ounge
Monument
Dum
1155
1571
1445
##este
##ongo
transit
costumes
renov
regardless
Talking
WhatsApp
Iris
Till
fever
sau
chuang
Commerce
##resso
Aircraft
★★★☆
puts
prospect
NAME
mbar
##eters
Brent
loft
LoveLive
Timothy
LVMH
Windsor
Mina
1498
1637
##conn
Heroes
Glory
immun
manufactured
agu
##ONT
modest
Weber
Labs
unsuccessfully
CIS
GOT
Hast
LN
OBD
Xen
yxj
##olves
##chron
2360
genera
silk
comprised
reserves
VOCs
MES
##ilian
3020
whales
Reid
interference
##aho
##INS
1652
##Control
HBsAg
Cheng
ny
３００
##tf
##zing
1756
compact
formations
employee
Clean
ORC
Physical
Luftw
Dew
Folk
HG
Ign
csh
mig
##Bob
1621
##485
guitars
Brock
depends
horsepower
Arkansas
cylinder
EMA
Fintech
Vue
##tor
##ット
twentieth
metab
Augustus
Estate
Romans
lesbian
Variety
DEF
##ел
##enic
4120
6900
eleg
advocated
deeper
Reviews
NW
Navig
Ride
sr
##uates
##jud
1487
1715
28000
relay
Patric
Chemical
Nuc
1533
Shank
1253
explored
Starr
VCR
PER
corp
tiger
whale
leather
Hebe
##367
Stephan
Hawk
HSE
fragments
##chant
##ounce
CVVT
trips
##nesday
necessarily
##vey
##xz
politically
barrier
thinks
machinery
surpassed
##ocese
##ovie
explosive
dump
##HER
##drop
1028
1228
##idance
reop
##ardi
intact
topics
tribut
demonstrate
repaired
Wendy
##cg
##lang
unanim
minim
##747
MVC
##echnology
NVH
resemble
volunteer
Ferguson
Gel
NIC
arist
reserved
0351
##elyn
0400
##ologically
BUT
TXT
Principal
referee
ease
fang
keen
##idan
2345
##obot
Macintosh
sixty
database
Veh
Hern
##unge
Planning
##769
editing
controller
roller
PGA
##jq
leagues
##amba
woods
harbor
Welcome
percussion
Cs
Ned
##bling
shops
manages
Compan
fabric
##unciation
Haskell
dt
##mal
##PE
##Not
1724
Chu
##neum
SMART
Underground
NFV
Borough
##gtgt
##cloud
singers
1187
hardware
Stefan
Rare
##font
plastic
guys
##uesday
averaged
Rosa
owing
EHOME
COL
JEEP
SIDI
Yosh
len
##md
##mitt
1492
permit
outs
Barber
Something
Busch
submerged
Rox
dh
##zac
1122
1196
clan
impress
##389
generate
cameo
rulers
dissolved
COSPLAY
Initial
Thunderbolt
pronounced
FCA
conjun
##riet
3333
MAD
happiness
administrator
BSD
Innovation
cabin
##rimination
Hook
lith
##fy
1369
contempor
Rein
Flames
1587
blockade
huatu
Cookies
bullet
habitats
jumping
Jobs
RIAA
FCC
##ursor
LAS
Rever
Saints
##zA
1714
##avour
Almost
##242
ATA
ARPG
Complete
##legiate
bios
##Space
Spartan
YC
pand
##SW
##alogue
19233
apk
Skinner
Volt
Extra
##ている
Heinrich
DAR
eº
luc
##odied
Stream
##1011
ambit
##OPA
engaging
joins
SCR
unveiled
JX
Vince
gains
nas
##rington
##drive
1222
Chain
Willis
##oooo
thickness
robot
loves
composers
Tee
tear
wrap
##kar
dealt
##554
##792
OST
honorary
dish
##Touch
##ipating
4920
##neath
puzz
Byzant
Jag
Sale
aviation
bicy
##VB
##ono
comwatch
Basin
choices
turbines
ae
eruption
hatch
1218
##odo
##odian
perpet
Archer
Sponge
ears
AllMusic
estates
Prepar
6666
installation
philosoph
colleges
circles
JMM
inject
##ouk
suited
soap
relied
speculated
##covered
naked
##acco
1578
6015
telev
##phi
CRIS
Keen
undertook
enrolled
Luftwaffe
Hyp
##HE
##erity
Success
##ographed
Romania
Retrieved
fights
##page
##mor
##BER
weighed
betray
defenses
Recre
1154
3104
faction
cease
Annual
YF
Zoe
mn
zones
##inja
1345
assume
##482
Instr
GSK
Strat
slower
Devon
htc
zazhi
##rays
##loo
Galile
Norse
Panama
##Chat
remarkable
ridic
gathering
Shirley
eldest
Nir
SPS
##kle
##map
chord
##arks
Leban
##281
creates
EDM
Damage
ironcl
consumer
##cliffe
Bot
2330
5950
indent
lengthy
Hort
Vish
dian
2070
1544
chic
posthum
Kry
Nep
bao
riot
##anas
##eco
2460
ally
Myc
Paramount
Ely
GZ
oak
##esk
4220
##isma
12500
disputes
screening
demanding
OVER
reconstruct
socket
spare
8006
Advis
ampl
invented
anthem
coastline
bills
molecules
errors
dawn
##athetic
##isle
Webb
TechWeb
Junction
restaurants
tactical
Bian
Sz
Tet
##ンク
subordin
Adult
##elfth
Flip
Boyd
Notable
bankrupt
GAME
HAC
1572
1398
lean
##867
3102
Skin
Distribution
Flynn
absolutely
ensuing
Luk
Mats
Push
soci
tier
##eded
carn
redesign
##osphere
widow
wit
1472
clay
Julius
##abbana
Gardner
Pep
Socket
iv
©¬
##PD
##ilin
1768
26000
##anya
identification
substance
Columbus
Velvet
coco
pac
¯¢
reef
isis
imported
supporter
Benz
Academic
Gog
Und
1221
4250
Spit
OPPOR
cosx
calendar
##edded
pounder
Strike
Rip
##cence
##MT
1547
Chancellor
landings
protecting
Singer
embarr
perfectly
fatal
quantities
upgrade
Orthodox
##abulary
Zag
cafe
turt
##rr
##hyd
CVC
glob
flags
patrols
##eo
##union
##IDE
farms
grossed
Hawaiian
Cul
sor
Structure
##itsch
##books
##enchy
advances
blahblah
SHINee
JUMP
LEX
dil
ich
scout
Spiel
Hammond
Starting
##orrent
allegations
NN
##rach
plut
##iker
1707
Hispan
##mini
eliminate
Hipp
Rum
hab
hdp
lots
##zan
Shoot
module
Willie
freed
AKG
Commissioner
Sigma
songwriting
preliminary
Miy
Tool
tensions
##xian
iso
scan
Manor
financ
Rocket
Sophie
BAC
Lakes
MIDI
binding
2049
2320
Ready
ANX
Dru
EW
Conrad
NOT
##Studio
separately
##naments
exhibited
spectators
instructed
##installed
##rath
Chung
resur
discussions
Normal
Admiralty
Wednesday
cogn
##vana
##just
##ushes
##rition
##oyle
CME
Treasury
##utsch
toug
Corpor
Gand
bout
1591
depr
chances
contents
##ensing
reminiscent
Ley
Von
##Flow
1465
1718
1734
annoy
##beit
Bolton
lemurs
Muller
lum
sew
##NY
Arist
airbnb
findings
vocalist
struggling
momentum
Multip
yj
yao
